#version: 0.2
Ġ t
Ġ a
h e
i n
r e
Ġt he
o n
e r
Ġ o
a t
Ġ s
e n
Ġ c
Ġ w
e s
i s
n d
i t
o r
Ġ p
a l
Ġ b
e d
a n
Ġo f
Ġ f
in g
Ġ in
o u
a r
Ġ m
Ġa nd
Ġt o
i c
Ġ d
i on
l e
r o
a s
Ġ h
en t
Ġt h
c t
Ġ e
i l
Ġ re
o m
v e
Ġ l
s t
Ġ n
l y
Ġb e
â Ģ
Ġ is
Ġ T
s e
o l
Ġ g
at ion
i m
i d
e t
u t
c e
o t
u r
r a
c h
o w
Ġ A
Ġf or
i g
Ġ u
Ġth at
Ġ S
Ġ on
Ġs t
v er
Ġ y
Ġ I
Ġ C
i r
u l
a y
a m
Ġa s
it h
e l
a d
Ġp ro
he r
Ġa re
Ġc on
Ġa n
Ġw ith
Ġy ou
i f
Ġw h
Ġ it
Ġo r
Ġa l
t er
o d
Ġ M
ĠT he
Ġ (
m ent
g e
Ġ P
t h
Ġ 1
o p
at e
is t
er s
Ġd e
Ġ he
i es
il l
es s
a b
Ġ B
Ġe x
u s
Ġw e
o re
e ct
âĢ Ļ
Ġc om
Ġs u
it y
es t
a c
re s
Ġh a
i ve
u m
Ġ H
l d
ro m
o s
Ġ v
k e
Ġb y
an t
e m
i v
q u
a in
Ġ W
n t
Ġa t
p p
ig h
Ġw as
Ġc an
Ġ D
u d
Ġf rom
Ġ E
Ġc h
o c
a nd
Ġ r
or t
Ġ R
Ġn e
Ġ F
Ġs e
i al
Ġ 2
u re
Ġn ot
Ġ âĢ
u n
Ġ le
ar t
ic al
Ġ G
Ġ N
Ġha ve
r i
Ġ L
o g
Ġs h
Ġ en
Ġs p
Ġth is
igh t
Ġa b
p t
ic h
Ġw or
r ou
re d
al l
t her
ou ld
T he
ion s
o st
g h
0 0
om e
ou r
d u
Ġ im
at ed
Ġu s
in e
p er
Ġp l
a g
ou t
ar d
el l
Ġthe ir
id e
a ct
f f
Ġin t
Ġ O
an s
p l
as t
e ar
a ge
a k
u st
Ġwh ich
Ġyou r
Ġ k
Ġw he
Ġthe y
e c
Ġ J
ou s
i z
Ġ U
o od
Ġal l
Ġa d
ul t
Ġw ill
i b
Ġcon t
en d
ĠI n
Ġin c
c c
Ġd is
r u
Ġm ore
Ġcom p
on g
a p
âĢ Ŀ
Ġre s
i a
i p
ve l
e w
ation s
Ġh as
e re
s o
Ġd o
or m
ar y
at er
ĠT h
ab le
en ce
a re
il d
Ġm an
Ġo ther
Ġc l
u al
Ġb ut
k s
Ġwe re
r y
in d
e p
Ġp er
Ġm e
ent s
Ġt e
Ġim p
ĠâĢ ľ
a ch
Ġon e
Ġal so
an ce
re at
' s
o se
ig n
a ke
res s
as s
as e
a u
a v
Ġs o
Ġ1 9
ct ion
Ġ j
it ion
Ġo ut
ic e
on e
Ġa r
Ġu n
im e
ver y
b er
Ġa pp
Ġp art
Ġab out
or d
Ġst ud
a ce
Ġe v
or y
en s
o k
ac k
is h
ou nt
Ġwh o
am e
i re
ĠS t
Ġp e
Ġin f
) .
Ġh is
Ġs y
Ġthe m
Ġcom m
or s
u e
u b
it e
Ġs c
i ke
c es
Ġ K
an g
re e
ou nd
n ow
l ow
ĠI t
ol og
Ġbe c
Ġu p
Ġp re
Ġ "
Ġm ay
i e
r ic
Ġth an
i le
Ġ qu
if f
op le
Ġs ome
ĠC h
ay s
Ġre c
Ġy ear
a il
at es
Ġbe en
Ġthe re
Ġwhe n
i an
ing s
nd er
Ġit s
m er
ou gh
Ġint o
Ġg o
Ġa g
Ġt ime
re n
Ġt ra
Ġwor k
p h
Ġo ver
ĠTh is
r it
t e
Ġ2 0
Ġthe se
er v
Ġpe ople
ver s
Ġd iff
on s
Ġh ow
al ly
Ġ V
rou gh
l ud
Ġ ro
au se
Ġu se
Ġcon s
on d
Ġh ad
Ġt r
m s
Ġc ol
l l
Ġ ra
ter n
Ġo ur
o ve
if ic
Ġ 3
Ġa ct
Ġbe t
w e
Ġm ost
in t
Ġl ike
Ġk now
al th
it ies
Ġu nder
Ġb l
ir st
y s
ment s
l ic
Ġd es
Ġs a
le ct
Ġw ould
j ect
Ġ Y
i ous
l es
o ok
ro w
n ing
Ġa cc
vel op
st em
Ġne ed
Ġne w
Ġt w
Ġsu ch
Ġre l
Ġ if
ff ect
Ġre p
Ġan y
Ġhe l
i ent
Ġg en
Ġch ild
Ġinc lud
ation al
o b
c ess
ul ar
at ive
p le
he d
Ġwh at
Ġus ed
y p
Ġhel p
c ed
Ġon ly
Ġp r
o ol
Ġpro du
Ġp h
at ing
o v
Ġpro v
Ġn o
Ġman y
Ġin d
Ġa m
Ġde velop
Ġof f
Ġth rough
Ġf irst
) ,
Ġf e
Ġsp ec
ĠU n
f ter
at h
Ġre g
os s
is e
rou nd
Ġa c
ar k
Ġd i
ic s
Ġp o
u c
Ġex p
et h
he n
er m
f ul
Ġe m
ur ing
Ġtw o
t s
ri b
Ġsy stem
Ġdiff ere
ot h
in k
is s
n e
Ġo b
ol d
al s
ro p
il ity
Ġde c
ib le
Ġas s
Ġat t
Ġad d
as ed
ĠâĢ ĵ
t en
Ġs ur
an ge
Ġsh ould
if e
ĠH e
f ore
ow er
u res
I n
b le
er t
Ġw ell
ar ch
Ġ -
a w
Ġf l
Ġw ater
we en
ra m
Ġsu pp
ra ct
n g
Ġre m
Ġin v
Ġyear s
Ġ20 1
Ġsu b
Ġc o
ow n
se l
ad e
g an
Ġhe alth
i ed
Ġs m
Ġbet ween
Ġ 4
ut ion
he s
Ġp res
c y
Ġc ould
it s
Ġh igh
Ġ2 00
Ġwhe re
e ver
ic k
Ġtr ans
Ġm ake
w n
il y
u ch
Ġg et
Ġb u
x t
ant s
ch ool
Ġ 5
Ġ her
s s
Ġp ers
Ġimp ort
f orm
olog y
ur al
id ent
ch n
Ġe ar
i ence
Ġre se
Ġin ter
it ed
Ġfor m
t ing
Ġm od
Ġin st
mer ic
Ġn um
i et
Ġp ol
Ġdis c
in es
l and
Ġex am
in s
on t
h at
Ġf ound
Ġdiffere nt
Ġbec ause
e f
ic t
ist s
ual ly
Ġle ar
Ġa fter
Ġs im
at a
Ġthe n
n ess
Ġl ong
Ġl ar
g y
Ġc ar
Ġ very
Ġev en
Ġex per
Ġwor ld
Ġe ffect
Ġj ust
Ġm ed
Ġc ent
f t
is m
ce pt
Ġw ay
Ġinc re
Ġt yp
at ure
Ġinf orm
Ġd et
ur n
o y
Ġ ed
ot her
Ġc ount
ak ing
g et
Ġh um
Ġ1 8
Ġse e
Ġres p
ical ly
ĠA meric
iv es
v ent
Ġ ke
i vers
Ġs ign
ol low
Ġgen er
Ġth ose
Ġre f
Ġv ar
Ġpro g
i ew
Ġp at
c er
Ġe very
ar m
Ġex t
Ġc all
Ġpro cess
Ġf act
Ġbe ing
Ġp ub
Ġres ult
Ġsa id
Ġchild ren
c k
om m
as es
Ġe ach
p s
Ġs oc
l ed
u es
Ġl oc
d s
Ġg ra
Ġse c
t le
Ġre qu
Ġc a
. .
ru ct
. âĢĿ
od y
ag es
ir on
Ġimport ant
T h
Ġpart ic
Ġl ife
Ġte chn
ĠA l
or k
Ġs et
Ġm uch
Ġcomm un
Ġm on
Ġd ist
ĠW e
Ġar t
Ġm y
at her
Ġs he
Ġde p
Ġc re
v ed
Ġde f
ver n
Ġf am
Ġ ent
Ġd uring
iz ed
ĠP ro
Ġo wn
Ġf ood
Ġf ollow
im es
c ent
Ġre ad
Ġinform ation
Ġstud ents
ic es
ĠThe y
Ġle ad
w ard
Ġle vel
ĠA s
Ġm ade
Ġr ight
Ġs k
ĠR e
Ġs ame
Ġa ut
Ġdo es
g g
an y
Ġstud y
iz e
ect ion
Ġg row
Ġpro ble
i o
Ġf ind
Ġ 6
Ġpers on
h ip
Ġg ood
Ġs chool
Ġd ata
Ġa v
ĠI f
Ġc ur
Ġen d
Ġb ack
Ġm in
t he
t ed
Ġin s
Ġb oth
Ġc he
Ġst r
ĠA n
al e
on om
ĠF or
u nd
Ġp op
Ġbe fore
Ġus ing
Ġsh ow
Ġcomp le
al ity
. ,
Ġg rou
v iron
Ġsm all
Ġh ist
Ġex pl
Ġc or
ĠA r
1 9
st and
re ad
ial ly
Ġg l
om en
in ce
ĠH ow
iv id
in al
Ġm ain
Ġag ain
Ġt reat
i el
in ed
Ġof ten
Ġt est
t y
ar s
Ġb o
2 0
oc k
Ġpro t
d er
Ġb r
| |
Ġs ol
Ġl ess
ĠI nd
ro l
n ce
Ġv al
Ġp oss
er gy
Ġwh ile
e x
im ate
i x
Ġdis e
Ġd ay
Ġt ake
is hed
00 0
Ġst ate
ut e
Ġl it
Ġh im
i en
Ġn ow
a x
Ġs erv
Ġc ell
ĠS p
ak es
Ġnum ber
Ġo cc
Ġm em
Ġf un
r al
ĠN ew
Ġe c
Ġp ower
i er
d ition
o h
Ġr is
Ġv is
Ġb ody
ire ct
Ġrese arch
viron ment
Ġor gan
ul ation
Ġact iv
ur y
id es
iet y
Ġdes ign
Ġch ar
i qu
Ġ1 0
u p
Ġhum an
Ġbe l
e red
iv ing
a ir
Ġcl ass
ivers ity
Ġa round
ĠS c
Ġha nd
Ġm ust
v es
Ġsupp ort
a h
Ġd own
Ġth ree
ter s
Ġre du
i um
Ġcomm on
Ġl ook
Ġst art
v en
it al
Ġcon f
us s
g er
her s
a ve
Ġ est
Ġg reat
Ġc le
a j
Ġpo int
Ġe lect
d ay
Ġgo vern
re nt
Ġ 7
Ġd id
Ġpl an
Th is
ain s
v ing
Ġs er
âĢ Ķ
ĠB ut
ou se
Ġlar ge
c l
sel f
ra in
Ġexam ple
ro ss
Ġl and
act er
Ġc are
g en
ĠY ou
Ġrep ort
Ġ 8
Ġcont in
r on
e e
Ġo p
it ions
or n
ion al
c om
Ġall ow
Ġcon st
ul l
Ġinclud ing
a red
ĠThe re
as h
, âĢĿ
Ġth ough
an c
Ġbu ild
Ġc our
e g
Ġunder stand
w ay
Ġre t
Ġe qu
Ġad v
Ġed uc
Ġw rit
Ġcall ed
Ġm et
Ġs om
Ġd r
iv en
Ġp ract
Ġst ill
ĠA nd
Ġknow n
n er
ou th
ater ial
ĠâĢ ĺ
i ver
el s
i red
Ġbe h
Ġe as
Ġpub lic
ivid ual
Ġqu est
1 0
Ġ ide
Ġth ink
âĢ ĵ
Ġpl ace
id s
re en
i od
Ġg u
ere st
om s
Ġ 9
os ed
ent ial
. "
oc i
in c
Ġm ight
Ġapp ro
ĠI s
ect ed
r ies
Ġf ew
id er
et s
d e
Ġm at
iz ation
in ation
an k
âĢ ľ
Ġst and
our ces
Ġpres ent
Ġw ant
b ers
ĠW h
it ive
ĠThe se
Ġch ang
Ġen ergy
m e
l ish
Ġca us
ra ph
Ġprodu ct
Ġen vironment
Ġt em
Ġp ur
Ġde m
r ation
Ġwith in
en g
en se
Ġwith out
ou n
pt ion
ord ing
Ġch ange
iv ed
Ġis s
eth od
Ġind ividual
ff ic
as on
ert ain
Ġsy m
Ġdevelop ment
t t
Ġ19 9
i or
ĠE ng
Ġpl ay
Ġph ys
es p
Ġm aterial
Ġd on
Ġpro ject
Ġim m
Ġimp ro
l ine
er al
ĠD e
Ġ ident
Ġc ap
Ġlear n
ĠUn iversity
Ġl ight
Ġdise ase
ang u
are nt
Ġb en
Ġ &
l ess
Ġa ir
Ġd irect
m an
Ġp ot
al k
Ġs l
Ġpro f
i ans
Ġs it
Ġan other
ĠAmeric an
Ġp ass
in ess
Ġw omen
Ġ ve
Ġp os
Ġb re
ag n
Ġen g
Ġare a
s c
Ġl aw
or th
Ġbel ie
Ġm us
ill ion
t on
Ġsoc ial
Ġbl ood
Ġb est
b s
if ied
ab ility
Ġinclud e
aj or
Ġh ome
ent al
ĠC on
olog ical
Ġme as
Ġb as
p r
Ġint erest
Ġc ult
er c
iel d
ain ed
u g
I t
er ing
ro du
if y
Ġdes c
Ġe t
Ġp ain
at ic
Ġm ark
at ural
Ġre st
at s
Ġris k
Ġan t
cc ess
Ġcont rol
Ġbec ome
ent ly
Ġo pp
' t
Ġse ver
Ġan al
Ġprog ram
Ġan im
ĠA d
w ays
i k
Ġm ethod
Ġo ld
a z
ĠHow ever
Ġhe re
Ġbet ter
our ce
Ġpro per
Ġgovern ment
Ġl ow
ĠP h
Ġm ove
Ġec onom
Ġle g
in ing
is ion
Ġear ly
g in
Ġp ar
er n
r ist
h or
Ġm il
ill s
l ished
Ġagain st
ra p
ĠS h
he re
t o
Ġke ep
Ġw ar
Ġto o
Ġl ast
ar c
w are
Ġor der
e ad
st r
Ġe le
Ġre al
e ed
Ġsec ond
Ġt re
Ġme ans
ic le
Ġav ail
Ġprov ide
Ġc ause
i ents
Ġf ore
or ies
iss ion
Ġo per
Ġhist ory
Ġm ajor
Ġt er
ard s
ent ion
Ġocc ur
Ġgrou p
Ġfam ily
u se
Ġpartic ular
Ġu nt
Ġposs ible
Ġde v
am p
l u
Ġper form
Ġto p
ĠUn ited
ĠR es
v iew
Ġsever al
Ġs ay
Ġcur rent
ĠC l
ĠW hen
pl es
Ġinv ol
Ġper iod
Ġadd ition
Ġin du
is ed
Ġspec ies
Ġab le
og raph
ot e
Ġf in
p ar
p ect
ĠE x
Ġlear ning
Ġme an
Ġne ar
Ġor ig
Ġm en
in a
Ġh ig
Ġha pp
Ġ1 5
Ġben ef
ir c
Ġper cent
Ġsa f
ĠâĢ Ķ
o id
Ġ [
Ġc al
ĠC ol
Ġ .
ĠG od
Ġl angu
og n
ĠP l
Ġe l
Ġpro m
id ence
Ġth ings
Ġop en
Ġc r
Ġs ince
W hat
Ġb us
Ġfe el
Ġpl ant
Ġn on
an e
Ġa ffect
Ġl im
u rop
Ġm ar
Ġother s
re t
at or
b r
Ġc ost
th ough
Ġsign ific
Ġam ong
ĠC an
il ar
ĠT o
Ġsc ient
Ġare as
Ġ Z
s y
os p
ot s
Ġn ame
Ġtreat ment
o f
Ġavail able
end ed
Ġf re
Ġcount ry
p ort
Ġ Q
Ġhe ad
Ġb ased
end s
Ġf ac
Ġfollow ing
ĠS e
am es
Ġf our
w w
Ġt imes
ĠSt ates
ĠC omm
Ġs ays
om p
o le
Ġpre vent
ab ly
l ing
Ġc ase
, "
Ġacc ess
el f
Ġcom e
ur ther
Ġcon d
oc us
ĠA t
Ġc ertain
an ces
Ġp ost
Ġf ree
c ing
Ġwe e
Ġd el
Ġmon th
Ġa ge
un e
Ġproble m
Ġl o
Ġtyp e
Ġcon n
Ġ1 7
Ġob ject
b e
ress ion
a per
Ġr un
Ġl ist
Ġre ce
Ġst ruct
Ġv iew
o x
urop e
id ed
Ġcell s
W e
Ġl ab
Ġp ress
Ġc reat
h y
Ġproble ms
Ġp ut
Ġb ro
Ġn atural
op e
Ġloc al
Ġb i
pl oy
Ġg r
Ġlit tle
on es
Ġsu ccess
o int
Ġv ol
Ġin tern
ic ult
Ġh ard
res ent
ol ution
I f
Ġlevel s
Ġ1 2
st it
Ġb ir
Ġle t
gg est
Ġam ount
ĠC ent
eth ing
Ġass oci
Ġf low
Ġunt il
Ġyou ng
ĠE n
Ġm ult
Ġf ar
Ġb ook
Ġ ess
Ġm aking
led ge
Ġl ater
Ġimp act
it her
1 8
ĠCh rist
Ġg iven
p or
w ork
Ġt urn
ĠT e
ate ly
n ot
Ġsh ort
g ed
ort un
Ġs w
at ory
1 2
ĠN ational
Ġd ue
Ġsignific ant
o ks
ĠE urope
Ġfun ction
Ġsu ggest
Ġch o
Ġhe art
ic ation
Ġse em
_ _
o ver
Ġf ocus
he m
Ġdet erm
ut ure
ĠA f
ĠB e
Ġcomp ut
ure d
ĠF r
ak en
c le
Ġpol it
Ġv ir
Ġbeh av
ap s
Ġinv est
Ġd ays
ĠO r
Ġeduc ation
Ġf il
Ġlike ly
ĠW hat
Ġsom ething
Ġc irc
Ġal ong
Ġsystem s
Ġra d
Ġcom b
Ġal ways
age ment
ri ed
Ġh y
f ace
ĠO n
Ġcommun ity
Ġ 0
Ġcour se
Ġapp ear
or ld
end ing
ic ro
Ġincre ase
v ious
Ġus ually
Ġcons ider
ĠU S
ĠA ll
Ġs ing
as ter
Ġcle ar
A s
Ġob s
Ġre le
Ġde ath
Ġd ra
ec ially
Ġte ac
is c
Ġdiff icult
Ġg ive
r ing
Ġspec ific
Ġresult s
Ġb rain
Ġp ast
Ġwor ds
Ġtechn ology
Ġ1 6
Ġlangu age
Ġcre ate
Ġcons um
Ġen c
our s
Ġto day
Ġl ine
Ġneed s
ap e
Ġsim ilar
Ġaut hor
oh n
The re
Ġp arent
Ġexper ience
Ġcan cer
et ic
Ġcent ury
m in
em ber
at ors
as ing
Ġ $
Ġex ist
Ġtem per
n ed
H ow
Ġcond itions
5 0
a pp
ĠS o
Ġwh y
Ġrec ord
Ġdesc rib
a f
Ġ ill
Ġpop ulation
Ġchar acter
Ġdisc uss
ĠM ed
ive ly
Ġm illion
esp ecially
pt oms
Ġe y
Ġsp ace
Ġspec ial
ain ing
1 1
id d
Ġne cess
Ġab ove
m it
Ġne xt
ru ction
rib ut
Ġvar ious
ob al
Ġbe gin
ore d
Ġ '
ĠB l
Ġwor ks
Ġf uture
one y
l er
Ġg re
m ost
Ġd am
Ġhig her
Ġc rit
Ġprof ess
S t
Ġm ov
Ġ er
Ġpro p
i ation
Ġchang es
ru g
Ġhow ever
iqu e
Ġt ry
Ġapp lic
Ġas k
od e
Ġle ast
Ġest ab
ĠB rit
Ġac ross
Ġto get
Ġtoget her
Ġcount ries
Ġrequ ire
Ġs ide
at ch
ra y
Ġstr ong
sel ves
Ġne ver
il ities
Ġresp ons
Ġk ind
Ġbus iness
ort s
ate g
Ġle ft
om es
ĠAf ric
av es
b y
Ġimpro ve
s p
Ġcomple te
is on
Ġto ol
ĠE ar
Ġwork ing
Ġpl ants
Ġt erm
Ġen ough
am m
Ġa way
Ġw ays
o ot
Ġm ot
Ġ especially
n al
il t
th ing
Ġt ru
Ġche m
ac es
Ġc y
Ġrese arc
Ġeffect s
om an
ĠS y
Ġpat ients
Ġgener al
Ġcol le
Ġke y
s w
f or
Ġha ving
Ġs ens
ac y
ac c
ar ing
ys is
ĠG erm
du ct
Ġpr im
Ġsub ject
Ġtyp es
Ġf ull
le ment
al f
Ġc ases
Ġstud ies
le t
Ġte am
u ment
ach ing
i res
i pp
Ġst ep
Ġknow ledge
Ġn et
it ing
a im
Ġrel ations
Ġgo ing
Ġbec ame
al es
h ing
ĠW ar
s ide
Ġrep resent
Ġwhe ther
Ġh ouse
a e
Ġinf lu
Ġn orm
g es
ch ie
ĠS ome
Ġm ind
is ing
u ed
le y
Ġ19 8
A n
Ġm akes
Ġcon cer
Ġprot ect
N A
Ġacc ount
en cy
Ġsym ptoms
an n
ific ation
/ /
Ġs elf
ĠJ ohn
ist ic
Ġf urther
Ġ z
Ġre ason
a pt
Ġphys ical
it or
Ġro le
Ġl ower
Ġg round
read y
.. .
Ġo pt
ĠL e
Ġc ity
ot t
F or
Ġb ig
er y
ĠW orld
Ġquest ion
Ġte xt
ĠG en
ĠW ith
it es
i ol
un g
Ġpol ic
ab les
at ures
a ut
Ġsu m
ĠEng lish
Ġf und
Ġl ive
Ġsu re
3 0
ur ch
ĠO ne
Ġsc ience
ir d
Ġprodu ction
Ġp red
Ġd ig
2 00
ed i
ĠG o
c ul
Ġactiv ity
l o
au gh
Ġch all
re am
Ġen s
Ġ3 0
Ġse en
Ġactiv ities
Ġr ange
Ġind ic
1 5
u nt
ib ility
: //
Ġe ff
Ġval ue
Ġgrou ps
Ġre ally
1 6
Ġto ward
ere nce
Ġl ot
Ġn ut
b on
Ġst ory
Ġmod el
Ġpartic ip
Ġw r
Ġd one
Ġgrow th
Ġproduct s
Ġal ready
re l
Ġres ources
Ġl oss
Ġbe low
Ġoff ic
ver age
sy ch
Ġr ather
Ġst at
et imes
Ġart icle
Ġcl ose
Ġwor d
es c
ĠTh at
m ber
u ation
ĠIn tern
Ġqu ality
Ġ1 4
ou ra
Ġdevelop ed
Ġpot ential
Ġp aper
Ġe ither
os is
Ġrec ogn
ĠC ar
Ġw ind
ĠHe alth
ip le
and s
Ġpro b
Ġs ite
ove red
Ġo il
Ġf all
Ġb at
f act
Ġde g
le ep
Ġtra dition
Ġem ploy
ĠM ar
Ġne g
Ġf ield
Ġbuild ing
i am
Ġa chie
p ut
W hen
Ġsing le
ra ms
iv al
Ġev ent
Ġm ass
Ġab s
Ġph ot
Ġsk ills
ĠA m
Ġ ur
ide red
Ġacc ording
Ġn ational
E R
Ġon ce
Ġcl imate
Ġredu ce
1 7
ear ch
Ġfl u
ĠC al
ĠG e
am in
Ġs ource
Ġiss ues
Ġindu st
ub lic
ĠT r
ĠI m
ĠS he
Ġt aken
Ġso il
Ġcol lect
Ġin it
v al
Ġwho le
Ġsu n
ric t
Ġf r
Ġfre qu
Ġme et
Ġd rug
Ġr ate
Ġd om
Ġwh ite
iv il
ĠP r
Ġcon cept
Ġmem bers
Ġup on
re ct
Ġf ive
Ġc ut
Ġsur face
Ġmed ical
Ġadd ress
ĠD r
ĠA b
ĠN orth
ur ity
Ġev idence
Ġrel ig
Ġquest ions
u le
ffic ient
1 4
Ġobs erv
Ġf ail
1 3
y m
et er
Ġcons idered
ĠS outh
Ġre d
f er
Ġdet ail
Ġc ame
Ġcre ated
ĠAmeric a
Ġs ize
Ġs ent
Ġret urn
Ġan n
ĠB y
Ġto t
Ġpress ure
ip s
as k
Ġrec omm
s h
Ġw ide
Ġint rodu
Ġthem selves
Ġf ri
Ġresearc hers
Ġt ell
Ġn ature
re me
ro ll
iv ity
âĢ ¦
Ġl iving
pl ic
ĠA ss
ĠM ay
Ġassoci ated
Ġanim als
Ġd est
Ġcan not
Ġp ay
e b
Ġh old
Ġdo ct
Ġpolit ical
ight s
Ġs ound
op h
ib r
et y
ĠSt ud
Ġpract ice
or g
ill ed
Ġst ates
l ike
Ġmark et
ac ed
Ġsim ple
Ġincre ased
Ġrequ ired
ep end
Ġ ver
Ġpro te
Ġ =
Ġact ually
Ġad ult
ut ions
Ġsk in
C h
Ġthough t
ĠR ep
Ġrel ated
o ber
our nal
Ġeng ine
Ġst ress
Ġopp ortun
Ġhist or
re g
Ġl ay
Ġwee k
id ing
Ġneed ed
Ġunderstand ing
se qu
Ġs al
en n
y n
Ġeffect ive
ĠA ust
Ġhealth y
Ġqu ick
Ġent ire
Ġide a
Ġcomple x
Ġrelations hip
Ġ1 3
ĠM an
Ġ19 7
Ġsp e
p ro
Ġmaterial s
Ġpur p
Ġm oney
Ġab ility
o on
Ġm icro
Ġcon dition
Ġstud ent
Ġfam il
en ing
Ġf at
Ġgl obal
Ġd og
ed s
it ud
Ġcom es
Ġal most
Ġmain t
g ing
Ġit self
a i
Ġpub lished
Ġbl ack
er ve
Ġar g
ag ing
Ġd oc
en ed
Ġeconom ic
Ġp ort
Ġm or
Ġright s
ol ic
ac ks
Ġprov ides
Ġpart s
art ment
Ġexper ien
Ġmod ern
ag ed
Ġdi et
os es
Ġan sw
Ġf ish
Ġfact ors
it ary
. )
ĠS oc
ĠA ct
Ġserv ices
Ġ vers
g o
h ib
ra d
um p
ĠY ork
Ġex erc
u el
A l
Ġh tt
is es
Ġc at
us h
Ġnecess ary
Ġav oid
ch an
ly ing
T o
Ġp ath
ne y
Ġ X
ore s
b o
Ġto ok
Ġsu ff
ĠEar th
m b
ve re
Ġman agement
- -
Ġmonth s
ur s
Ġwe ight
Ġh alf
y l
Ġb ar
Ġar ch
g est
A S
Ġcol l
Ġprodu ce
Ġparent s
p ly
Y ou
Ġl ink
Ġar r
Ġappro ach
ĠD ep
) :
Ġpr iv
ĠG u
Ġbe gan
en ces
Ġmeas ure
m a
W h
Ġre act
Ġg as
ĠH ist
row n
Ġass ess
Ġsu per
Ġg reen
Ġc op
ĠH is
Ġ |
b ased
Ġcon duct
Ġe ver
Ġso ft
ens ive
Ġy et
ut es
m y
ol l
Ġmed ic
Ġcol or
Ġanal ysis
Ġt ar
Ġpat tern
Ġj ob
Ġthe rap
ĠC omp
Ġpop ular
" .
Ġf arm
um e
Ġe mer
es e
ir m
Ġ1 00
Ġcomput er
c ient
Ġcl aim
Ġlit er
ĠSt ate
ĠD o
ap an
iz ing
Ġchem ical
Ġreg ion
Ġperson al
on se
ĠN e
Ġreg ard
Ġthrough out
Ġst op
Ġse par
ab or
us ion
ĠC ont
ict ion
em pt
Ġread ing
idd le
Ġre pl
Ġfe ed
n ces
Ġr ul
Ġs ense
ab it
Ġincre asing
cc ording
Ġs leep
Ġf ire
ect ions
in ter
Ġs am
Ġt aking
ĠJ ew
ĠC o
Ġg e
he t
ic les
ĠBrit ish
Ġpr inc
Ġh ours
Ġa ction
ĠA fter
E S
Ġon line
Ġbu ilt
uc k
es tern
Ġwrit ing
Ã ©
Ġshow s
Ġ19 6
Ġindividual s
Ġb ur
h old
Ġsoc iety
Ġrec ent
ĠCan ad
er ous
Ġ ut
Ġt alk
Ġ5 0
c hes
z e
Ġcont ent
ig ure
it ation
Ġlong er
ri pt
p id
Ġserv ice
Ġpre vious
Ġl a
A T
Ġtra ining
Ġter ms
Ġs ix
Ġcle an
y le
Ġcomp any
Ġtot al
Ġpos ition
Ġschool s
Ġstruct ure
Ġinter act
em ic
min ist
ast ic
g ar
w h
Ġmat ter
Ġsur v
l or
Ġindust ry
an ced
ric ult
Ġhe av
Ġth ing
Ġbehav ior
Ġet c
Ġtemper ature
ow s
ed eral
Ġcaus ed
Ġin j
Ġse x
Ġenvironment al
Ġcon c
Ġprov ided
Ġche ck
Ġcont act
ĠP e
Ġcont ain
im ent
Ġ2 5
en e
Ġmean ing
Ġl ives
Ġdis ord
ful ly
ren g
ul ations
Ġdi agn
ĠWh ile
Ġeas y
Ġtra vel
Ġhe at
n s
Ġbre ak
Ġs at
a ff
rop ri
Ġbenef its
Ġtru e
Ġbr ing
ĠE m
Ġcaus es
ĠI I
s on
Ġc e
m on
ail y
ĠS chool
Ġac cept
Ġdesign ed
Ġv ide
l t
Ġsh own
Ġmus ic
Ġv iol
is ter
ist ance
ar r
land s
in ary
rough t
ron ic
ĠJ apan
st er
Ġvar iety
Ġmethod s
h ood
ĠRes earch
Ġ19 4
A R
Ġ1 1
Ġre v
Ġreg ular
Ġinclud es
ĠN o
Ġm ach
ab et
Ġear th
Ġvar i
ve y
Ġf ru
Ġsp read
at ives
Ġbelie ve
av ing
c hed
Ġl ove
imate ly
Ġpos itive
Ġsaf e
le x
Ġf em
Ġstand ard
Ġa verage
Ġpre c
l ight
Ġprog rams
as c
Ġb acter
Ġl ed
Ġsim ply
Ġtar get
ist ics
Ġw ild
Ġl if
I D
ar ies
Ġe at
ĠIn stit
Ġgre ater
ri or
Ġrel ative
Ġsom etimes
Ġiss ue
ad es
Ġme chan
u fact
Ġde ep
Ġ Â
Ġorig in
ĠP ar
Ġst e
Ġcar bon
d om
n ers
am ed
ren ch
Ġsub st
Ġcult ure
Ġmove ment
Ġs low
r ast
ĠK ing
al ing
Ġus es
ĠInd ia
ĠS u
er ation
Ġth reat
Ġorig inal
du c
Ġinvol ved
Ġex c
Ġhelp s
Ġp age
Ġdo ing
os ition
Ġresp onse
Ġresp ect
ver se
k now
Ġev ents
B ut
Ġreport ed
n ew
Ġwrit ten
ar ily
Ġf ace
ĠS ec
Ġscient ists
Ġident ify
Ġrem ov
Ġdam age
Ġcomp an
Ġenc oura
ĠP res
Ġfood s
b an
Ġs ources
ra nd
uc le
ac hes
Ġp le
Ġre view
Ġp ict
Ġc amp
eng th
ct ions
Ġcomp et
Ġst reng
Ġout side
Ġim age
Ġpol l
Ġdem on
end er
Ġnorm al
Ġfor ms
Ġl ack
Ġp sych
Ġpo or
ol es
Ġcomp on
um b
2 2
o or
Ġref er
ie f
ell ing
Ġparticular ly
op s
ial s
u ge
Ġbas ic
erv ation
Ġdevelop ing
I N
Ġem b
Ġfor ce
Ġimp lement
Ġint eg
ĠP er
Ġprodu ced
Ġwe bs
Ġser ious
Ġatt ention
Ġatt empt
ĠW ill
Ġb al
ĠSc ience
Ġens ure
Ġess ential
Ġc ust
ĠAust ral
c il
ĠM in
Ġl ate
ac hed
Ġde b
Ġsh are
Ġgener ally
Ġext reme
m ing
id ge
Ġsu st
Ġgrow ing
Ġt ax
Ġdis pl
Ġh arm
ro om
Ġanim al
Ġfe et
Ġapp l
Ġc oun
is ions
Ġnum bers
Ġatt ack
Ġa ff
Ġw ood
Ġmed ia
r im
Ġs qu
ĠCh ina
Ġl og
Ġem ot
Ġcor rect
Ġv acc
Ġide as
Ġl at
b or
Ġelect ric
Ġcons ist
Ġvis it
Ġfore st
Ġ- -
iss ions
2 5
Ġ /
Ġo x
r ated
I S
ir it
Ġchall eng
Ġinclud ed
an a
Ġprob ably
Ġser ies
Ġdoes n
ĠA pp
Ġteac hers
Ġcontin ue
se t
Ġa ware
f ect
Ġm ess
ut h
os ing
Ġpat ient
Ġdef in
c ies
ĠM e
ĠE d
Ġvir us
Ġa p
ĠM any
Ġn ight
Ġman ufact
Ġget ting
os ure
Ġnet work
ĠC O
o ly
he l
Ġse lect
Ġdra w
rib ution
Ġ2 4
Ġhy d
i us
ĠQ u
Ġthere fore
em s
Ġsome one
im um
Ġt akes
ec ause
Ġ ir
Ġexp ress
Ġeas ily
Ġind epend
Ġcol on
ra ft
Ġsaf ety
Ġd ou
ad s
Ġve get
Ġc it
Ġc ross
Ġm other
in o
ĠC ount
Ġpr int
Ġpre p
Ġth us
ĠA g
Ġlook ing
Ġsp eed
Ġse a
Ġcomm it
Ġag o
Ġk ids
O n
w here
ĠI nt
ĠJ an
ograph y
h aps
e xt
Ġm agn
Ġtradition al
ens ion
Ġinst ead
g round
Ġintern ational
Ġqu ite
Ġs ou
r s
ĠP re
t ies
vent ion
ĠM ore
Ġthe ory
Ġd aily
Ġf a
Ġinvest ig
Ġt ur
in ks
Ġpolic y
Ġcon cent
o es
Ġallow s
Ġfin anc
ri e
Ġlead ers
y ing
as ons
an ks
Ġear l
h a
ce ll
Ġstart ed
Ġto wn
if orn
ĠP art
Ġapp ropri
Ġw all
Ġdiffere nce
Ġprim ary
Ġv it
Ġco ver
ĠA ug
Ġadd ed
Ġf ul
Ġm ental
ing ton
ĠB o
re w
Ġd iv
o very
Ġcommun ities
Ġdeterm ine
u ary
r or
ers on
Ġw arm
Ġdise ases
ĠJ u
Ġs il
Ġtool s
Ġf av
Ġc ivil
Ġt iss
ĠCent er
Ġb ab
n a
ĠY our
Ġd ang
Ġperform ance
er g
Ġe th
Ġestab lished
ĠEurope an
Ġth ous
Ġpoint s
ww w
Ġ i
an cy
Ġt ree
Ġest im
l s
Ġhe ld
ĠE duc
Ġn ation
Ġinst it
Ġins ide
Ġbo oks
Ġprog ress
itud e
ĠC ons
Ġmil itary
Ġachie ve
Ġs old
Ġlar ger
or ks
Ġmult iple
i ot
Ġ4 0
Ġun c
Ġun ique
ĠF rench
ce ed
A N
Ġquick ly
Ġth ird
r ate
ĠInd ian
ien cy
Ġca pt
abet es
iforn ia
Ġcomp ared
Ġref lect
ĠJ es
Ġdirect ly
Ġev al
Ġscient ific
Ġt end
Ġoff er
ĠM ost
O R
Ġspe ak
ĠE l
Ġsol ar
Ġre ve
Ġhum ans
Ġal tern
ell ow
Ġdec re
Ġcompan ies
y r
use um
Ġimm edi
ound s
und red
Ġey e
el t
Ġhigh ly
ĠA c
Ġpro ced
ĠG l
Ġfr ont
if t
Ġtre es
Ġh ost
Ġansw er
Ġr out
ĠC om
Ġf oot
Ġd ry
Ġdr ink
Ġb it
Ġso on
Ġbir th
Ġaddition al
Ġw ent
ĠInstit ute
Ġprote in
il le
j oy
Ġdoc ument
Ġdemon str
ter m
Ġse vere
Ġa ud
Ġact ive
Ġt ri
O ne
Ġal though
Ġh or
Ġbeh ind
pr il
Ġas pect
Ġcent ral
Ġfamil ies
ĠW est
O N
Ġexerc ise
i ers
Ġac id
Ġseem s
Ġinf ection
n ov
Ġsh all
Ġneg ative
ĠDep artment
p e
Ġext ra
Ġg ard
ĠGerm an
Ġb ad
Ġsec urity
ĠAr t
Ġuse ful
Ġbro ad
v ant
ther n
ul ate
ĠCal ifornia
Ġp rior
d en
Ġob t
iqu es
Ġlab or
ĠS m
Ġcrit ical
ĠB r
Ġbegin ning
gen cy
Ġtrans port
Ġ201 0
ur ies
Ġ ,
Ġsupp ly
2 1
om et
Ġc ard
Ġvide o
ĠG ree
ce an
Ġhtt p
il os
Ġf ram
2 3
Ġtoward s
Ġw alk
Ġlead ing
ĠO ct
Ġh ar
is ms
Ġpurp ose
Ġst ay
Ġcl in
ĠCh ar
ĠM arch
her n
ĠR ec
Ġdoct or
H e
Ġs ection
um an
ĠN ot
form ation
Ġte aching
Ġs us
ĠO f
Ġele ments
Ġlim ited
om ing
y ond
ĠO ther
ĠCh ild
Ġanal y
Ġh abit
il s
Ġexp ect
Ġcust om
im s
it er
Ġwh ose
S o
ĠR uss
l ation
Ġsit uation
Ġse arch
Ġst ra
Ġ201 2
Ġfe atures
ib er
ĠAfric a
Ġsoft ware
ĠH ar
Ġacc ur
it is
Ġm ount
Ġqu ant
ĠU s
Ġcont ains
m ar
Ġcont ribut
4 0
Ġdec l
ro gen
al y
Ġan cient
Ġl ost
ol ar
Ġval ues
Ġh ot
Ġmin utes
ĠAl though
ĠHist ory
I C
Ġb ase
or ing
Ġbl ock
ĠAfric an
Ġex act
ro te
Ġon es
âĢ ¢
Ġhand s
u k
__ __
ĠIntern ational
Ġinter p
Ġst ri
r ition
olog ies
A nd
Ġb rought
ĠJ une
Ġnew s
Ġf ight
ĠH er
Ġp ack
Ġc red
Ġm om
in ct
ĠA nt
ĠM us
Ġad minist
Ġel se
âĢĿ .
Ġrequ ires
Ġag ricult
Ġh undred
Ġprot ection
Ġcap ital
w ise
Ġd ark
Ġj o
Ġf ast
ri ption
ĠRe g
f ort
c ome
ort hern
Ġen joy
Ġthink ing
Ġim ages
us ed
Ġwr ite
Ġstr ateg
Ġrece ived
Ġn ucle
Ġ201 1
Ġdescrib ed
le ction
im in
ĠJes us
ĠSe pt
c oh
Ġg ot
Ġlaw s
Ġadult s
Ġl ength
Ġwas te
Ġinflu ence
he st
Ġpriv ate
Ġr ates
Ġcap ac
ĠAug ust
Ġdec ision
ines e
Ġcar ry
g n
e qu
ĠS ch
Ġor d
ĠT ra
Ġsust ain
Ġwork ers
ĠM on
ra el
Ġn orth
Ġsym b
Ġlar gest
Ġm ill
hen s
it ch
ist ry
Ġex cept
Ġle aves
Ġgo al
Ġapplic ation
Ġag ree
ĠD av
iel ds
ĠB ar
Ġw a
Ġbec omes
Ġdem and
Ġan g
at t
ĠH ere
iz ations
Ġloc ated
ĠR iver
Ġj ud
pp er
Ġdis p
Ġfinanc ial
ĠK e
Ġg ame
Ġdev ices
Ġad op
c ks
Ġmem ory
Ġnear ly
Ġl ines
ĠF irst
est ic
ĠC or
Ġproject s
Ġrelig ious
Ġwebs ite
Ġwee ks
Ġe p
Ġ x
Ġs n
c on
ul ated
6 0
ĠS w
ĠChrist ian
ibr ary
Ġ2 1
Ġpl aces
Ġm ention
c ial
se ct
Ġtyp ically
Ġcost s
m ission
Ġimport ance
m ed
il es
Ġbe aut
ĠT w
v est
Ġcomm and
A C
Ġprocess es
8 0
Ġbacter ia
Ġestab lish
se e
ip ment
ra g
Ġse ason
Ġsit es
Ġf it
Ġre ach
b it
od ies
Ġra re
19 9
Ġf ather
e al
Ġu lt
Ġsol ution
Ġto ld
Ġappropri ate
ĠAmeric ans
Ġproper ty
ĠP ress
im al
ĠA pril
ĠJu ly
Ġrem ain
Ġsur round
Ġst ru
Ġb orn
Ġt able
Ġm ole
y ear
ĠS erv
Ġrem ains
E N
Ġeff orts
id ents
ie ce
Ġve h
Ġhim self
Ġad j
ĠW ash
Ġs outh
ar ian
Ġe gg
Ġbas is
iz es
Ġfri ends
Ġcommun ication
Ġcit iz
A t
a id
Ġc ool
yp e
Ġde al
ent ially
Ġinst all
Ġtest s
Ġsa w
it ect
u ro
' re
Ġg ives
2 4
ĠCanad a
ĠF rom
ĠM c
Ġra pid
b ack
at ur
ĠM y
I V
Ġtechn iques
Ġcult ural
Ġresp ond
Ġcreat ing
Ġdi ed
Ġv ict
o ke
r ig
l ife
ĠEng land
ou d
Ġany thing
Ġadv ant
Ġc rop
Ġsu gar
a ul
ra b
res h
Ġde ad
Ġmil es
u ous
ĠAss oci
c les
Ġc ode
Ġm ix
Ġcent er
Ġad apt
i pl
ĠPro g
Ġey es
E D
Ġevery thing
ĠPres ident
u ments
Ġro om
Ġteac her
Ġe ating
og en
Ġsum mer
Ġnot hing
Ġconst ruction
ĠD ay
i ar
The se
Ġs on
Ġapplic ations
ond on
ce mber
Ġwe b
Ġd er
Ġ201 3
Ġtherap y
Ġf uel
Ġh ope
k ing
ĠC ong
Ġp an
Ġrespons ible
Ġtest ing
am a
Ġaut om
Ġse qu
coh ol
augh t
w ater
ĠGo vern
Ġh ous
Ġf inal
Ġfollow ed
ĠIs rael
Ġco ast
Ġ200 9
Ġdev ice
Ġim ag
Ġmon itor
Ġc ou
Ġte eth
ĠWill iam
Ġsc reen
ex ic
Ġre asons
Ġbehav i
Ġb ott
Ġbenef it
Ġdep end
c o
Ġc am
d ing
Ġst age
Ġce le
I T
ĠCh inese
f ord
Ġpract ices
he ad
Ġtra de
r an
Ġb reat
ĠCh urch
Ġdig ital
Ġcal cul
ĠP ark
ĠR et
se c
Ġexam ples
Ġsp irit
ĠEduc ation
Ġrece ive
Ġrec ently
Ġgra du
Ġ ice
Ġask ed
ell ig
i ra
Ġconf lic
ĠC ity
om b
Ġk ing
ill ing
un ch
Ġf ederal
Ġm iddle
h am
ter y
Ġt en
Ġexp ected
Ġfor ces
on y
Ġconst it
Ġt it
it able
Ġcho ose
Ġold er
ough t
Ġobject s
Ġconn ect
ar i
l amm
Ġcon sequ
Ġd ate
Ġcol d
Ġcont roll
Ġp en
Ġant i
Ġ200 8
e v
an ish
Ġleg al
Ġbe yond
Ġm id
rib ute
ap ter
Ġaffect ed
Ġprofess ional
ĠG reat
Ġw oman
Ġu nd
Ġyour self
m osp
E x
Ġb ul
Ġcommun ic
B y
str ial
Ġins p
Ġdi abetes
Ġopportun ity
Ġsmall er
ĠF eb
b ur
Ġequ ipment
ic a
ul a
Ġ :
ove mber
Ġf ear
Ġeconom y
Ġh yp
P A
W ith
t ime
ĠSept ember
b ook
Ġprov iding
Ġvis ual
Ġmod els
Ġra in
est s
Ġloc ation
i ples
ĠIn c
Ġsc ale
Ġset t
Ġevery one
o e
ĠL ear
ĠE ven
ĠJan uary
Ġbe g
ĠOct ober
Ġcurrent ly
oc r
Ġstand ards
Ġw rote
ĠWash ington
ed ia
Ġtry ing
Ġal one
Wh ile
ĠTe chn
re es
u ff
ĠP ol
l in
air s
Ġoccur s
Ġrul es
ĠJ ournal
Ġinst ru
c an
Ġorgan ization
Ġrecomm end
Ġro ck
Ġdeg ree
Ġcomplete ly
ver t
ĠSy stem
oc ol
m en
Ġf ile
) ;
Ġh on
Ġw on
osp ital
ĠA ccording
Ġp et
Ġus ers
Ġs we
Ġr ise
Ġexp osure
Ġv ia
Ġgo es
Ġplan et
Ġpo ly
Ġc ru
Ġsuccess ful
Ġsh ape
ĠThe n
ĠI S
Ġstreng th
Ġpur ch
lo ad
Ġinterest ing
Ġ2 3
Ġwe ather
en ge
Ġover all
Ġeff ort
ĠM exic
Ġfor mer
ĠB i
Ġle ave
Ġn amed
a ur
Ġearl ier
ies t
Ġdrug s
l am
Ġconst ant
ĠO ur
Ġappro x
Ġcolle ction
Ġdest ro
Ġus er
Ġmeas ures
Ġmem ber
Ġper fect
ĠDe velop
Ġcommon ly
Ġdiffere nces
Ġch urch
Ġbir ds
Ġpl aced
ro s
od ay
Ġgen etic
Ġpre gn
Ġro b
Ġis n
ĠComm un
ĠD is
mit ted
ĠCount y
ĠTr ans
Ġen h
ĠR ed
Ġmaint ain
ĠL aw
Ġstep s
Ġcomm erc
Ġw inter
Ġallow ed
Ġelect r
Ġc ateg
Ġdisc overed
Ġocc up
ĠL ondon
ĠE c
Ġident ified
Ġne igh
Ġc ra
w ide
ord s
Ġe ight
ĠBl ack
ing u
Ġb illion
Ġcontin ued
u it
Ġpred ict
Ġcom ing
Ġdispl ay
Ġredu ced
Ġ6 0
ib ly
2 7
ĠE ast
Ġg old
ĠDe cember
ĠR oman
Ġfru it
ĠS im
Ġent er
k y
ar a
Ġ19 3
ĠV ir
Ġm ob
Ġmajor ity
Ġappl ied
ed om
ens ity
Ġform ed
re et
ĠD NA
Ġex ec
ĠS ur
ee ch
Ġvir t
Ġm ax
Ġr ule
i able
oc ks
Ġcont ext
Ġpower ful
Ġw ond
Ġr ich
ire ction
al t
ent y
Ġp ow
Ġm iss
m ore
Ġte ach
o ff
2 6
ĠS an
b l
re c
Ġcour t
ĠH igh
ru ary
Ġac qu
Ġg ave
Ġto x
hem at
ud d
Ġ200 7
Ġro ad
ĠRe ad
st e
b re
S ome
A L
at ers
Ġshow ed
Ġm is
ĠIn st
ĠC oun
ĠM od
ĠV al
Ġnot e
Ġhistor ical
Ġs ch
2 9
Ġg ir
ĠC our
Ġd en
Ġstat us
ĠD uring
Ġtra ck
ain t
en cies
Ġb ra
gy pt
Ġ19 5
Ġper haps
Ġs ect
Ġf air
Ġm outh
Ġpres ence
Ġvers ion
Ġj oint
know n
ĠAr ch
Ġbelie f
Ġsign s
qu e
Ġb all
Ġc ook
Ġsit u
c ious
al ed
Ġpattern s
Ġph ilos
Ġtiss ue
Ġsymb ol
Ġlim it
ĠAl so
or ation
Ġcomp ar
Ġpe ace
em y
Ġact ions
Ġrem ember
Ġnut ri
ast e
Ġcho ice
Ġdid n
Ġimm une
P ro
Ġcapac ity
Ġill ness
ĠS ince
Ġproper ties
7 0
Ġass ign
in ated
Ġful ly
Ġgu id
Ġchang ed
Ġincre ases
ĠN ow
ĠB ecause
os y
Ġass ist
Ġmach ine
Ġv ill
Ġfact or
ĠN ovember
ĠGen eral
2 8
if ul
Ġc ry
rel ated
Ġfem ale
Ġa st
ĠP at
Ġm ut
Ġc ities
Ġem p
Ġmom ent
Ġun it
Ġill ust
Ġrelative ly
Ġe fficient
or ge
Ġfun ctions
Ġat mosp
c raft
ĠH ouse
Ġst ories
Ġac ad
R E
Ġn ames
Ġst im
Ġp iece
ger y
Ġinc or
Ġwor th
Ġappear s
Ġr at
" ,
Ġt ou
Ġem issions
ĠW ater
Ġev olution
ph as
Ġas se
Ġ +
i ate
Ġprom ot
ĠSoc iety
Ġm ig
Ġwork ed
od es
am ent
Ġd at
Ġmov ing
tern al
Ġan x
res p
Ġst aff
ĠGerm any
ĠPro t
Ġbab y
Ġele ment
Ġpr ice
ri ef
at in
Ġte le
Ġexist ing
Ġal cohol
Ġg iving
ien ces
h ouse
ĠJew ish
Ġconst ruct
ĠCon f
Ġarch itect
Ġeduc ational
ĠA re
a ign
Ġcompon ents
Ġstru gg
I I
ĠF in
ir ing
ĠUn ion
Ġcon vers
ĠPe ople
am b
Ġtrans fer
Ġt ask
ĠR o
Ġf resh
Ġr iver
Ġrep e
Ġst ar
for ce
H E
ess ion
A d
ĠAustral ia
Ġfor ward
Ġant ib
Ġha ir
Ġv o
ru pt
ĠJ ust
Ġdist ance
Ġm ission
Ġopportun ities
Ġ2 8
e es
Ġinst ance
Ġoff ers
Ġequ al
Ġe ffic
Ġbo x
Ġpict ure
Ġp p
p art
Ġ2 6
Ġabs or
ĠE gypt
Ġfore ign
Ġexp and
Ġro ot
rie ved
Ġin nov
Ġrun ning
Ġ ing
Ġwr ong
in y
ĠF l
Ġbelie ved
pect ive
ĠU se
ric k
Ġreg ions
ic ip
Ġst yle
ĠPro f
er o
al d
Ġd irection
Ġthous ands
U n
ab ilities
Ġmus cle
Ġh uge
âĢĿ ,
Ġfri end
Ġinst ruct
Ġfam ous
Ġchalleng es
Ġw atch
Ġn ative
ĠPh il
Ġeval u
Ġbal ance
Ġdet ect
Ġreport s
ĠFr ance
Ġfind ings
Ġass um
ĠCong ress
Ġexper im
Ġbl ue
Ġgard en
A ll
Ġdetail s
og le
as ion
er a
ĠP al
Ġm al
Ġpass ed
or age
Ġwe ak
Ġdef ined
ed ing
ĠAssoci ation
if ically
B e
Ġsur pr
Ġcitiz ens
Ġconsum ption
Ġ200 0
Ġm ap
Ġbre ast
Ġoff ice
om as
ig en
Ġpl astic
Ġ2 2
Ġplan ning
Ġexpl ain
Ġa im
y gen
re hens
Ġtre ated
Ġgu ide
Ġin sect
Ġopt ions
Ġch ance
Ġobserv ed
Ġcont ract
ĠE ach
Ġs ac
l im
S A
Ġcoll abor
Ġ2 7
Ġsuggest s
A fter
Ġres istance
c he
Ġqu al
ĠFeb ruary
Ġexperien ces
Ġevent ually
Ġfav or
ĠA ng
Ġextreme ly
Ġclass room
ĠThe ir
Ġatt ract
ĠMed ic
Ġcar ried
Ġsur vey
Ġstrateg ies
ĠEn vironment
Ġtechn ologies
u ild
I s
Ġb ound
Ġfe ature
y d
Ġm ale
pp ed
Ġinc ome
Ġ201 5
S T
Ġf ix
Ġgl ass
ĠW estern
Ġg ain
c are
Ġcommerc ial
ĠTh us
Ġse ven
D A
Ġsepar ate
Ġsignificant ly
Ġf igure
Ġapp ly
rom e
à ¤
Ġgo als
Ġex hib
Ġ iron
ĠIntern et
h ors
Ġdisord er
ograph ic
Ġd ivid
ul s
om a
ec es
Ġ200 6
Ġsupp l
Ġf ert
b ed
ĠU K
ĠG reen
Ġex cess
Ġmil k
le ge
Ġimmedi ately
Ġ â
Ġstruct ures
s u
ch ing
Ġvis ion
Ġeas ier
Ġhapp en
Ġp hen
Ġlearn ed
Ġcele br
Ġp ick
Ġb ank
Ġheav y
E C
Ġpresent ed
Ġrequire ments
Ġgener ation
Ġut il
Ġsp ring
c ont
Ġpl ans
n es
Ġtr uth
Ġhig hest
Ġdec ades
k en
Ġl iqu
Ġclin ical
i ance
ĠCoun cil
9 0
ch ar
ĠJapan ese
ĠU N
Ġorgan izations
i ant
Ġit ems
ub e
ĠP ublic
Ġexpl ore
Ġbo ard
ĠL ord
Ġro t
Ġsa ve
r is
op hy
Ġj ournal
ĠProg ram
Ġleg is
Ġh om
ĠC ur
Ġbec oming
ĠB ra
Ġre ality
The y
Ġdep ression
ĠM ary
c ast
Ġres ource
Ġsp ect
Ġdist ribution
Ġdestro y
te e
ent h
Ġur ban
is ation
ĠDav id
ĠIn ter
A r
ward s
Ġintrodu ced
ĠRe v
Ġconduct ed
Ġd yn
Ġno vel
ĠL et
Ġv ary
ĠT ur
Ġapprox imately
Ġb odies
Ġtop ic
ch ange
i ated
Ġm er
z z
ĠS ee
a res
olog ist
Ġm o
Ġsl ight
Ġem phas
ĠD on
Ġsex ual
Ġv es
ĠWe b
Ġmov ed
us es
Ġlet ter
Ġdec isions
Ġint ellig
Ġb one
ĠM or
ĠC he
Ġc and
ĠV ol
Ġst ream
Ġ201 6
as ks
m et
Ġperform ed
Ġaltern ative
Ġgen e
Ġindu strial
Ġrele ase
Ġact ual
er ate
Ġelectric ity
Ġmedic ine
Ġf ig
ĠJ ames
A M
Ġser ve
Ġfa ith
Ġsp eech
i as
3 5
ĠM at
ĠD es
d o
ĠM ich
ĠGree k
Ġchall enge
ul um
Ġfrequ ently
Ġconn ected
Ġdisord ers
Ġrecord s
Ġrem ove
Ġmet al
Ġop in
Ġag g
ĠSp ec
Ġaspect s
Ġcy cle
ul f
Ġpres ident
un ction
Ġb ed
ĠA ut
Ġ ign
ant ic
Ġ201 4
Ġ esc
Ġnot es
Ġk id
plic ations
Ġcont rast
ruct ure
Ġcom pl
Ġpart y
Ġviol ence
Ġch ronic
Ġhouse hold
Ġrele ased
Ġcomb ination
Ġfil m
Ġtrans l
ap ers
Ġ8 0
P h
Ġm ag
Ġpop ulations
Ġgra ph
Ġwide ly
ĠO ver
Ġ200 5
Ġnut rition
c ular
Ġclear ly
ord er
Ġvit amin
Ġestim ated
Ġdes p
il it
ĠD ec
ĠRet rieved
Â °
ed ic
Ġref erence
id a
Ġst ore
Ġbuild ings
Ġcaus ing
Ġf ields
b al
Ġdiscuss ion
ous ly
im ens
ĠPl an
Ġbott om
Ġh omes
Ġbu y
Ġget s
Ġrecomm ended
cl us
Ġdog s
ĠH uman
Ġl ived
ĠRep ublic
Ġnucle ar
ĠF ound
re st
Ġtemper atures
ĠChild ren
Ġk illed
S h
ĠCol lege
ĠN et
Ġorgan ic
Ġth r
Ġexper iment
Ġoper ations
p ed
ĠSp anish
ra w
Ġindepend ent
Ġwant ed
ot hes
por ary
Ġdr ive
Ġdou b
Ġliter ature
Ġhe ar
Ġnum erous
t ical
Ġany one
Ġ19 0
ro ph
Ġox ygen
Ġstart ing
Ġparticip ants
Ġexp ression
Ġset ting
Ġg ames
E T
Ġtr ust
ress ive
ic ial
Ġpolic ies
E M
Ġintern al
ĠDevelop ment
e ared
ĠR el
te red
w orks
erv ed
rou p
Ġc overed
Ġtechn ique
Ġpart ners
Ġd ri
Ġpre fer
Ġchang ing
ol ved
Ġpre par
id ers
Ġfail ure
Ġturn ed
Ġfl ood
r ant
Ġinf lamm
ere nces
Ġmin or
Ġsam ple
ĠM useum
oc al
het ic
ag er
ra ction
Ġem ail
4 5
Ġdi vers
ke y
Ġconn ection
Ġcamp aign
Ġbat tle
at ically
olog ists
Ġread y
Ġt rib
Ġs and
Ġun ivers
ogn itive
Ġexact ly
Ġter rit
Ġassess ment
Ġcharacter istics
Ġresult ing
Ġtr ig
Ġrad io
i i
iven ess
Ġout put
Ġves sel
Ġd rop
P S
O S
ĠThere fore
el ines
Ġinit ial
Ġw in
Ġgen es
i eces
Ġris ks
Ġrefer red
Ġredu cing
Ġis ol
Ġsh ap
Ġnot ed
stit ution
ĠGovern ment
i j
Ġst orage
ol id
ang ing
at form
Ġb urn
Ġlay er
ĠSoc ial
ond s
Ġcre ation
Ġn or
ĠA v
Ġfre edom
Ġsol utions
Ġinvol ves
an ch
Ġs av
Ġdist inct
ĠU nder
Ġ #
i os
Ġremov ed
ĠF ood
Ġhapp ens
Ġt im
Ġo cean
A ccording
How ever
Ġmess age
ĠC ath
Ġanx iety
Ġmost ly
Ġt our
Ġcoun ter
ess or
Ġmention ed
Ġrelationship s
Ġt rou
Ġdeg rees
Ġmeet ing
7 8
Ġal g
cept ion
Ġcirc um
Ġinj ury
Ġfeel ing
Ġencoura ge
Ġfind ing
Ġlo ad
Ġg od
Ġconf irm
Ġ18 6
Ġ2 9
Ġse eds
Ġ201 7
ĠGe orge
ĠCour t
3 3
ur ance
Ġproper ly
Ġcon v
n am
Ġaut hors
Ġis land
Ġwh om
Ġdang erous
Ġrep rodu
Ġstate ment
ĠT ex
Ġar m
a ult
Ġsc en
row s
Ġclass es
Ġth ick
Ġinf ections
Ġse ed
Ġsur gery
Ġo ption
Ġh orm
ĠP aul
Ġbeaut iful
Ġrelig ion
lic k
m ark
Ġback ground
ro g
Ġhe ard
Ġun f
Ġu pper
ress ed
iet ies
Ġtre nd
Ġrepl ace
Ġconflic t
Ġgr ass
ĠW ork
Ġra ce
Ġup d
ĠA ir
ortun ately
H ere
Ġadj ust
w ith
Ġme at
Ġd ram
Ġple ase
or ial
Ġhelp ed
Ġs em
osy stem
Ġf ine
Ġphys ic
on ic
Ġdeterm ined
Ġv ul
Ġart icles
Ġann ual
ĠD em
Ġ ...
ĠS am
Ġcolle ge
Ġel imin
Ġt um
Ġregard ing
ĠO ff
Ġp ages
re p
Ġadv anced
Ġadvant age
Ġincor por
ĠO nce
ĠPro ject
Ġd ie
ĠO b
o ch
Ġex cell
Ġprom ote
Ġinvol ve
Ġlead s
ish ing
le ase
Ġvol ume
Ġserv ed
Ġprinc iples
oy al
Ġp ric
Ġbel ong
Ġto oth
Ġexper ts
Ġm ist
ĠIs land
ĠS un
ĠOr gan
u ing
Ġexperien ced
Ġp al
Ġvol unt
Ġsp ot
Ġdescrib e
Ġrele vant
ro ad
ag o
ĠWh y
ri age
Ġgr ant
Ġprevious ly
Ġc ore
ĠR ober
Ġrad iation
Ġsy nt
ĠIn f
Ġre b
Ġ9 0
Ġinterest ed
ĠM ount
ur ation
Ġinterp ret
Ġdec ided
ĠT est
Ġg ender
Ġin h
Ġcl ick
Ġun its
um n
Ġcred it
m p
nd rome
Ġke pt
Ġmat hemat
Ġsh ip
Ġmanufact ure
Ġdep ending
all ed
ĠG ra
Ġs ort
ri a
Ġprofess ion
Ġfarm ers
Ġin put
Ġsol id
Ġcons ervation
S p
ĠIt s
c ers
Ġland sc
n ic
u x
ric ulum
Ġcal c
ĠAs ia
Ġlink ed
ĠM al
Ġwe alth
Ġexp osed
Ġsign al
Ġj our
Ġreact ion
m al
Ġsay ing
Ġm el
Ġemot ional
t a
Ġsp ent
Ġtrans form
Ġv ot
ut ed
Ġhe aring
m at
Ġ7 0
Ġacad emic
Ġr ound
Ġegg s
Ġamount s
M any
r um
Ġme ant
le g
Ġprocess ing
ribut ed
ĠH en
ĠMexic o
7 5
Ġl ung
Ġn orthern
ate gy
Ġess ay
Ġengine ering
Ġcomp rehens
ĠF ore
re te
C on
Ġcom fort
R es
Ġprep ared
3 6
ĠM ark
in ate
p ing
ĠJew s
Ġeffect ively
Ġoper ation
z a
Ġob vious
y a
A D
iver se
Ġconcer ns
Ġhelp ing
Ġsqu are
Ġsou thern
ĠS T
Ġstr ategy
Ġph ase
augh ter
T hat
Ġm ath
w ell
Ġpre t
Ġs ong
Ġdef ic
w ood
ur t
it z
W hy
Ġk ill
Ġexper t
v ision
Ġw est
Ġchar ge
Ġp ip
Ġh our
N ew
r ans
Ġ200 4
ĠA rab
ĠD i
ĠB el
ĠR ich
Ġoffic ial
Ġinflu en
Ġc ere
ify ing
ĠWh ite
Ġconcer n
Ġpoll ution
Ġman age
ag s
pl ace
Ġproced ure
Ġdat ab
b all
Ġdis s
Ġmot or
ul es
Ġown ers
t es
C C
ĠL a
Ġconcept s
Ġveget ables
and er
d ed
ĠPh ys
bo ard
Ġinv ent
Ġc ast
Ġcons ult
am s
Ġb ud
ĠM ars
Ġman ner
Ã ¡
Ġpres c
Ġvacc ine
ĠStud ents
ac ing
Ġf ol
Ġco al
Ġcon ver
Ġp ieces
Ġre ached
Ġinstit utions
ĠP ort
Ġgra de
wh ich
Ġa id
Ġatmosp here
Ġsustain able
Ġmain ly
ĠS ub
Ġchemical s
is her
Ġimpro ved
Ġcl os
N ow
Ġcomple ted
b i
Ġapp oint
Al though
ĠN AS
Ġim pl
Ġbro ther
ĠâĢ ¦
Ġdisc over
Ġsec ret
Ġp un
onom ic
Ġsupport ed
Ġdefin ition
ber g
Ġfrequ ency
r ates
ĠE v
e k
Ġsee k
Ġdiagn osis
Ġfin ally
z ing
O ur
stand ing
Ġpurp oses
Ġconc lud
Ġauthor ity
Ġpl atform
Ġbeg ins
Ġh op
Ġl ib
3 8
Ġh ospital
Ġlo oks
Ġprop osed
ĠJ e
ĠS en
ok ing
ĠTex as
ĠIs lam
Ġaware ness
R O
Ġnot ice
Ġcor resp
ac ific
Ġyou th
ĠA D
Ġdrink ing
ĠServ ice
Ġsu fficient
Ġeffic iency
Ġint ended
ĠB as
il ing
el ine
as tern
Ġl ic
orm al
Ġform ation
Ġst ation
Ġcontin ues
ĠAc ad
ag ue
k in
Ġb an
u able
Ġy ellow
Ġpract ical
it ors
Ġallow ing
l ig
ĠCent ral
ren ce
Ġrecord ed
Ġcom ment
Ġcont ribute
d es
Ġw et
Ġfor ced
Ġf ib
ĠH el
Ġmot iv
ĠR em
rap y
at ric
ak ers
al le
v is
ĠH IV
ĠM r
ĠJ er
Ġwond er
A P
Ġredu ction
ak er
1 00
Ġless on
Ġtox ic
C O
am ental
com es
os ite
ĠBrit ain
Ġlangu ages
Ġmor ning
Ġfor t
C l
ĠM iss
Ġcare er
Ġoff ered
Ġvul ner
ĠL ou
Ġrem ained
cl usion
ĠE very
Ġbl og
Ġsh ared
Ġelectr ical
Ġm aster
ĠM et
Ġt aught
ear s
Ġsus p
Ġsitu ations
' ll
is hes
Ġw aters
Ġcomb ined
ĠTh omas
Ġp ul
ro ke
ĠM art
Ġd ro
ĠB er
Ġphen omen
s es
ot ic
Ġst orm
ĠM ac
Ġ3 5
Ġre new
Ġh it
ĠS er
Ġe ast
F rom
ĠVir gin
Ġprofess or
ad o
Ġhe ight
Ġl ov
Ġar my
Ġfact s
Ġstra ight
Ġjob s
am ple
Ġide al
Ġprim arily
Ġsam ples
Ġcent uries
Ġn av
Ġco ord
oun ced
Ġdi am
Ġd oll
ĠB udd
Ġm ort
act ers
esp ite
Ġgra nd
Ġsubject s
Ġkind s
Ġtechn ical
Ġmus cles
Ġliqu id
Ġ200 3
ver ty
ĠFr anc
U S
t ion
Ġp ark
Ġindic ate
3 4
ĠC ivil
Ġpo verty
Ġb rief
r ations
Ġfocus ed
i xt
Ġf lex
ri er
Ġt asks
Ġw ife
Ġrec y
et ers
Ġspec ifically
oss ible
ĠCl ass
Ġcertain ly
A b
g ra
Ġtreat ments
ar row
Ġident ity
ĠO ld
Ġbir d
M ost
Ġlet ters
Ġf oss
Ġ Ã
atur ally
Ġexist ence
ĠMedic ine
h t
ĠAr my
ing er
op er
Ġconsequ ences
ĠB en
Ġper man
Ġn erv
yr ight
Ġdyn am
Ġsp end
Ġset tle
ul ating
Ġsh ar
Ġf elt
Ġra ised
Ġlarge ly
Ġbr ight
ĠNAS A
Ġl inks
ĠB ay
A meric
Ġflow ers
Ġn it
Ġt ro
ĠF re
Ġinit i
Ġsect or
ac he
Ġst one
Ġec osystem
w est
Ġnutri ents
Ġhtt ps
o o
Ġoccur red
Ġcr is
ĠF urther
Ġshow ing
ĠEn ergy
ĠL ife
ĠMed ical
r ich
Ġvo ice
Ġext ent
E L
ew ork
ist an
ĠAt l
oth ing
in f
g l
Ġn ations
w hat
ĠS al
os en
9 9
Ġadv ance
Ġoper ating
ĠL atin
Ġk n
Ġthe r
ol ute
go ing
Ġatt acks
ĠD ise
ĠC le
Ġdig est
ĠComm ission
Ġkeep ing
Ġcollect ed
os a
ĠK ore
Ġres ist
Ġprote ins
ri an
n el
Ġrespons ibility
Ġemer gency
Ġagricult ural
Ġimm ig
ĠNew s
Ä ģ
in ent
Ġlead er
a el
Ġdesp ite
ox ide
Ġhelp ful
rast ructure
Ġpro s
Ġc ert
Ġsc he
ĠD irect
Ġf aster
Ġsy n
Ġv ital
Ġb ill
Ġ199 0
Ġimpact s
Ġmot ion
Ġexcell ent
Ġ200 1
ĠI r
um in
c ol
e y
Ġpers pective
Ġv ast
ĠH ol
O T
Ġsound s
Ġro ll
Ġra il
Ġmet ab
Ġr ural
Ġother wise
Ġdou ble
Ġaffect s
Ġexpl ains
Ġhy per
ĠD ist
ipp ed
N o
Ġfac ilities
Ġadv ice
Ġs end
Ġqu ar
Ġrev olution
I m
ĠC am
Ġab use
Ġthough ts
P l
Ġdetail ed
ĠSp ace
Ġgir ls
Ġsurround ing
f ield
ĠQ ue
Ġcl im
Ġare n
Ġchar acters
. ;
Ġref ers
Ġcompon ent
ĠB C
un k
ens es
p oint
z y
Ġp ray
Ġon to
er ia
Ġpartic les
ĠB oth
r as
ĠSec ond
R I
' ve
Ġex ternal
p en
Ġsuggest ed
ail s
Ġplay ed
Ġor al
b and
th at
ang es
ĠD ef
Ġgood s
ĠTechn ology
Ġs now
igen ous
Ġbi ological
ens us
Ġpers ons
Ġincreasing ly
Ġtr ial
Ġdom estic
ic ed
ĠB ur
4 8
Ġsal t
Ġfamil iar
n ame
ough ly
it ness
Ġexpl an
Ġgreat est
ath y
Ġplay ing
Ġm ere
Ġmax imum
Ġst em
ĠS om
Ġst ars
Ġf if
ĠW ind
Ġperiod s
Ġp il
Ġinterest s
it age
Ġreturn ed
ol ars
ĠB ible
l i
Ġc ognitive
Ġtop ics
ĠTw o
Ġmeas ured
ut ive
Ġcrop s
3 9
Ġhapp ened
Ġdivid ed
Ġslight ly
Ġv ent
Ġflu id
Ġveh icle
ĠS ou
B C
ĠM ass
Ġtyp ical
Ġexpl ained
Ġrequ est
Ġsp l
ĠP acific
Ġmonitor ing
Ġb ow
Ġth in
Ġl iver
Ġmo ist
ind ing
Ġcont aining
Ġfl oor
Ġaccur ate
Ġ201 8
w in
Ġimm un
Ġinter view
] .
Ġgovern ments
in ant
Ġl ik
ĠE lect
ĠLear ning
Ġtra in
Ġfollow s
Ġne ut
Ġdep ends
om y
Ġrecogn ized
Ġcontroll ed
ĠM il
Ġfund amental
Ġpol ice
Ġs en
Ġsat is
rol og
d own
s hip
l ar
Ġk il
st ood
Ġsm art
r ight
Ġlook ed
ĠB ook
ĠCath olic
Ġdis app
as ure
ec k
Ġtest ed
Ġfil es
Ġinstru ment
res ents
Ġph one
ate ver
N D
g al
Ġj u
3 7
om pl
h i
c ript
ĠT oday
Ġfl at
ĠT reat
Ġf irm
Ġprot ected
ĠF lor
Ġapp arent
ak s
Ġinst ruction
I ON
Ġcons ists
Ã Ń
Ġobt ained
ĠFound ation
anc ing
Ġoffic ials
ra cy
Ġpot entially
Ġ200 2
Ġcard i
ific ial
Ġl ose
Ġstud ied
Ġpain t
Ġch ief
ĠJ ud
Ġfru its
Ġhar vest
D o
Ġtit le
Ġneigh bor
Ġgrow n
ov iet
Ġhundred s
Ġw estern
ĠChar les
Ġro ots
Ġinvest ment
or al
ĠW omen
um ber
Ġfeel ings
ing ly
Ġval id
ro c
Ġf le
M ore
Ġw el
Ġpro port
p at
onom y
ĠRober t
ĠIn formation
Ġt ried
Ġcru cial
Ġsub sequ
4 4
Ġconcer ned
Ġsubst ant
Ġappro aches
ĠL ake
Ġvis ible
Ġpric es
v an
ĠD ata
? âĢĿ
Ġha z
l a
Ġport ion
Ġmin imum
Ġwall s
ĠSm ith
ĠM ont
Ġhabit at
Ġw ire
Ġch ann
ĠUs ing
Ġcon vent
Ġd ut
Ġele v
Ġdep th
Ġsuff ering
Ġcons cious
ĠCar ol
Ġspirit ual
ab il
Ġse g
Ġ20 20
Ġt ips
Ġp ig
Ġp aid
An other
Ġd u
Ġclaim s
ce ler
Ġapp eared
Ġclose ly
ĠC D
Ġk m
f l
Ġs in
ĠR ights
IN G
Ġcontin uous
ĠGo ogle
Ġrep resents
Ġrapid ly
st ate
Ġproced ures
in ations
asc ular
act ive
Ġcur riculum
ĠRuss ian
el lect
ĠL and
Ġcris is
Ġp u
ĠM em
ĠSe a
Ġpr ison
Ġal t
ĠJ ose
Ġconcent ration
Ġk new
ĠM iddle
ĠO ut
v ille
ĠSt and
Ġmed ium
ĠAn other
Ġdiscuss ed
Ġ201 9
Ġext ract
an es
M S
Ġacc ompl
Ġpregn ancy
6 5
Ġdist ingu
c est
Ġhor se
ĠN or
ost er
Ġlat est
os c
T S
o oth
Ġs ides
Ġra nd
Ġagricult ure
9 5
oles ter
ĠHen ry
Ġform at
Ġview s
is p
Ġst ated
Ġappear ance
ar io
Ġcol ors
Ġg ar
Ġout comes
Ġval uable
Ġmedic ations
3 2
c hers
Ġadd ing
Ġinflamm ation
Ġdisc overy
Ġexp ensive
Ġp ump
Ġintern et
Ġselect ed
Ġdel iver
Ġjust ice
Ġmove ments
Ġle aving
Ġag es
Ġb and
ĠM icro
Ġcorresp ond
âĢĻ .
angu age
Ġrand om
Ġn aturally
il ed
ic ks
Ġcont em
l ers
Ġcou ple
Ġdecre ase
ĠF am
Ġ18 8
ĠM ake
Ġres idents
Ġcircum st
ĠCont rol
Ġdirect or
Ġmob ile
Ġwe ap
ĠEng ine
Ġdeath s
ĠInst ead
Ġinf rastructure
ocr atic
ĠRuss ia
Ġarg ument
ĠSu pp
ĠEm p
bur g
Ġregular ly
I nd
Ġg un
Ġrecogn ize
olester ol
Ġco ff
Ġd ial
Ġre form
ten ance
ĠS oviet
Ġst ret
ul in
b ing
ĠL ike
Ġwe ar
al se
Ġmill ions
D e
f ree
Ġh unt
Ġs ed
B N
Ġprinc iple
Ġsy ndrome
Ġbusiness es
Ġdivers ity
ĠU p
ĠL ibrary
Ġless ons
Ġmor al
al ian
Ġset s
ĠSt e
ĠH am
ĠD el
Ġdoc uments
D F
Ġre in
ol f
Ġsat ell
Ġinc hes
Ġf rag
Ġo d
Ġsubst ance
m as
Ġs an
ĠD isc
ĠR ef
Ġs ick
Ġfund ing
Ġ <
in du
Ġst ock
Ġ4 5
ĠStud ies
ter ies
Ġfac ilit
ĠT em
ĠS uch
19 8
Ġshe l
Ġdr iving
G en
ĠComp any
f all
Ġing red
ĠF ederal
Ġsuff er
Ġpart ies
Ġne uro
Ġ *
l iam
Ġsec ure
Ġsold iers
ĠP sych
Ġtalk ing
st ream
Ġra ise
ĠHist or
u ke
Ġcap able
Ġad equ
Ġinf ected
ĠP C
Ġadv oc
ĠW ell
Ġr ub
ĠB at
ĠN ature
Ġinter f
ĠW ild
Ġb rown
Ġrec overy
cl ing
Ġp ure
Ġacc omp
D uring
ĠP ost
ro id
Ġprevent ion
ĠLou is
r ants
av a
Ġenh ance
re m
.. ..
ad a
ot he
mb ly
Ġpict ures
Ġmy th
Ġentire ly
Ġintellig ence
Ġnorm ally
Ġcl osed
plic ated
S c
d den
ĠO x
ex p
ĠCon stitution
Ġb le
ĠN av
Ġhous es
es ity
Ġun like
r id
T e
ber t
Ġpar am
Ġin ject
Ġtra d
Ġex change
7 6
l ong
ĠP ower
re ed
Ġemploy ees
in et
Ġall erg
Ġdescrib es
i ology
D r
ĠW il
at o
H O
Ġn arr
Ġfert il
O ther
Ġap art
Ġprec ise
Ġsens itive
ol ve
Ġg all
Ġintrodu ction
Ġaccept ed
ĠB et
Ġimp ossible
ol a
Ġn arrow
or gan
c a
idd en
ĠS af
Ġform al
Ġm it
Ġspe aking
Ġst ored
Ġabs olute
om ach
ĠG roup
Ġprodu cing
Ġrec ip
os al
Ġopin ion
Ġcreat ive
uild ing
. |
Ġinc l
yp es
com p
Ġlif est
Ġorigin ally
Ġpre f
pp ing
Ġst ages
ĠEnvironment al
Ġvill age
Ġtra ffic
Ġcor por
Ġl ibrary
Ġwarm ing
ot a
Ġleaders hip
G o
Ġmass ive
Ġopen ed
Ġtou ch
C S
Ġgener ate
Ġer a
Ġt un
Ġcomput ers
3 1
liam ent
k a
sp ec
ĠA p
Ġpo et
Ġm oon
Ġm amm
Ġbehavi our
Ġfl ight
ĠVirgin ia
Ġdisc rim
ĠT er
Ġposs ibly
Ġa w
Ġcall s
Ġch apter
hem ical
ĠK now
ib ilities
Ġsu c
im er
Ġsu dden
Ġd ream
Ġadop ted
dition ally
Ġfig ures
5 00
Ġlab el
ot o
Ġunder stood
be ing
Ġlist ed
Ġadminist ration
ĠT HE
ĠB ro
ct ic
Ġsecond ary
Ġar ms
Ġph r
Ġch ain
Ġsurv ival
ĠS um
Ġrec on
Ġbat tery
y e
4 6
Ġdatab ase
Ġind ex
Ġprot ocol
or ith
ag ers
Ġdist rict
Ġimpro ving
ĠM o
Ġmar riage
ag ues
ob e
if ies
Ġposs ess
M y
Ġreg ional
Ġn urs
ĠMan agement
u a
Ġreve aled
Ġb ones
Ġnet works
ab its
Ġpret ty
Ġ199 9
Ġst ick
Ġf ab
Ġmed ication
Ġw ave
Ġun less
ĠCanad ian
Ġrepe ated
Ġdec line
as p
Ġapp rec
Ġact s
ĠCol umb
Ġstart s
Ġm ur
Ġwind ow
L E
Ġposs ibility
Ġag encies
Ġread ers
Ġsu itable
cul es
w ar
Ġworld wide
h ist
oc racy
Ġexperim ents
Ġveh icles
Ġbud get
Ġpre m
U s
Ġdi verse
Ġrest rict
Ġhapp y
Ġf ill
Ġan cest
ĠD iv
Ġ18 5
Ġsupp lement
Ġwor se
Ġlat ter
Ġpl ate
f low
Ġt al
Ġd edic
as er
k i
hip s
ĠComm it
Ġ Î
Ġto ler
ĠSc ient
Ġcand id
Ġd ental
rop ical
on a
Ġle af
Ġprep are
Ġext ensive
ad d
Ġwild life
Ġswe et
Ġcult iv
Ġansw ers
os m
er als
le ments
Ġdep os
ĠM a
ĠN ations
ot ed
ang ed
R e
. âĢĻ
Ġcar s
Ġrem aining
Ġsurv ive
ĠFlor ida
Ġg ather
Ġachie ved
Ġ3 1
Ġse lection
Ġam b
Ġun iverse
Ġmount ain
ĠPro v
n o
Ġair craft
Ġrout ine
Ġto w
Ġmanufact uring
ĠP ers
st on
Ġcomprehens ive
os ph
ĠK en
Ġf ell
Ġd ust
Ġlandsc ape
Ġsequ ence
in i
Ġs ell
Ġmar ine
Ġharm ful
Ġcreat es
app ing
ĠOff ice
S ee
Ġm useum
Ġind eed
ĠG ood
Ġhealth care
Ġtro ops
Ġcl oud
ĠL eg
Ġguid elines
in n
ĠT or
viron ments
n ormal
Ġeng age
Ġmin im
Ġw ants
Ġexpress ed
ĠRe view
Ġelect ronic
Ġcop y
r ors
and a
ĠL abor
4 7
Ġab und
Ġforest s
ar ia
ĠComm on
Ġass istance
Ġcour ses
Ġantib iot
Ġpl ays
Ġprofession als
Ġdo or
C T
ĠA lex
Ġsur f
ival ent
Ġbenef icial
Ġvolunt e
act s
Ġagree ment
Ġtw ice
st ruct
ĠI d
Ġint ellect
ere nt
Ġgener ated
Ġint ake
Ġ198 0
ĠA tt
g ent
al ysis
Ġfail ed
Ġdoct ors
S e
ĠAn y
or row
Ġaccount s
Ġsol ve
4 9
Ġobt ain
Ġim per
Ġt iny
ĠO F
ĠAn n
Ġf illed
U R
b orn
C ont
Ġinj uries
Ġtrans ition
ĠC are
R ead
h ma
Ġslow ly
m ary
Ġext ended
Ġcho ices
Ġa qu
ash ion
Ġsee ing
ĠAb out
Ġbro ken
Ġtell s
l ast
ans ion
as ive
Ġed ge
ce ived
Ġt ail
Ġaud ience
Ġshe ll
Ġopen ing
ĠF e
Ġa f
Ġch art
Ġjour ney
Ġrem ote
or ter
Ġaff ord
Ġw id
Ġw aves
lud ing
Ġfl av
Ġland s
t age
Ġprodu ces
Ġcor n
Ġsw itch
ĠR ome
ĠV ict
Ġac celer
Ġfound ation
Ġconsist ent
Ġdisc ipl
Ġch olesterol
Ġstudy ing
et t
Ġre ject
es ter
Ġsign als
Ġtru ly
us ing
a it
Ġsch olars
if orm
Ġsp orts
Ġdec ade
Ġfram ework
ĠTh ose
Ġun known
z en
m l
Ġer ror
ic ide
Ġn an
Ġc atch
ĠI ll
Ġcircumst ances
b ut
og ue
Ġb io
Ġtrans mission
7 7
um s
Ġw ww
in ating
Ġa x
Ġstrugg le
Ġchild hood
ind er
Ġmain tenance
n y
ic ians
Ġgreat ly
ĠP eter
Ġ5 00
Ġa er
St ud
Ġp ull
Ġl ots
ĠD an
Ġmult i
b ody
Ġth or
Ġst omach
Ġloc ations
Ġf ly
Ġgra v
Ġ199 8
Ġperman ent
Ġdec ide
Ġopp osite
ig ation
ĠUS A
Ġste el
ĠOn ly
Ġrepl aced
ĠProf essor
Ġh us
ĠS l
Ġder ived
in ity
Ġimplement ation
Ġcoff ee
Ã ¼
ors es
Ġen able
ĠEx pl
Ġw ish
Ġd in
ĠG old
ĠIS BN
u nder
Ġ >
Ġdesc ription
ĠDes ign
Ġout l
ĠSt reet
Ġsk ill
ĠY et
Ġun s
Ġfix ed
Ġconstit ution
w ing
Ġtra um
f rom
ĠJose ph
Ġbe ar
us hing
Ġdoub t
ĠDise ase
Ġeth nic
Ġman aged
ar ant
Ġmechan ism
ĠGl obal
Ġindic ates
ĠTh rough
re land
ĠAustral ian
Ġinter vention
Ġinsect s
in ction
th rop
Ġsuccess fully
op y
ĠPar is
ĠL ong
N ot
Ġnew sp
Ġcalc ium
Ġsh aring
Ġalg orith
g ans
w o
Ġfoss il
Ġlabor atory
ĠFr ank
it t
âĢĻ ,
ĠCh ic
I L
Ġs od
ific ations
us al
Ġen vironments
C an
Ġsk y
Ġmark ed
Ġcirc uit
ĠL ab
rib ed
Ġg al
Ġ18 9
Ġrespons es
g u
Ġ3 00
Ġvessel s
Ġcrit ic
Ġra w
Ġrepresent ed
Ġbo ost
ĠA I
Ġauthor ities
it an
Ġdifficult y
Ġthous and
S ince
Ġconsum ers
Ġopt im
Ġla un
Ġd aughter
Ġorgan ized
ed u
le ts
Ġreg ist
Ġac ids
rit ing
Ġmole cules
Ġcomp r
Ġ197 0
Ġsent ence
ĠR ad
en a
Ġarr ived
ph one
e per
t hen
z il
E P
Ġn ine
Ġprinc ip
Ġcare fully
ĠI N
is ters
ĠRep ort
ĠB re
Ġn erve
âĢ ĺ
Ġw itness
Ġs ight
ink ing
Ġcomp osition
le vel
Ġun p
k es
Ġm ac
r ont
Ġult imately
Ġf iber
ag on
Ġdestroy ed
ĠSou thern
Ġcol our
i very
Ġcult ures
Ġin ner
Ġc art
Ġinstit ution
Ġsim pl
Americ an
t ra
E n
ct ive
ell ed
Ġun able
Ġlim its
ĠC a
f ish
r ine
ĠS k
Ġphilos ophy
ĠM ad
Ġyoung er
Ġdes ire
Ġd ensity
ĠK h
ĠCommit tee
Ġdedic ated
ap ed
t ic
Ġdeb ate
ĠSt ep
it a
it ative
Ġmar ried
Ġelect ron
Ġinteract ion
Ġg one
Ġsh ift
5 5
Ġfound ed
ĠC ult
Ġnecess arily
Ġf asc
Ġwalk ing
B l
Ġlifest yle
r us
Ġmix ed
Ġb rand
ĠH aw
ĠN atural
int s
r d
w ord
Ġpurch ase
ĠI reland
oc y
Ġhand le
Ġy ield
Ġclos er
Ġreg ul
Ġreg ulations
ste in
P e
ce l
iction ary
Ġm ild
um es
Ġen ds
Ġimmedi ate
Ġatt end
Ġour selves
ipp ing
Ġdown load
Ġro of
Ġpar alle
Ġgl uc
Ġconvent ional
Ġac know
Ġag ency
Ġread er
Ġhyd rogen
Ġrat io
ct or
ir ation
ĠH all
ĠB ank
ĠSt at
st one
Ġpre val
Ġfew er
Ġfeed ing
Ġpur s
Ġemot ions
ĠEx p
Ġam az
ĠI P
Ġch osen
Ġfab ric
Ġacc um
ĠC amp
Ġcom ments
iz er
ĠStud y
Ġh abits
Ġcl ust
Ġrem ark
Ġcut ting
Ġsuc ceed
Ġphot ograph
f ortunately
Ġstand ing
ir ty
ĠC at
Ġcompar ison
itud es
h and
Ġhigh light
Ġbreat hing
rib e
Ġatt ached
Ġal le
Ġjo in
Ġpers ist
Ġstand s
Ġsh ips
Ġinstruct ions
Ġve ter
Ġlist en
Ġbig gest
k ins
Ġcolle agues
ĠIt aly
Ġf alse
Ġsupport ing
c alled
ĠP ub
Ġp up
Ġterrit ory
Ġarchitect ure
Ġe ld
Ġsupport s
r ating
Ġconc rete
ĠH ome
Ġover l
ĠD et
Ġres erv
Ġtw enty
ĠM ag
Ġcommunic ate
ĠAd minist
Ġsuppl ies
Ġmechan isms
br idge
Ġm ice
ĠVal ley
Ġin hib
he ast
Ġfight ing
Ġwrit er
ĠRev olution
ĠG et
Ġun us
Ġdi oxide
h op
Ġtransport ation
ĠCl in
Ġcont ained
Ġunder lying
Ġgre w
ter ing
y les
Ġrel ax
c her
Ġwh atever
ĠF ort
Ġocc asion
Ġt ank
cy cl
ĠCarol ina
I P
ĠO cean
Ġser ver
Ġpercent age
ĠCan cer
b our
Ġknow s
or ous
Ù İ
Ġhe ro
or a
Ġeval uation
F igure
se y
Ġne ck
z ed
ĠF orm
Ġmach ines
Ġc ats
Ġex ists
Ġv oc
ut s
Ġwill ing
Ġv ote
Ġt aste
Ġte a
ĠN orthern
Ġorgan isms
t op
ĠEx per
ant a
Ġdeb t
ĠE th
ĠV is
ĠG al
Ġfunction al
O C
Ġpow ers
st ract
Ġst roke
Ġturn s
Ġun iversity
om ic
Ġcont amin
Ġcomp ounds
Ġsub s
Ġb read
ĠAcad emy
Ġparticip ate
ir t
Ġz one
ri ers
ĠCol or
ĠEmp ire
0 5
Ġl ies
ir ds
Ġmem br
ear chers
Ġla unch
ell a
ĠE xt
Ġhous ing
s uch
Ġhor iz
ĠP an
Ġacc ident
Ġadminist r
Ġa th
Ġres olution
Ġjo ined
ir atory
ĠR oyal
Ġ196 0
L A
L et
Ġd ent
Ġc row
ĠRich ard
Ġob esity
Ġch rom
Ġbehavi ors
Ġgreen house
Ġdraw ing
Ġris ing
Ġwhere as
Ġeas tern
a ud
Ġbelief s
ĠAd d
is k
ĠS ol
Ġa str
Ġtra ined
ĠT ime
Ġmagn etic
Ġpr on
he ther
ut ch
Ġk it
Ġb order
Ġcustom ers
ro vers
Ġvulner able
Ġfeed back
wh ile
Ġr u
Ġpresent ation
ion e
Ġsm oking
ĠO h
Ġrecogn ition
I nt
ĠSp ain
Ġp ool
dition al
Ġimprove ment
ct ure
Ġresult ed
ĠBo ard
u h
ĠSc iences
Ġequ ivalent
Ġref uge
ĠE nd
on ia
Ġart ificial
rodu ction
Ġ199 7
if est
6 6
c omm
4 2
Ġhe m
h av
Ġconf idence
st s
i h
ĠN ative
ĠR ob
Ġinstru ments
ĠInd ians
Ġleg s
Ġm ent
Ġfrequ ent
Ġdemonstr ated
st ruction
ĠP enn
Ġm and
ĠA S
Ġfund s
Ġsupp osed
Ġr hy
ĠAg ricult
es is
p et
7 9
Ġgu arant
Ġfl ag
Ġvari able
B S
e en
Ġobserv ations
Ġpro ve
ap h
4 3
Ġexpl o
Ġsh ot
it tle
Ġcar b
Ġprogram ming
Ġpsych ological
Ã ³
Ġtr ials
Ġconn ections
0 1
Ġcr ime
Ġiss ued
Ġcam era
Ġe pid
____ ____
Ġp ra
Ġf u
ic ious
Ġreact ions
L e
Ġst able
we ight
Ġt all
edi atric
Ġte en
et ime
Ġdist ur
ĠW ood
te en
Ġre cept
ĠM ill
ut er
Ġpre v
Ġcompet ition
C D
Ġm eth
ult s
Ġp air
Ġsh ut
Ġsh op
Ġnear by
Ġno ise
anc hes
ic on
Ġexam ine
n ect
Ġa head
Ġlay ers
Ġcon clusion
Ġent ry
ĠB rown
8 8
Ġb ot
Ġdep artment
Ġemploy ment
ĠChic ago
Ġdef e
Ġdemonstr ate
u ps
ir us
Ġcapt ure
Ġpart ner
in ally
and on
ĠW ik
ĠP ract
pl ant
ĠâĢ ¢
Ġdel ay
Ġne ur
Ġch ick
Ġgener ations
u gh
ĠMich ael
ĠC ap
Ġsp ending
Ġsubst ances
Ġhyp othes
Ġins urance
Ġwas n
Ġbr idge
rit is
Ġpolit ics
Ġrel ation
Ġm aps
Ġobject ive
hes is
Ġestim ates
er ior
Ġfl o
Â ·
Ġsac r
Ġdiagn osed
ĠH oly
Ġpos itions
ĠT imes
Ġmat ters
od ing
us iness
Ġdef ine
Ġsc ript
Ġr ing
ĠBra zil
Q u
Ġro w
Ġpain ting
ign ed
ĠCl imate
ĠE ss
I G
Ġindepend ence
ĠSc ot
ak ed
D P
x ts
rain ing
Ġus age
Ġlegis lation
ĠSc ott
Y our
et her
ia h
he red
F irst
ite ly
el ess
ain e
c ons
L ear
Ġelect ro
Ġr ank
al a
Ġtri p
h ow
et ics
Ġag reed
Ġarr ange
Ġtiss ues
R ec
ar n
Ġconsum er
Ã ¶
ever al
Ġdel ivery
Ġre ven
p read
Ġs ections
Ġmark ets
ĠG ard
ĠKe ep
ĠF ree
Ġprom pt
Ġz ero
Ġn est
ĠVict or
Ġ3 6
e enth
ear ing
Ġfe ver
M L
Ġ7 5
Ġh ur
ab ul
Ġso le
sc ale
as ters
Ġoper ate
Ġsur ve
Ġinteract ions
Ġvol tage
Ġins ulin
O f
Ġput ting
ĠD iff
ab led
ides pread
oura ge
Ġplay ers
Ġsw im
Ġth y
Ġco vers
Ġpass age
Ġpo ison
Ġinvol ving
Ġstr ing
Ġsc an
ish ment
b ra
Ġexplan ation
Ġc m
f it
ĠGe org
ĠII I
Ġcateg ories
ĠPart y
Ġf ract
Ġparticip ation
Ġh orses
Ġunder t
oc c
Ġvirt ual
ur rent
Ġrout e
Ġaccess ible
per or
ĠGu ide
Ġbl ocks
du le
oc ation
Ġlaun ched
ĠB ab
Ġfor get
Ġmod e
Ġadequ ate
ĠIt alian
ĠW here
it ter
Ġsp ok
Ġcent re
g ov
Ġfram e
Ġob lig
Ġcry st
Ġsm oke
Ġ199 6
Ġm os
Ġsc ene
Ġdang er
Ġevery day
Ġassoci ation
Ġdiv ision
Ġg ap
Ġb anks
Ġor gans
Ġc ards
Ġcontrol s
Ġlegis l
igh ter
O ver
um ps
Ġfor th
Ġn ob
ĠSt r
Ġb oy
Ġdep art
Ġsett ings
4 1
Ġn one
Ġend ed
R C
Ġemploy ed
ploy ment
ĠC reat
ad ing
Ġp apers
ym ph
Ġmaint aining
Ġindic ated
Ġman ip
r ite
Ġmat ch
Ġv s
ure au
Ġc up
Ġf ashion
Ġ ille
os ion
Ġconstruct ed
Ġcount y
Ġout bre
Ġindust ries
Ġrun s
Ġbr ings
Ġexp ansion
Ġme al
Ġrel iable
Ġchalleng ing
s is
Ġb low
Ġhold s
it ivity
Ġ15 0
Ġneg ot
Ġhold ing
ĠB ul
y th
Ġcol umn
Ġsm ooth
I M
ic it
ov en
ĠD ig
Ġstim ul
Ġhistor ic
% )
ult y
Ġrel ief
ĠH ave
Ġinstall ed
c ar
Ġele ction
Ġst reet
ent ed
Ġmet ers
ĠE astern
Ġcommit ted
Ġtrou ble
Ġrep air
az ine
Ġhon or
Ġmiss ing
Ġexerc ises
Ġshe et
Ġdra wn
Ġt ight
Ġphys ics
Ġinteg rated
Ġkid ney
Ġear n
Ġintellect ual
Ġdest ruction
Ġon going
Ġb ond
Ġen emy
Ġcal ories
Ġs ke
Ġr ig
Ġ199 5
Ġdam aged
D on
ĠS ing
Ġmin erals
s he
ĠL anguage
Ġg ram
Ġnerv ous
ĠB ig
Ġbut ter
Ġh ole
R A
Ġne ither
Ġr ice
Ġa ward
Ġphot o
ĠM er
ĠKing dom
Ġb iod
op les
Ġcon ven
Ġrece iving
m aking
op ic
Ġt ons
Ġlov ed
Ġdecl ared
Ġm old
Ġbur ning
Ġ3 2
Ġm m
ĠIr ish
Ġvict ims
Ġh un
Ġask ing
p an
Ġdom ain
Ġprepar ation
id ity
m es
Ġsh if
O nce
Ġh olid
Ġappro ved
or ph
g ers
8 5
Ġsome what
Ġwith d
Ġent ered
Ġbo ys
Ġw idespread
ĠC op
Ġdo i
Ġearth qu
Ġf old
us hed
Ġsp aces
Ġwor ry
Ġful f
Ġr ivers
Ġredu ces
ĠD ar
r ial
Ġv ac
Ġstrong ly
Ġgluc ose
ident ial
ut rition
Ġte xts
V ID
Ġab andon
ĠServ ices
Ġcomp osed
Ġbl ind
ĠA ccess
ĠEar ly
Ġdoll ars
al m
Ġis lands
ĠP M
ĠZ eal
I A
p es
ins on
Ġbreat h
Ġtur ning
Ġph arm
ig an
Ġhus band
he rent
Ġdesign s
Ġwa it
Ġcont rovers
ĠMart in
Ġf urn
Ġpublic ation
ree k
Ġcateg ory
Ġparalle l
Ġest imate
ĠF ace
Ġk ne
cycl op
Ġfac ility
Ġtrans p
Ġc av
Ġm ood
Ġseem ed
Ġreal ize
Ġmeasure ments
am ins
est ion
Ġint ense
ĠC re
op es
ars h
Ġmechan ical
Ġt ub
Ġvol can
Ġconstant ly
Ġor ient
Ġst re
Ġmoist ure
Ġfem ales
ĠT V
ĠT ake
Ġvirus es
Ġcr im
O L
g ical
all s
E ven
Ġdist ributed
i ability
h tt
el esc
Ġar rest
ĠE qu
ĠC y
ib l
Ġthe ories
Ġfavor ite
Ġbab ies
Ġconvers ation
ĠA ge
re y
ĠAtl antic
Ġart ists
Ġcoast al
Ġro les
Ġtra ct
Ġexam ination
Ġarch ae
Ġre ly
ĠE U
Ġoff ering
Ġmeasure ment
Ġrecommend ations
ĠFam ily
y al
op eration
he nt
Ġmere ly
Ġf er
ĠS up
Ġst rict
ĠZeal and
Ġpl us
g s
M e
Ġcomp are
Ġproport ion
ĠR om
Ġann ounced
Ġsignific ance
Ġad vert
r ane
Ġcl othing
ord ers
Ġrenew able
ĠP rop
Ġb ath
ad ed
Ġr id
ĠY ear
ro oms
Ġthan ks
Ġcrit eria
ast y
ad y
Ġvari ables
Ġoffic ers
Ġfac ing
Ġag ents
Ġâ Ĩ
Ġfor g
s en
an o
Ġm ales
Ġsee king
Ġmin ing
ort ion
ĠS il
he alth
he imer
Ġevalu ate
S S
Ġrespect ively
Ġbeaut y
abul ary
r ary
Ġesc ape
it amin
v a
ĠBe fore
Ġs ought
ĠA cc
os h
U T
Ġint est
Ġout come
ot ton
Ġsurf aces
B ecause
Ġf ro
ĠS at
Ġeng aged
ĠFore st
Ġbe ings
ĠH ill
Ġd ys
ĠRes ources
ap se
U N
Ġthem e
ĠA P
ip edia
Ġcent ers
ive red
Ġinf ect
Ġp ounds
io x
Ġpl enty
Ġconsider ing
Ġfarm ing
Ġpro hib
Ġcirc le
is dom
Ġw ound
qu it
Ġp ed
ĠAs ian
M ed
Ġac ute
Ġmole cular
Ġdepend ent
n et
Ġpro of
es ides
Ġinc red
7 1
ĠOx ford
an i
% .
Ġown er
ĠPl ant
i ological
Ġcom plicated
Ġprevent ing
ĠMore over
Ġmetab ol
Ġ6 5
ag ram
force ment
Ġunc ertain
E very
Ġmov es
Ġpar as
Ġcollabor ation
Ġmaint ained
air y
ex ample
ĠN az
vent ions
Ġrare ly
ĠA gency
ĠV iet
th ritis
Ġin n
Ġdes ired
Ġcontem porary
Ġs ession
Ġconfirm ed
ĠTe ac
ĠSom etimes
Ġ id
ir al
ĠSpec ial
Ġmess ages
Ġadvant ages
ad der
Ġbre eding
ren e
ĠL ib
Ġthe ore
Ġtem ple
Ġattempt s
Ġdo se
Ġaccur acy
Ġsh ock
Ġopp osed
Ġpregn ant
ĠSec urity
Ġphenomen on
Ġfour th
row ing
ol n
Ġsatell ite
Ġingred ients
ĠE p
Ġguid ance
Ġro cks
Ġdef ense
acc o
Ġinfluen ced
Ġsou l
Ġt ube
Ġclaim ed
ĠE ffect
ĠJ ac
ĠChe ck
ĠP op
ĠCh ange
ĠL ist
ĠWind ows
Ġcarry ing
Ġdis char
Ġfair ly
Ġsign ed
Ġmort ality
ren cy
Ġdet ection
ĠM el
Ġbring ing
Ġserv ing
ĠTh ough
Ġpan el
ixt ure
Ġabs ence
a ired
Ġin her
Ġem pt
Ġsc ore
ĠYou ng
Ġar ts
Ġpass ing
hy d
Ġcl ar
o om
Ġart ist
ĠAd v
ollow ing
Ġj ump
oh yd
ĠMus lim
Ġbe es
Ġimplement ed
ĠP olic
Ġprov en
m edi
b ar
Ġsecond s
T oday
Ġcomm ission
' m
v ard
Ġir rit
Ġn ose
ĠSec ret
Ġbi ology
7 3
ĠDist rict
Ġinterp re
ĠW ord
Ġd rain
Ġcomp ound
Ġess entially
ĠP o
Ġab normal
Ġcapt ured
7 2
Ġencoura ged
Ġweap ons
og ether
Ġphot os
t rans
Ġscreen ing
en ess
ere n
or ic
Ġnit rogen
Ġdiscrim ination
Ø §
A m
Ġgradu ally
Ġwrit ers
Ġche st
Ġs ail
Ġremov al
Ġ19 50
ID S
ĠV en
Ġins ert
Ġcomb at
o ir
Ġshap es
Ġknow ing
em ia
ĠA ND
Ġa ims
Ġp ush
ot es
Ġcrim inal
ĠFurther more
ĠP et
Ġfil ter
Ġprincip al
Ġl ake
A A
ĠO pen
ĠSw ed
ov ascular
Ġnew ly
Ġmin eral
Ġtele vision
Ġim plications
Ġtur b
omm od
Ġsubsequ ent
Ġast hma
ĠChrist mas
Ġpres ents
it als
Ġresp iratory
O r
Ġeffect iveness
Ġvisit ors
Ġcre w
Ġev il
Ġsurpr ising
Ġsil ver
Ġimag ine
an ing
Ġcare ful
Ġclean ing
ĠG rand
Ġang le
Ġdel ivered
Ġconsider able
Ġwor ship
ĠCent re
Ġfun g
out s
6 8
Ġass ume
inc luding
ro at
cl ass
Ġanal ys
Ġinterpret ation
ĠH y
ol ving
Ġover w
Ġdef ect
og a
Ġteam s
the less
ĠWh o
Ġsl a
Ġdifficult ies
Ã ¢
Ġtreat ing
Ġex clus
Ġbr anches
ask a
Ġexperim ental
Ġl ie
Ġra cial
Ġhe ating
I R
Ġexcess ive
Ġcook ing
Ġmin ute
rou s
s m
ook ing
ĠB ill
ĠCommun ity
Ġ4 00
ĠDo es
Ġprov ed
7 4
Ġit em
Ġdis aster
ĠAm ong
ĠAng el
Ġmathemat ics
her ic
Ġr oughly
ĠP lease
ĠW orks
Ġ199 4
Ġinf ant
Ġtarget s
Ġch lor
ol esc
Ġpro ceed
Ġcomfort able
ĠM S
Ġstrong er
ĠAdminist ration
Ġed ition
Ġinform ed
ĠColumb ia
Ġjud ge
Ġelect ed
am ine
Ġplan ned
Ġde aling
Ġmicro sc
Ġmicro b
t les
Ġrem ind
Ġbr anch
Ġg ut
Ġpe ak
Ġunus ual
Ġt ut
Ġgu ard
Ġfocus es
Ġplan e
ĠHe b
Ġout er
Ġre ward
Ġdef end
ĠD en
ian a
Ġsla very
S u
Ġhe aling
d f
inc oln
ru ption
Ġvar ieties
Ġf ed
Ġflow er
Ġstat istics
am ing
Ġla id
ish op
Ġunivers al
Ġmod ified
ĠDirect or
Ġg ained
Ġdec or
Ġfin ished
Ġhorm one
ot ype
Ġform ula
Ġh oney
Ġy e
am ination
p rodu
Ġequ ally
Ġmar ks
ra v
Ġcl ient
il ation
ĠFin ally
Ġconcer ning
Ġm ic
ĠD espite
og rap
Ġord ered
Ġc osm
ou nce
Ġassign ed
ĠL ow
Ġw ine
ĠR esp
un icip
re ated
ĠM D
Ġst ead
ĠN on
Ġelimin ate
Ġprint ed
9 8
Ġus ual
Ġro ads
o ids
el i
ĠL ar
Ġprom inent
Ġde eper
ri end
ess ions
z heimer
Ġd ates
Ġbre ed
Ġbig ger
r ance
Ġphysic ian
ag raph
Ġra b
Ġhapp ening
ĠNet work
ĠPr inc
Ġinvestig ation
Ġph osph
it ual
pr int
pt ions
ĠF our
ost on
Ġstruct ural
Ġserv es
ual ity
Ġcharacter ized
Ġsatis f
ĠM en
ill a
Ġmay be
Ġp estic
Ġrad ical
ro x
ĠCo ast
Ġinit ially
Ġneighbor hood
Ġenc oun
Ġfall s
N S
Ġexam ined
ĠI ss
Ġbi om
lish ing
0 6
H D
ĠInd ust
arent s
Ġstate ments
ĠR ock
ou red
Ġc aught
ĠS und
Ġc ash
ĠC ast
act ion
Ġgal ax
Ġrem ed
ĠW all
ĠF und
Ġch am
Ġ3 8
C omm
as m
ak istan
Ġamaz ing
ort ed
Ġh oles
Ġobs erve
Ġsuff ered
ĠAd ditionally
Ġro se
Ġreg ulation
Ġtrad itions
ĠE r
ri z
Ġun w
Ġcor ner
v in
C omp
e ut
Ġer rors
O M
Ġtrans lation
Ġg ro
C E
Ġor bit
ric ts
Ġexcept ion
Ġcon qu
Ġshar p
Ġinnov ation
Ġst uff
e ffect
i ary
com ing
Ġst ores
Ġcop per
isc o
Ġcor rel
Ġter ror
erson al
Ġdem ands
Ġex ceed
Ġint ent
og s
ict ed
Ġfac ed
ist ical
N ote
b les
ative ly
Ġed itor
Ġcomp ens
Ġkil omet
Ġt ropical
elf are
it arian
Ġfl our
Ġmus ical
on ym
ud e
ĠF ather
Ġconsum e
Ġlearn ers
ĠTh ree
ĠJ ul
Ġconf ig
Ġaccomp an
Ġsp in
ĠSu per
Ġearl iest
ha ust
Ġsubstant ial
n ight
ĠSup reme
Ġst ations
se ll
Ġc ab
Ġident ification
iox id
Ġplay er
Ġliter acy
ĠM ethod
ig ue
Ġscient ist
Ġspect rum
Ġgrant ed
Ġdiam eter
Ġsen ior
Ġpo em
ĠOrgan ization
Ġany where
ĠJe ff
Ġwar ning
Ġthreat s
Ġgra in
as ant
ĠS ign
Ġspl it
E d
ĠS ar
est ed
Ġsc ar
Ġind igenous
Ġc ort
ult ane
Ġconsider ation
Ġcere mon
Ġcon g
Ġhaz ard
ro t
Ġdr iven
i at
Ġtrig ger
Ġsche dule
ab eth
C H
uck y
pl ing
oc ial
Ġvide os
Ġsl aves
ĠArt icle
Ġb omb
ĠV er
Ġc oc
ĠC ell
ĠChrist ians
c hen
Ġsit ting
Ġam pl
Ġf est
ist ed
Ġev olved
Ġheav ily
Ġprocess ed
ans as
Ġ Ð
Ġrec over
ĠS ir
ust ain
van ia
Ġs ales
f ts
ic ate
Ġcom plications
Ġdecre ased
Ġsp ort
6 4
im a
m ers
on al
Ġ4 8
Ġo v
Ġman ifest
b a
th m
Pe ople
ĠA M
Ġtrend s
Ġwind ows
Ġprov ider
ost ic
Ġmeas uring
P er
Ġal ter
Ġlist ening
Ġconclud ed
Ġlight s
Ġpl ot
Ġrepresent ation
Ġcat tle
ic ing
g ment
j ust
EN T
ĠC P
Ġcoun sel
ogen ic
Ġisol ated
re qu
Ġad m
othe rapy
ont al
ĠDe v
Ġfish ing
Ġinsp ired
ĠP en
Ġadd s
Ġvar iation
ĠJohn son
Ġper ception
Ġflow s
Ġdem ocracy
Ġdet ected
S he
Ġm g
Ġd rought
ĠD ou
A pp
ĠT im
ĠKore a
Ġen orm
Ġsub t
Ġim aging
Ġreve al
? "
erc ury
at ial
sy l
C A
Ġsu p
Ġacc ommod
g ence
Ġoccur ring
Ġb rows
ot al
0 8
Ġper m
ĠN ever
ur a
Ġal ph
Ġdri ver
ĠSaf ety
Ġautom atically
ĠI V
Ġcon j
r at
en ger
Ġcorrect ly
C ol
ĠEngine ering
Ġar ray
ĠT ype
Ġover come
Ġstreng then
ie val
ĠAl zheimer
ĠK ar
Ġengine ers
ĠSim ilar
0 3
Ġwhe el
Ġfind s
et te
ĠP ot
ĠFace book
Ġconf erence
so ft
Ġmount ains
ĠI ran
ĠL iter
Ġre ct
Ġdirect ed
Ġsuper ior
Ġsun light
Ġg iant
m m
Ġhe nce
ĠE st
ht ml
Ġplan ets
Ġag ent
Ġprint ing
all ow
E ar
Ġp it
Ġobject ives
Ġext end
Ġ Ċ
Ġgrow s
6 9
Ġdis rupt
Ġh osp
Ġobserv ation
it ure
ĠSt ar
d ef
re al
Ġidentify ing
Ġworks he
Ġn ice
ass es
Ġsettle ment
Ġpe oples
ĠM ult
aw s
Ġun ion
ra ys
Ġ3 3
ĠMin ister
ĠU t
ĠM oon
al i
Ġgr id
Ġhead s
Ġb ag
Ab out
ĠT re
ild ren
et ary
ĠCO VID
Ġregard less
ĠU r
ru it
Ġp in
Ġview ed
Ġvit amins
Ġst ability
Ġchann el
Ġab ilities
es h
ĠProt ection
Ġ199 3
Ġvict im
u rolog
ĠL ead
Ġbacter ial
Ġgir l
Ġemphas is
Ġ199 2
Ġep is
Ġath let
ĠF igure
Ġbl ess
Ġinh abit
Ġexperien cing
Ġrel ie
Ġag ed
ĠIn s
Ġac res
erm an
Ġwor st
ĠAm az
Ġst rain
ĠL o
Ġint ensity
ĠS and
Ġas c
ĠOh io
ĠL incoln
Ġad verse
Ġfunction ing
Ġdynam ic
Ġcontribut ed
Ġcommit ment
Ġfat ty
Ġpl a
Ġdut y
ĠCons ervation
Ġdes ert
Ġweak ness
ple te
Ġvis ited
ic ular
Ġarg ue
Ġdiet ary
ig ate
Ġwrit es
usal em
br id
Ġme als
qu ar
Ġinter face
Ġsus cept
Ġre aching
ĠLear n
Ġl es
re ction
P art
il a
ac ent
5 8
Ġr itual
roll ed
Ġr ational
Ġaut ism
Ġc ord
Ġantibiot ics
Ġregard ed
Ġold est
Ġv an
Ġwhe at
Ġacqu ired
Ġinnov ative
qu ir
ĠP akistan
ĠC ross
Ġprotect ing
ĠO per
Ġcont ribution
' ,
le te
ĠJ o
Ġcall ing
cent ury
Ġmod erate
Ġsl ave
ĠQue en
Ġemb ry
ograph ical
Ġ vel
ic y
Ġg ases
Ġaddress ed
Ġprogram me
Ġm ir
d oor
ra q
iz abeth
ange red
ĠFor ce
Ġun iform
Ġcover ing
ĠN ote
ĠPal est
ĠHeb rew
it ory
syl vania
ĠM ah
Ġcool ing
fore st
Ġsm ell
end ment
ert y
Ġper mission
ĠD om
Ġres id
Ġh idden
Ġappoint ed
ol i
ĠCur rent
Ġtax es
ĠB oston
Ġhard ware
0 9
Ġprof it
y er
Ġst ake
0 4
Ġquar ter
Ġvers ions
Ġdis abilities
Ġl ip
Ġmanufacture rs
Ġ )
Ġvacc ines
Ġmathemat ical
Ġl aser
Ġm ixture
Ġcons erv
Ġtown s
] ,
Ġsepar ated
A B
Ġvoc abulary
our se
ang le
Ġeduc ators
ur ches
ĠGeorg ia
ĠL ight
Ġille gal
hold ers
Ġr an
un a
Ġal ive
Ġeld er
at hered
Al so
ĠF ire
Ġprov iders
Ġpre ced
G et
Ġra c
0 2
Ġpol ar
Ġoverw hel
C P
ĠN ov
ĠH ospital
Ġs izes
Ġform ing
at al
ĠL ee
Ġaut hent
Ġthere by
-- --
d r
Ġasse ts
P r
Ġphr ase
ĠRead ing
ir ms
Ġtrib es
ĠOn line
ĠWith out
ĠBat tle
C ar
Ġt ong
ĠCam bridge
ast s
arch y
ĠHe art
ĠCol l
Ġquant ity
he a
Ġqu iet
Ġfar ms
am ples
ĠA T
ep ing
Ġinter ventions
M ay
l ines
St ep
ĠSur vey
ĠL y
ĠRo ad
i op
ut en
ĠH or
eg a
ip her
Ġad vent
Ġv en
Ġchar ged
Ġopp osition
ĠAut hor
Ġins ight
P re
ĠPolic y
Ġpres erve
Ġher itage
ant ly
Ġfall ing
ĠH and
Ġt ables
ĠG r
ail able
Ġ5 5
ĠH im
Ġaffect ing
Ġsim ultane
Ġl ists
Ġex haust
ĠPre vention
Ġco verage
ĠDiv ision
Ġtum or
ĠMich igan
cyclop edia
E E
Ġdesc ript
Ġreport ing
ad el
C om
Ã ¤
Ġin equ
Ġbat teries
Ġk illing
ĠScot land
Ġconcent rations
. ).
ĠJer usalem
Ġf lying
ĠCh apter
ne ys
Ġdec ay
Ġst ones
Ġinteract ive
Ġsupp lements
Ġmy st
ang er
ut her
r ical
ĠUn fortunately
are n
Ġcomp rom
Ġro yal
ĠL ess
Ġn om
ĠSt art
Ġimprove ments
M P
Ġm ouse
Ġprotect ive
ĠT able
im ents
Ġse at
Ġatt ach
use t
Ġen ables
Ġintrodu ce
ĠSp irit
Ġsur ge
ul pt
ĠPol it
L ast
Ġp H
Ġpl ain
Ġavail ability
Ġpan els
Ġo m
ĠF ind
ment ation
ĠD utch
Ġpoint ed
Ġord ers
Ġparam eters
ĠS et
6 7
Ġw isdom
ĠT om
Ġver tical
Ġf inger
ĠP ur
Ġupd ated
ĠA L
Ġchem istry
Ġstop ped
ĠT op
Ġbelie ves
ĠMod ern
Ġsens ors
Ġfl ash
Ġtraum a
Ġsub stit
Ġcarb ohyd
Ġaim ed
Ġfu els
Ġconsum ed
ir th
Ġdefic iency
Ġmos quit
Ġp and
Ġl ymph
W here
Ġcontain er
ĠEd ward
Ġste am
ĠColor ado
ĠR h
a o
Ġresearc her
Ġsh oot
Ġexp ed
Ġt on
Ġhard er
ach uset
Ġsc ores
Ġcharacter istic
Ġther mal
achuset ts
Ġbur ied
ut ing
ap or
Ġlog ic
Ġl ens
ur ning
ec ess
man n
Ġrob ot
Ġ19 30
z ym
) |
ĠT O
Ġprop ag
ĠM ath
Ġmother s
et ing
h us
Ġarg uments
as y
Ġlung s
Ġnutri ent
ment ed
Ġcalcul ated
em a
u gg
Ġneut ral
ag en
Ġant ioxid
ĠCh o
Ġconscious ness
pt ic
Ġord inary
ric ted
m od
Ġ199 1
Ġhunt ing
Ġaud io
u its
Ġm ine
ĠT ry
Ġloss es
g ien
Ġsp ray
Ġcustom er
Ġdram atic
Ġown ed
Ġphys ically
k ind
it i
op her
Ġliter ary
Ġsens itivity
Ġthreat ened
Ġcreat ures
Ġf ats
Ġcop yright
Ġwonder ful
Ġexpand ed
htt p
h ire
Ġher b
e or
ĠO l
Ġoffic er
al ities
Ġtechn ological
ĠPl ay
Ġcolon ial
ĠB usiness
h ar
Ġdeg rad
z er
ĠD C
Ġj ur
Ġtrans mit
er ies
Ġcommunic ations
Ġc otton
epend ent
Ġarg ued
E F
Ġiniti ative
ĠC orn
ĠW ay
Ġcomp ost
ĠPenn sylvania
I F
Ġeven ing
H ist
Ġkeep s
ĠChristian ity
ĠPar liament
Ġge omet
Ġf ra
pt om
H S
Ġpar agraph
Ġd ance
pl ed
ad vant
iv a
Ġc as
Ġdri vers
d isc
ol s
om er
ut ation
ra ham
Ġvari ations
Ġexc iting
Ġproduct ivity
0 7
Ar t
Ġperson ality
Ġwa iting
u an
Ġachieve ment
Ġeng ines
Ġcommit tee
ĠBo oks
Ġc ure
Ġnarr ative
Ġplant ing
Ġelse where
ĠAss ess
. '
l ims
Ġadv is
ĠI raq
5 9
Ġf ellow
Ġt or
Ġd imens
Ġch ances
Ġreason able
Ġmig ration
Ġmembr ane
Ġe ase
Ġequ ation
Ġsc hed
Ġad olesc
U nder
Ġsp r
Ġsoc ieties
ĠSp ring
iv est
Ġch ap
Ġfac es
Ġcardi ovascular
Ġbound aries
Ġline ar
ou l
ad ow
Ġor b
J ohn
6 3
Ġur ine
8 9
Ġhuman ity
ĠHar vard
Ġdom inant
ĠC ard
Ġcl ock
Ġcour ts
k et
Ġer u
Ġd ress
ĠHe ad
Ġdirect ions
Ġanaly ze
Ġd im
Ġestablish ment
am i
H A
Ġcolon ies
b ell
ĠPhil ipp
Ġst yles
Ġ ;
Ġbehavior al
Ġf ought
Ġemer ging
ap es
Ġgu ess
Ġpil ot
gen er
Ġman aging
th rough
Ġext ension
Ġbiod iversity
B T
Ġstre ets
Ġtem porary
Ġflex ible
ĠF ar
ic ian
Ġspok en
i ations
ain ts
ber ry
or ig
zy me
Ġir rig
ĠL ittle
ment ia
el ve
Ġmet als
Ġcy ber
Ġse vent
ri x
Ġpar ad
reg ation
id al
ĠFranc isco
b ox
Ġto b
Ġperform ing
ĠS S
Ġexec utive
Ġeng aging
ĠIs lands
ĠIslam ic
ĠMod el
Ġent ertain
Ġcan cers
be an
Ġground s
y ou
Ġec ological
Ġwatch ing
j o
end ar
Ġexpect ations
Ġexhib it
Be fore
D S
as ma
ri ze
ig er
% ,
Ġsc ope
Ġrecy cling
ĠI T
ĠMass achusetts
Ġclass ified
Ġfocus ing
Ġg ent
Ġemb ra
Ġinvestig ate
Ġdis ability
b ec
A re
P ub
ocol ate
Ġg ast
Ġre verse
are t
Ġconver ted
ĠIm m
ĠConf ed
Ġatt itude
Ġhousehold s
Ġwebs ites
Ġd ies
ĠG ulf
S im
Ġ3 9
b el
ĠAr ctic
ĠAg ain
Ġquant um
Ġprior ity
if ice
rane an
Ġsum mary
ĠJust ice
ĠEl izabeth
Ġgrav ity
w an
Ġbut ton
Ġtell ing
Ġcorrespond ing
C R
Ġgra ins
Ġgen ome
Ġenorm ous
Ġastr onom
Ġdeep ly
Ġf ing
Ġsett led
act ions
Ġinc ident
Ġbo at
Ġtem por
Ġdefin itely
ip e
Ġclass ical
Ġlow est
Ġcan n
ĠSystem s
C ons
Ġmov ie
ivest ock
N e
Ġnewsp aper
ĠB u
Ġens uring
Ġassum ed
Ġprob ability
Ġh all
Ġexpl oration
Ġdra g
Ġcap abilities
Ġ9 5
ĠIm p
ĠD own
Ġs ad
Ġeth ical
Ġecosystem s
Ġcontribut ions
th od
Ġequ ality
Ġremov ing
Ġl ibr
ĠO bs
Ġprov ince
Ġsav ed
ĠId ent
as hes
S m
Ġdis m
Ġinter ior
Ġfat igue
Ġempt y
ful ness
Ġbe at
Ġt ens
Ġev ident
Ġfe els
Ġsod ium
Ġunivers ities
Ġeng agement
ol t
Ġdeterm ining
ĠO tt
ĠB ack
Ġper ceived
ant ed
u um
Ġcl othes
Ġox id
Ġent ering
ĠM ot
ĠHaw ai
Ġt ick
Ġveget ation
C o
ĠL ast
Ġprefer red
Ġd uration
Ġcomput ing
Ġacc ord
Ġtob acco
ĠL in
Ġab stract
Ġmind s
Ġdist ricts
Ġrequire ment
f oot
Ġw ider
ĠD O
ĠW al
at i
Ġmy self
Ġf o
Ġf ur
ist ant
Ġtarget ed
Ġcl ients
ĠAn alysis
Ġdifferent ly
Ġres c
Ġlif etime
Ġstri ke
ly mp
Ġheav en
Ġmarket ing
Ġ3 7
Ġatt ribut
Ġp y
ag an
Ġsent ences
ĠÂ £
Ġpsych ology
Ġd ense
Ġsp inal
Ġf et
Ġemot ion
) ||
Ġexpl icit
Ġfacilit ate
og y
Ġlab our
Ġas p
Ġt ip
Ġwe igh
p ass
w ords
Ġviol ent
ĠConf erence
Ġth read
Ġapp eal
en ced
Ġsens or
R ef
Ġcontin uing
bor ne
ĠOr ig
ĠB al
Ġpass ion
Ġhorm ones
Ġremark able
im m
Ġsp ots
Ġadapt ed
hem istry
Ġpromot ing
Ġpoet ry
Ġaccompan ied
ĠM ur
k l
Ġpain ful
Ġlo ose
ĠBi ology
Ġcolon y
Ġact ing
E G
Ġcon clus
Ġprom ise
' .
Ġadd iction
w orld
Ġc ow
Ġpre y
Ġ20 21
ck ing
m ade
s or
Ġsustain ability
Ġgod s
Ġl osing
bo oks
pl ay
Ġref erences
z o
5 6
ĠSt an
Ġent it
E ach
Ġinf ants
ens ed
f ast
ĠAgricult ure
ĠSund ay
Ġocc as
ĠB ang
ĠE PA
Ġshap ed
Ġapp lying
Ġbe ans
Ġr anging
Ġman ager
Ġenter pr
Ġchrom os
Ġb are
ĠEc onomic
Ġlight ing
Ġwould n
ĠLabor atory
Ġphotograph s
Ġking dom
ĠSen ate
ĠF il
ĠB a
Ġsc ulpt
Ġnot ion
ail ed
Ġtrans mitted
ĠS aint
ĠC lick
Ġbeg un
Ġsafe ly
Ġloc k
Ġcelebr ated
ak a
r h
Us ing
w as
ĠF act
Ġexist ed
Ġass ert
Ġconst ra
im p
um er
ĠGree ce
Ġdiff er
Ġwithd raw
ĠInd eed
J ust
Ġra ising
Ġmar g
ĠC r
Ġimmig rants
Ġf isher
Ġt ack
M A
ĠP oint
5 3
ĠS olar
Ġtrans c
ĠNav y
eut ic
Ġbe e
Ġc raft
l ights
ĠL os
Ġ ^
Ġf ires
Ġclass ic
Ġs ulf
elesc ope
Ġst ood
ĠAs se
Ġw elfare
Ġch ose
ino is
olog ically
5 2
Â ®
er ts
Ġsche me
th is
ĠC ode
The n
se ction
Ġwe aring
Ġch air
Ġint ention
Ġm ature
C L
Ġvirt ually
g a
Ġdev ast
Ġsong s
ou ds
Ġbu ff
O P
Ġcl ub
Ġcon vert
ĠWild life
Ġserious ly
Ġhabit ats
Ġ3 4
Ġinteg ration
re f
Ġsymbol s
Ġperson nel
ĠD rug
Ġm unicip
Ġres il
Ġp ill
Ġh al
Ġcollect ive
us ive
Ġrepresent ative
ch ain
Ġvers us
Wh o
Ġcon vey
ce ans
Ġvir al
ĠS ection
Ġag ing
Ġholid ay
en cing
Ġdr inks
ĠWik ipedia
Ġun n
Ġco operation
Ġvict ory
f e
Ġprof ile
Ġreturn s
oper ative
Ġh at
ĠBl ue
rou d
te xt
6 1
Ġw at
Ġd airy
Ġliter ally
Ġlimit ations
Ġagg ressive
Ġnutrition al
m ail
Ġpray er
ĠPro cess
Ġdi arr
ob ile
Ġc ub
Ġfriend ly
' d
Ġs essions
E ng
Ġasse mbly
ĠMus lims
Ġbar riers
ĠM ach
Ġapparent ly
ĠP ass
ĠO lymp
! !
spec ific
d ep
ĠC irc
Ġrest ore
ĠCont in
Ġsu it
in er
Ġp ione
Ġhypothes is
D espite
Ġs aving
O W
Ġant icip
ĠAmaz on
am il
un ning
ĠC ub
us cript
Ġpriv ile
ĠP u
Ġoccup ied
ĠTest ament
Ġact ively
Ġemer ged
Ġd il
Ġob st
Ġfund ed
Ġacknow led
Ġpreval ence
Ġpurch ased
it ting
Ġg um
Ġ19 20
Ġcomplex ity
S ec
ĠH a
Ġman ual
Ġ ?
oc ity
Ġar med
L ike
ĠAs k
6 2
Ġtre m
Ġdevelop s
20 10
Ġopin ions
ass ium
ĠH T
Ġnot iced
Ġgra des
Ġre aches
Ġread ily
Ġgl ac
Ġsh ore
aw n
Ġcould n
ĠCons ider
st ant
Ġha ven
Ġw ars
the w
ĠM ax
Ġs hed
Ġc ul
Ġreal ized
Ġg ly
ĠF red
Ġneur ons
Ġinteg r
Ġble eding
Ġrec re
Ġbar rier
Ġbal anced
est ions
T H
Ġspec ified
ĠM oses
Ġbre aking
Ġt act
ĠS P
f eed
ĠC E
hav ior
Ġ198 9
ĠJac ob
ĠSecret ary
aw are
S ource
Ġcoun cil
ĠG all
adel ph
ic o
Ġdiscuss ions
Ġfr ust
Ġear s
O D
ĠI D
Ġg athered
yth on
Ġorig ins
Ġsav ings
op l
Ġref used
ĠAv oid
ĠAlex ander
Ġal ign
Ġpup ils
cl aim
Ġsp an
Ġcelebr ate
Ġrec ording
Ġat oms
Ġju ice
Ġt ill
Ġreplace ment
Ġann ually
f riend
Ġunlike ly
a fter
Ġsol ving
ĠS everal
Ġsac red
Ġcontroll ing
Ġscen ario
Ġg if
Ġ1 20
Ġinvolve ment
Ġexpert ise
Ġveget able
Ġt ension
Ġsp oke
Ġco at
Ġhand ling
Ġstrateg ic
Ġ194 0
Ġch urches
Ġche ap
Ġresist ant
Ġt ort
Ġjoint s
Ġcont ents
il st
Ġun cle
ick ing
T wo
Ġt one
Ġtong ue
ĠCh ief
Ġcreat ivity
Ġspecial ized
Ġp airs
ĠKe y
Ġs oph
U se
Ġpro x
Ġj oy
od ed
pl o
S P
Ġse es
Ġsh orter
o ons
if ier
s we
agn etic
ĠPer haps
Ġcho osing
Ġc ough
Ġdef ault
Ġdro pped
ĠMexic an
Ġasse mb
Ġassoci ate
p ower
c ule
ĠDan iel
ĠM ove
Ġplant ed
Ġdisplay ed
R ep
Ġpay ing
ĠM ess
un c
Ġdigest ive
Ġver b
Ġt ap
ĠPort ug
zym es
Ġtra its
ĠL im
20 12
Ġcirc ulation
Ġper mit
ĠDig ital
al so
Ġabsor b
Ġmeaning ful
Ġgradu ate
R el
ĠG ar
Ġpr ime
ĠTreat ment
Ġs ale
Ġpost s
Ġor ange
ĠI ce
acks on
aw a
Ġs ister
ĠTem ple
ĠAr ts
Ġaddress es
ĠU V
Ġpe er
Ġc rown
Ġrest oration
ne um
Ġpract ition
r in
Ġoutbre ak
ĠIn vest
Ġsc at
ĠR am
iter ranean
ĠR NA
iz ers
Ġevery where
Ġdi pl
ĠA R
Ġoil s
Ġrest aur
ra ine
Ġent hus
adelph ia
Ġal arm
ĠN ob
ĠD ictionary
Ġcl ay
Ġcur rency
ĠEgypt ian
Ġt ab
ĠF arm
ĠHistor ical
j i
Ġre ign
ĠB ureau
lect ed
Ġpen et
ru e
ov es
Ġcur ve
Ġmedic ines
Ġind irect
Ġadop t
ĠInc re
ĠP age
is d
Ġvar ied
Ġpresc ribed
T ra
ĠR ail
rep rene
ĠCon vention
Ġvolunte ers
: ||
Ġsc iences
Ġrepresent ing
Ġp ets
ch o
Ġte ens
ĠL ater
p ress
ĠK ids
Ġdra ft
Ġregist ered
20 11
ĠC apt
on ents
ĠPh ot
Ġbas ically
ĠCent ury
Ġreve als
u ber
Ġmamm als
Ġvar ies
ĠHer itage
Ġbur den
Ġpow der
ond ay
sh aped
! âĢĿ
Ġqual ities
Ġcor on
ĠIll inois
ic ts
Ġcompet itive
Ġevolution ary
ĠHel p
Ġw ing
ĠH indu
Ġhapp iness
ĠIm pro
Ġs ons
Ġsleep ing
Ġhyd ro
ĠFr id
ĠTur k
Ġut ility
5 4
Ġchick en
re ens
ĠN eed
Ġp el
Ġreflect ed
Ù Ħ
Ġalgorith m
ĠB uilding
ĠViet nam
Ġhosp itals
ĠAnd rew
m ia
G E
ment al
20 13
Ġgard ens
8 6
Ġde ploy
Ġaccompl ish
f unction
Ġo ste
Ġowners hip
ĠM id
U L
Ġas h
c in
ĠBe ing
Ġd ict
Ġdis advant
Ġar ise
ay a
Ġexpl oring
em b
u ity
Ġc ited
Ġg ift
Ġleg it
Ġtransfer red
Ġth roat
Ġtra ce
ĠS on
Ġaut o
c ut
i ro
ĠT own
Ġben e
Ġconvers ion
Ġpass es
Ġpres erved
ĠR ight
Ġstream s
osp el
ian o
G l
Ġpu zz
ĠMus ic
Ġl ivestock
oc ated
out heast
Ġenjoy ed
Ġinc ent
at us
ur able
Ġpand emic
Ġro oms
ĠV e
chn ology
ĠV an
Ġdesc end
Ġbreak s
ĠMed ia
Ġcell ular
ol k
Ġbe ars
ĠM A
Ġdiscipl ine
er ally
Ġro d
Ġproduct ive
Ġcalcul ate
Ġto m
th ur
Ġher self
ĠAnt ar
Ġgl obe
Ġspace craft
Ġdevelop ments
Ġmin imal
Ġdiv ine
Ġest ate
g reen
ĠC reek
B M
Ġadv ances
if er
Ġ ion
ĠAb raham
a is
Ġident ical
Ġo l
Ġsurpr ise
Ġsu g
Ġbu ying
ĠComm ons
Ġinflu ences
Ġillness es
br is
ĠBl ood
Ġmeet ings
og ens
Ġre ef
Ġprof ound
Ġsoil s
Ġatt itudes
iz z
Ġam ino
Ð °
ri p
Ġsus pect
Ġprec ip
Ã ±
Ġt ends
ol ves
P lease
Ġfore cast
Ġlog ical
ira ble
Ġsc r
Ġearthqu ake
gien e
o is
ok ed
Ġrequ iring
ĠD esc
Ġwork er
Ġde mentia
iss ipp
Ġmer ch
Ġf t
Ġto mat
m ble
Ġvis its
ol er
ĠK ent
Ġperfect ly
Ġsudden ly
w orth
Ġres erved
Ġminor ity
Ġan ger
Ġmetabol ism
Ġbene ath
m ond
Ġp ace
ater nal
Ġsub sc
Ġpaint ings
9 3
Ġput s
ĠA st
Ġover view
ĠStand ard
Ġins ights
Ġstr ange
Ġanaly zed
Ġreg ime
iss ance
Ġspecial ist
in th
Ġcitiz en
es ium
Ġb ought
5 1
row th
ĠCol on
Ġfac ulty
Ġmagn itude
Ġb orrow
se x
ac les
ra it
ĠSm all
Ġinv asion
Ġquant ities
Ġpriv acy
Ġdistingu ish
Ġsur gical
Ġsu icide
ĠV itamin
ys ical
in ces
200 9
ugh t
app ed
Ġattempt ed
ab b
Ġimp air
ĠL i
Ġelect ions
ĠInd ones
ĠSy m
Ġcomp ass
Ġper t
Ġinc idence
M ar
Ġinst ances
Ġd ating
am ps
Ġprepar ing
ĠTr ust
ĠA ff
Ġ4 2
u is
ĠC rit
ĠLe vel
Ġen cl
Ġdocument ed
b ury
s ub
ent er
Ġcop ies
ĠWh ich
ict ions
Ġsh r
Ġshe ep
9 7
pr ing
v ation
Ġaccur ately
P ost
ĠNe xt
Ġult imate
9 2
Ġs ending
5 7
Ġrul ed
Ġfin ish
ĠMed iterranean
aterial s
Ġpartners hip
Ġw al
Ġmax im
Ġemb ed
reg on
Ġvary ing
ĠH um
Ġpredict ed
Ġwork place
Ġpartic le
Ġh am
à ¥
Ġprov ision
ad or
Ġposs ibilities
ĠM ajor
ce ive
oc a
Ġaddress ing
Ġmor ph
gh an
Ġal umin
Ġopt ical
Ġcry pt
ul ed
Ġappl ies
Ġassign ment
ro se
Ĥ ¬
ot ypes
ane ous
Ġph ones
Ġaccept able
Ġdesign ated
Ġrestrict ions
Ġsever ity
ĠD ie
ĠH ence
Ġsp atial
Ġunder ground
p re
Ð ¾
Ġv ibr
rit ten
Ġle cture
Ġconflic ts
pl ate
Ġwas h
ric ks
ĠMin istry
Ġw ise
ĠEn cyclopedia
Ġcons ent
Ġtot ally
ĠC A
G e
Ġiniti atives
Ġjud gment
ĠO ffic
E A
Ġtrans plant
Ġcontribut ing
ĠH ard
Ġdevelopment al
Ġ( âĢľ
Ġl akes
ĠS qu
olog ic
Lear n
Ġv ig
Ġdimens ions
Ġmotiv ation
em ies
sc ience
Ġcal m
Ġz ones
Ġthem es
Ġconsequ ence
ĠC ost
Ġsepar ation
el ly
ĠF air
Ġin ev
Ġre vers
Ġabandon ed
Ġpack age
Ġcomp os
Ġfif th
S cient
ou ri
ĠA ction
Ġwood en
ĠW hether
D L
ab out
ĠE mer
Ġinhabit ants
P s
qu ality
F ig
ry pt
Ġvill ages
Ġtransl ated
w estern
l av
ĠT H
ĠPhil adelphia
200 8
ru b
ĠF ield
ibl ical
Ġmod ule
Ġsw elling
Ġhon est
it ic
ĠH it
Ġnut s
Ġelectr ons
p df
Ġ( "
O s
Ġd imin
Ġpay ment
Ġinv ention
ĠC T
ĠF ed
Ġcap s
ig ious
erv ing
Ġdis ag
Ġne urolog
ide o
Ġsuscept ible
S ub
Ġchann els
ĠE ll
Ġsurround ed
ĠOb ama
Ġther m
Ġin ch
av en
is ations
ter ior
er as
Ġout door
h an
ĠV iew
d i
or i
red it
ĠAre a
Ġtheore tical
ĠWe ek
Ġsimultane ously
Ġrest ricted
9 6
Ġestablish ing
Ġdem ocratic
Ġbi as
issipp i
ĠÂ ©
Ġal ert
riz ona
ĠPro ble
ast ics
" )
Ġreg ulate
Ġincorpor ated
Ġancest ors
Ġr ough
pect ives
Ġsatis fact
ĠFrid ay
p age
Ġch ocolate
ĠMar ine
Ġfav our
ist ing
b ow
Ġ2 50
ĠL ew
ĠN orm
s k
Ġcy cles
Ġg ate
Ġcandid ate
Ġminim ize
ĠW riting
Ġ ×
Ġc able
ater al
or ters
Ġdram atically
ustain able
Ġh o
Ġin herent
Ġdi ets
Ġfasc inating
Ġper pet
Ġpros per
Ġhy brid
Ġopt imal
Ġr ib
Ġw ings
ĠJ ackson
Ġb ull
Ġh ier
Ġreven ue
Ġas ide
Ġmem or
ĠS anta
Ġabsolute ly
ĠP oly
ĠM ic
200 6
Ġdepos its
Ġen forcement
iv ities
Ġdis h
or us
Ġpers u
Ġdut ies
reg ular
Ġl ob
T able
s ur
et he
Ġvis iting
at oes
Ġcut s
om eter
Ġbl ank
Ġentit led
Ġbro ke
Ġrel ate
an while
Ġprop osal
st ru
Ġdist ant
Ġ20 22
K e
l ock
z one
Ġmin ister
AT ION
Ġanalys es
Ġoper ated
Stud ents
. ||
Ġhop es
quir y
ĠMicro soft
ol ine
Ġaltern atives
Ġarr ival
Ġdistur b
ĠCon nect
Ġd ried
Ġatt ributed
Ġprecise ly
ĠD iet
Ġg erm
ĠKore an
Ġtra il
Ġemp ire
ĠL at
ĠL ine
Ġsc ales
. :
ĠTh anks
Ġengine er
am ic
Ġbra ins
Ġattract ive
ĠOf ten
. ),
ĠO nt
Ġsubs id
Ġ1 000
Ġefficient ly
Ġinv asive
M an
Ġphilos oph
R eg
Ġrhy thm
ĠM ain
ĠM aster
Ġencoun ter
Ġbe ach
iv ation
Ġde er
pro fit
Ġcre am
el ing
Ġman agers
Ġconf usion
N ational
Ġdist inction
Ġde bris
Ġelement ary
ur se
Ġref lection
Ġcontin ent
Ġstat istical
Ġst ere
ĠAngel es
Ġoccasion ally
Ġar thritis
Ġspeak er
Ġf raction
ous es
Ġleg end
Ġth irty
Ġisol ation
Ġabund ance
Ġcam ps
ĠâĨ ĳ
Ġamong st
Ġpopular ity
e fficient
Ġpro l
Ġman uscript
ĠPl ace
Ġrob ust
Ġr anges
h ost
Ġreg ister
Ġcomb ine
d a
du ction
ĠJ r
Ġreprodu ctive
e em
Ġre h
Ġst er
ĠAd am
Ġtum ors
Ġ198 8
Ġsum mar
Ġpain ted
Ġkne e
ab ling
II I
ĠH aving
ĠRem ember
r ust
He alth
ĠD am
rop ol
Ġdis k
f ound
ĠSt ation
Ġb onds
200 7
ĠP ain
Ġflex ibility
st ers
Ġdi agram
Ġcomple ment
ĠD ue
Ġl ingu
ĠF DA
Ġele ph
Ġsens ory
Ġelev ated
8 7
ĠP L
end a
Ġexc lud
ĠR est
Ġinstall ation
Ġelder ly
ĠN utrition
ĠB ased
ĠU k
rib le
Ġmetab olic
Ġpip e
Ġcontain ers
Ġmur der
Ġregul atory
Ġ4 4
Ġsch olar
Ġwhen ever
Ġsurve ys
Res earchers
3 00
e ven
Ġrese mb
ool s
Ġd oses
Ġsed iment
Ġneigh b
Ġmed ieval
ĠAsse mbly
Ġend ing
ug s
Ġthan k
Ġsem i
Ġcorpor ate
Ġn oun
Ġdischar ge
Ġrepe at
Ġe rect
ĠB M
Ġne ural
Ġmist akes
v i
Ġgl ob
Ġsequ ences
Ġen zymes
Ġint ra
ec onomic
Ġdo ors
Ġun em
ot ion
Ġinvent ed
Ġbr on
Ġfil ms
Ġpl ates
ĠN eg
cept ions
Ġf an
Ġpart ly
ĠUn ivers
Ġpred om
Ġf ant
Ġpestic ides
A ut
Ġcra ck
oc ument
w a
Ġencoura ging
Ġcele b
Ġswim ming
Ġirrig ation
ĠO regon
Ġtend ency
ac le
ĠL uc
Ġsuggest ing
ĠBudd h
ĠF ish
Go ogle
Ġcollect ions
Ġen zyme
Ġcivil ization
ĠPhys ical
Ġu l
Ġthy roid
Ġcandid ates
Ġexc av
Ġrain fall
R em
B I
Ð µ
Ġra ys
ĠAl aska
et ically
Ġw age
Ġb ags
Ġh urt
Ġso y
Ġcontamin ated
Ġend angered
Ġst abil
ĠP DF
Ġrel ating
Ġsurv ived
Ġalong side
ric s
Ġallerg ies
Ġimag ination
ĠO p
Ġg est
Ġprev ents
ĠTur key
Ġtra ding
ĠB ern
C lick
Ġtrans formation
ĠL uther
is ons
Ġadministr ative
Ġc ig
Ġspread ing
Ġpen al
Ġhealth ier
Ġcr imes
Ġadop tion
Ġpe ers
Ġh ung
ur d
Ġcont amination
Ġabsor ption
Ġclass ification
Ġvel ocity
r ons
ĠGard en
Ġc odes
om ed
f ly
Ġexpand ing
Ġdiv ide
ub ble
ov ing
ol ph
Ġsym ptom
wh o
Ġsynt hetic
Ġcert ific
d ate
ĠL ook
ĠN O
Ġachie ving
n ia
Ġincorpor ate
ĠMiss issippi
ri um
er b
ic ations
Ġbrother s
ik a
Ġple asure
Ġburn ed
exp ected
b est
Ġdynam ics
Ġreflect s
Ġper f
it us
os aur
Ġval ve
ĠPro duct
An y
eli hood
Ġr h
ĠP ope
Ġvacc ination
Ġstra ins
Ġprodu cers
Ġext ens
Ġo ceans
Ġsystem atic
ĠPh ilos
Ġer osion
Ġgram mar
Q L
it ches
Ġeconom ics
ĠCD C
Ġbe ll
ĠSupp ort
Ġtherap eutic
eng ers
Ġsect ors
Ġmag azine
Ġcl ouds
Ġsp ons
U p
ff e
Ġcal endar
Ġsurv iv
om etimes
eg in
ĠM ind
Ġextra ord
ĠS us
Ġval ley
Ġdescrib ing
Ġabund ant
ric ane
Ġv om
Ġorgan ism
Ġappro val
ĠPh D
á ¹
Ġ6 00
Ġcoll apse
Ġt ag
Ġso vere
ar ks
ĠB rain
Ġwid th
Ġwe aken
Ġtreat y
Ġguarant ee
Ġland ing
ĠCor por
Ġrece ives
Ġpart ial
Ġbot tle
Ġsal mon
ĠS av
Ġm ask
Ġreason ing
Ġaff airs
Ġjur isd
ĠP aper
ĠN ic
Ġtw elve
ĠA rizona
ĠB ush
an z
ĠK n
Ġo w
ĠUn like
k er
Ġenh anced
Ġsuggest ions
Ġrec all
Ġwind s
igh th
Ġ9 78
ĠPe ace
P R
T A
w orm
in ates
is ition
Ġoff ices
Ġmy ster
W ill
Ġhoriz ontal
Ġh oly
Ġrep et
Ġb inding
ĠAs h
Ġmem ories
lect ric
Ġgra d
Ġs elling
Ġmut ations
Ġoffic ially
res hold
Ġdevelop ers
ĠWilliam s
Ġt ough
istic ated
the y
Ġrespons ibilities
Ġpun ishment
Ġdefin itions
ĠSchool s
ow ered
Ġeat en
Ġsoc io
Ġallerg ic
ĠMount ain
Ġflav or
Ġp ale
Ġkilomet ers
Ġconclus ions
i ac
ĠR ather
P V
est hetic
le ar
ĠBer lin
ell er
Ġsc hem
ĠPol and
Ġexhib ition
Ġlic ense
ĠP ut
Ġl oud
ĠAssess ment
ut ical
F inally
Ġm ile
ã ģ
epend ence
it ate
ct ors
ĠO cc
Ġrep utation
Ġcham ber
Ġmole cule
Ġsub mit
ĠA C
ĠV ar
Ġfib ers
ĠThe ory
Ġm uc
ath an
ĠM rs
9 4
Ġl un
Ġconf ident
aut hor
Ġconsist ing
imens ional
itz er
ĠOther s
Ġcollect ing
Ġwire less
Ġ Ø
Ġca ve
Ġcan al
Ġd ying
om al
ay er
ĠL og
Ġab ol
ra id
o a
Ġh ol
Ġsh oes
Ġsacr ifice
l ist
ĠTw itter
ĠMiss ouri
Ġconsist ently
Ġtow er
Ġabsor bed
ĠI de
ĠAn cient
C he
Ġre nt
Ġfact ory
Ġstru ck
d ess
ĠInd igenous
Ġm ail
ĠW ed
Ġadolesc ents
ĠEm peror
Ġcy l
Ġaccount ing
Ġemploy ee
Ġfat al
Ġphenomen a
ĠStand ards
ĠPract ice
ĠC H
8 3
Ġent rance
Ġconsum ing
Ġ8 5
Ġdiagn ostic
Ġfing ers
nes ota
Ġequ ipped
ent i
l aw
ang el
de velop
ĠJ ones
st ep
Ġpro long
ĠBet ween
Ġp ink
ĠGerm ans
Ġinj ured
Ġan throp
Ġplatform s
A c
Ġstri king
T P
im en
Ġbus y
Ġth row
Ġf iction
Ġgra ms
c or
c led
Ġ194 5
du ate
iv ate
Ġutil ized
Ġpot assium
Ġbroad cast
Ġprison ers
orig inal
Ġshe ets
ĠApp le
ĠH em
Ġlik elihood
Ġatmosp heric
Ġver te
Ġapprec iate
Ġret ail
ĠComp uter
Y es
Ġar c
Ġattack ed
yl on
Ġnurs ing
as hed
Ġpost ed
ĠF er
in ator
ple x
Ġbroad er
200 5
gra de
per t
c al
ill ance
2 000
ĠR en
Ġevalu ated
Ġbr ush
ĠPr ince
ĠGu ard
Ġse w
Ġpl asma
Ġwel come
Ġ es
ĠNet her
Ġimpro ves
ĠSh ould
Ġphysic ians
ĠP rom
Ġ198 6
health y
Ġp ose
ĠO S
Ġsome where
Ġstra w
ne a
Ġp ond
Ġent reprene
Ġret ain
Ġmal aria
8 4
ĠJ ava
Ġatt ended
Ġinfect ious
Ġpart ially
Ġinfluen za
Ġchar ges
Ġprov isions
Ġalgorith ms
ĠS elf
ade qu
ĠWil son
Ġdent ist
ĠIs a
9 1
Ġattribut es
qu es
Ġ198 7
Ġbound ary
ĠHit ler
Ġrefuge es
M od
Ġkit chen
Ġfin ance
Ġappoint ment
Ġse al
Ġb orders
ob ic
Ã ¨
en h
Ġn inet
in ch
ĠM other
nt il
Ġp ediatric
ĠN OT
Ġexp ort
it le
Ġ6 4
Ġw ake
Ġdep r
Ġsurpr ised
Ī Ĵ
ip ation
Ġnum er
V iew
ĠMary land
ĠW ales
Ġlib eral
Ġp ine
Ġdispl ays
A F
Ġrepresent atives
ct s
Ġintegr ity
in ery
Ġh ack
akes pe
Ġadj acent
ari os
Ġbul lying
Ġgr an
Ġbe et
Ġclust er
Ġf les
Ġpass word
ĠCult ure
C op
Ġflu or
ĠJ ack
Ġfree ly
ay lor
Ġarg ues
ĠB ell
ĠB est
ap ing
um ns
Ġhy giene
Ġimp r
P L
ĠClin ical
ook ed
ĠTh ird
ĠY es
ct u
ĠD yn
Ġconven ient
Ġsubsequ ently
Ġp roud
Ġbl o
Ġpred ators
ĠL ocal
Ġfit ness
thod ox
Ġsh ares
Ġpoll ut
Ġgent le
Ġthe sis
el a
akespe are
Ġshel ter
Ġinf lation
Ġimplement ing
ge bra
Ġint r
Ġstret ch
Ġlibr aries
Ġ ~
ĠOr der
C al
ĠSt ory
Ġcomm od
Ġ4 3
Ġ19 00
Ġres idential
ĠC all
Ġathlet es
Ġt anks
ot ing
ĠPr im
ĠAll ah
Ġcl oth
Ġcor al
ĠSimilar ly
Ġsh ade
Ġseason al
an ol
Ġcont rad
Ġacc idents
Ġal tered
Ġassess ments
ĠChar l
Ġa ster
Ġsp ine
y es
Ġm issions
ĠA k
ĠT ar
ĠN Y
Ġr ings
U C
Ġrad i
ĠS ud
ĠW alk
ĠB on
ecess ary
ĠCor ps
Ġaward ed
Ġlo an
ĠIss ue
Ġprevent ed
Ġassist ant
th ood
the re
Ġb ite
Res earch
af e
Ġmed itation
ĠOnt ario
Ġon set
ĠF ig
ian ces
Ġhome work
Ġdr ives
ĠT urn
Ġse iz
Ġpr iest
ist ically
ace utical
Ġtrib e
Ġsett lers
b urn
Ġspeak ers
Ġfore ver
Ġpurs ue
Ġre nder
yp ically
Ġfertil izer
Ġk g
art en
Ġret urning
T rans
ĠG DP
ĠDem ocratic
Th rough
ĠWith in
Ġworks hop
Ġv ice
ĠPr int
j ud
Ġlo op
ĠH o
Ġpl acing
u v
ĠGovern or
Ġdel iber
Ġdes k
Ġreview ed
Gen eral
ul ates
Ġorient ation
ak h
ree ment
Ġche ese
ĠLe ague
Ġtrack ing
ĠL ED
Ġweek ly
8 1
v ae
Ġp anc
gen eration
Ġprom ising
Ġp od
ĠG M
Ġv ag
Ġp ock
Ġdesign ing
D R
ĠSt ill
form ed
Ġparticip ating
ĠSch olar
Ġapp s
ĠT enn
Ġprogress ive
Ġavoid ing
Ġsoph isticated
Ch rist
ĠDar win
abil itation
Ġconf used
Ġadapt ation
Ġtoler ance
B A
ĠT raining
effect ive
ore r
ĠM onday
Ġoper ational
Ġarr ive
Ġto ile
Ġref rig
old s
Ġdev oted
Ġel abor
B ack
Ġwor n
Ġc ourage
ult ure
Ġeduc ated
Ġacqu ire
Ġdiarr hea
ear ly
, âĢĻ
Ġgra y
ard ed
Ġed ges
ĠCar ib
ac on
Ġfa ult
ĠM ap
Ġcirc ular
ĠH yd
Ġmonth ly
Ġinject ion
Ġmir ror
ĠE S
Ġoccup ation
ĠStep hen
t ype
Ġn odes
ot ten
A ss
atch ing
ĠH ig
ĠSc ript
quar ters
Ġindepend ently
ĠMin nesota
Ġan at
et erm
ĠSh ort
Ġintellig ent
Ġve ctor
Ġinvest ments
ĠAf ghan
b ul
Ġp neum
gg ed
Ġhum idity
ber ries
Ġconnect ing
Ġcamp us
Ġhe al
8 00
Ġart istic
pl an
Ġconstitution al
ĠWork ing
ĠF ac
ĠO N
Ġel ig
for ced
Ġassess ed
or ious
ĠA ud
Ġpresc ription
ĠCl ub
Ġdisp ers
Ġcont rary
f ire
ic an
Ġst ems
G u
ĠMars h
Ġinter medi
on in
on ly
Ġcar ries
ĠNether lands
os itive
Ġear ned
ust er
Ġbl adder
Ġhistor ians
b age
Ġpat ent
erm at
Ġext inction
Ġindic ating
Ġhaz ards
Ġfem in
ĠN G
ĠRes erve
ĠApp lic
Ġspeed s
Ġf rog
Ġass ault
ĠM arc
C I
ĠC S
Ġinf in
Ġthor oughly
Ġteac hes
Ġdrop s
vel ength
ĠScient ific
ĠTeac hers
ĠNe uro
un s
reat ment
Ġpar liament
ĠB h
Ġv ine
Ġcomple tion
i y
ĠH arr
Ġm isc
ac her
friend ly
Ġcol ored
ĠTe xt
ĠJer sey
Ġ rom
at ile
Ġper mitted
Ġb ind
c ase
Ġp est
ĠB ol
ĠTra de
Ġstrugg ling
ĠMat thew
em or
Ġimp ressive
Ġmin i
D ef
Ġ `
Ġax is
ĠInt eg
Ġadminist ered
Ġdist ribut
Ġaccompl ished
H T
ons in
Ġaf raid
Ġalg ae
at ories
ps y
Ġavoid ed
ĠJeff erson
ĠH an
Ġres olve
ropri ate
anc he
Ġdistingu ished
Ġal k
Ġpres ervation
v y
ig m
ĠN ation
Ð ¸
ucle ar
Ġh ide
isc onsin
ĠVol ume
ues day
Ġlast ing
i atric
Ġth reshold
ar ians
Ġess ays
ĠMc C
Ġm apping
Ġshall ow
Ġun expected
Ġmanufacture r
d is
Ġex ch
Ġ4 1
Ġmil it
v ol
Ġimportant ly
Ġhard ly
amm ad
Ġupd ate
Ġarr anged
Ġexc ited
Ġnerv es
ĠC R
Ġbox es
ĠRes earchers
ios ity
* *
Ġgra ce
Ġj ew
ĠInt roduction
ĠCle an
Ġdisc om
Ġconcent rated
ĠProt est
ĠCar l
n als
Ġke ys
ĠRom ans
st ic
urs day
Ġh ill
Ġprot est
em et
inc ome
Ġtox ins
Ġpar ks
an ium
Ġobvious ly
Ġfound er
ist ent
ĠG re
ĠO s
Ġantib odies
Ġmob ility
est one
Ġdi ver
ĠEx amples
Ġy es
ĠN a
ip h
Ġreview s
ĠF uture
Ġb ills
Ġbrows er
Ġcam eras
Ġt ied
Ġpr one
Ġn ort
ins ula
Ġ8 00
comm un
Ġsam pling
Ġexpress ions
Ġassoci ations
Ġdist ract
Ġdecre ases
Ġg aps
sequ ently
Ġport ray
f old
ay ing
Ġs le
ĠA h
ĠST EM
og ram
ph al
te enth
Ġsp ark
ĠK ansas
Ġg ear
Ġsub mitted
Ġreg en
Ġshould er
Ġm ira
Ġsucceed ed
ĠE nt
Ġinsp iration
T ER
Ġw ed
âĢĿ )
Ġreject ed
ĠTh ink
Ġimmig ration
Ġtherap ies
d d
Ġpath ways
Ġem it
ĠDe ath
ag le
Ġdoct rine
Ġtradition ally
Ch ildren
Ġb its
Ġind oor
Ġrout es
Ġauthent ic
in ance
Ġh arsh
Ġtrem end
ĠS em
ĠJ im
Ġapp et
Ġnot able
ĠB io
Ġunder go
Ġbe aring
bur gh
ĠF ull
Ġb er
ĠAr m
Ġfall en
Ġcarbohyd rates
Ġdead ly
H igh
ib et
Ġafford able
Ġess ence
Ġbe am
ĠH ung
Ġre nd
th al
h igh
Ġrel atives
Ġceleb ration
Ġp or
ĠF ollowing
ĠFranc is
ĠQu estions
ĠRe al
Ġwas hing
Ġtravel ing
Ġqual ified
a ver
Ġatt ain
il er
ĠJ un
s ized
Ġmet eor
Ġimpl ies
Ġdial ogue
Ġsynt hesis
B D
ĠJ on
Ġhe ter
az z
ĠM es
Ġrecomm ends
H ave
Ġflood ing
Ġhyper t
ĠR isk
j a
Ġt rick
ĠD id
Ġsp ir
200 4
Ġpublic ations
ĠH om
ĠH ot
Ġp ests
ĠH op
Ġconduct ing
Ġen lar
ĠM uch
ĠDiff erent
Ġl oyal
iot ic
Ġpub l
Ġmon ument
ĠStud ent
ĠDi abetes
ĠRed u
D ep
ĠCent ers
F urther
in ian
Ġstead y
ĠScient ists
ĠQ ur
Ġtal ks
Ġall ergy
nes day
Ġembed ded
Ġtransform ed
Ġhigh lights
8 2
Ġsub str
ro le
Ġgovern or
ĠInt erest
inf lamm
Ġdist ances
Ġf irms
Ġcap ability
Ġt ape
ĠInd ex
Ġpr ies
az e
u ine
roph ic
Ġconfig uration
b ro
Ġb uck
erc ise
F ind
ĠDav is
im als
ĠF a
ress ing
Ġcontrovers ial
dom inal
Ġp ou
Ġflu ids
4 00
y ard
Ġcy cl
ur ated
Ġdef ines
Ġoverwhel ming
W ater
Ġprog ression
ar ium
Ġtra cks
Ġmult ip
Ġhun ger
Ġat omic
Ġhistor ian
Ġreserv es
ine a
ĠFr ont
Ġas ks
ĠW W
Ġp ushed
emet ery
ĠAn imal
s pring
ned y
ĠBudd ha
ĠW ars
Ġcomp aring
Ġpersist ent
Ġdefe at
Ġcol umns
Ġir regular
ĠH on
Ġaccord ance
Ġdisc l
ĠTe aching
Ġ198 5
Ġfeature d
Ġpromot es
ĠArab ic
Ġexped ition
ĠEc onom
rel s
ĠSwed en
ik ing
hed ral
Ġart if
Ġdemonstr ates
ĠD aily
Ġen abled
Ġmodel ing
L S
Ġch ron
ĠIm port
an as
um bers
uss ion
Ġmist ake
Ġcompl iance
ch ron
Ġimmun ity
Ġdiscom fort
Ġc erv
Ġunt o
ĠSam uel
ĠNaz i
Ġdefect s
Ġr ide
ĠN ep
le ton
ĠPhys ics
Ġsearch ing
n ings
ĠPro per
Ġpros pect
Ġt orn
Ġgen us
Ġemploy ers
d ated
Ġo ught
Ġb ark
Ġutil ize
Ġn ic
ag ger
Ġlif t
Ġelectron ics
ce eds
Ġname ly
ic ides
Ġillust rated
Ġrub ber
ĠC N
s chool
Ġ197 9
Ġgen etics
ĠCarib bean
Ġobs er
Ġscen arios
Ġexpl ored
ĠS n
Ġsust ained
Ġaccomp any
om atic
Ġmet er
Ġcontinuous ly
Ġ198 4
C s
Ġal ike
ĠSh akespeare
Ġm ercury
ĠN ame
Ġencoura ges
ĠAl tern
y an
ov ed
a ft
y t
ĠT ro
Ġoccur rence
Ġl unch
Ġfe ather
Ġequ ations
Ġdest ination
sec urity
Ġf ate
Ġindic ators
ub le
ĠC ore
oc ent
Ġinst ant
Ġs el
Ġlab els
ps on
Ġleg acy
rict ion
uls ion
ĠH ur
Ġcalcul ations
Ġpoor ly
Ġsub tle
Ġreserv oir
Ġgather ing
swe red
onym ous
id ae
Ġstake holders
Ġout line
ĠS ource
ron aut
Ġgun s
ĠW isconsin
Ġen act
Ġpat ri
Ġ4 6
Ġconf ront
Ġcardi ac
ĠNever theless
A nt
ĠVictor ia
Ġsitu ated
Ġlib erty
R NA
R S
Ġinv ited
Ġcritic ism
Ġj aw
. ]
do ors
al o
st orm
as se
Ġpot atoes
Ġmass es
Ã §
Ġwrit ings
ver ages
Ġr ats
au c
Ġm es
Ġsp erm
f ront
ĠA z
Ġ %
Ġin adequ
ĠAm endment
Ġle ak
P DF
Ġthr ive
ĠC it
Ġg ains
Ġeth ics
ĠEx ec
op athy
Ġver se
ĠB alt
Ġen emies
Ġh ang
Ġ4 7
Ġorgan isation
Ġgold en
Ġc ensus
ĠT ree
Ġcounter part
Ġgener ating
act ic
fl ies
up iter
Ġsole ly
in ition
ph ones
Ġshould n
Ġdom inated
Ġtim ing
H is
Ġ Ù
Ġre plic
Ġdistinct ive
Ġaccept ance
20 17
ĠMon th
l ings
Ġper ipher
Ġimper ial
ĠC ond
ĠH u
Ġmyst ery
r un
ĠP ath
ar ter
Sp ec
Ġh orn
Ġcount ies
Ġdrain age
b et
ĠInd ividual
h ard
ĠH ay
B oth
Ġdin ner
Ġorigin ated
ĠM P
Ġsw allow
Ġsens es
Î ±
Ġapp e
do i
Ġbr id
W ell
Ġph on
, '
are r
ĠN E
Ġsaf er
Ġinteg ral
ĠLew is
Ġop ens
Ġorgan isations
Ġthor ough
Ġrefer ring
Ġfert ility
Ġextraord inary
Ġrob ots
Ġvom iting
U M
ĠMat hemat
ĠN umber
Ġhazard ous
ĠA N
ĠD uke
av irus
Ġfil ters
20 14
Ġre ar
Ġalumin um
Ġh ip
Ġsp elling
d on
Ġint ensive
Ġtour ism
ge red
Ġsur re
Ġw ages
or ney
as al
tern oon
Ġcorrel ation
P D
he astern
Ġexec uted
Ġrock et
at re
erg arten
ĠCh all
enti eth
A g
Ġworkshe ets
ĠA IDS
vel t
ne g
Ġpack aging
ount ered
ĠF low
Ġmeth ane
Ġfro zen
Ġdoll ar
ĠS ac
Ġrest ored
Ġreprodu ction
ĠScott ish
Ġwa velength
Ġres erve
Ġemer ge
Ġrot ation
Ġnecess ity
go vern
ĠP ap
IS T
Ġm i
Ġm art
ĠW atch
Ġh ills
ĠP ython
Ġbow el
r ange
ivers ary
Ġcontribut es
Ġweap on
Ġuncertain ty
i ors
Ġc ope
Ġcons ensus
ĠS her
Ġinequ ality
ik es
Ġde leg
Ġexec ution
o il
own ers
d imensional
Ġsevere ly
Ġn urse
Ġadvert ising
Ġexclus ively
Ġassum ptions
Ġemp ower
Ġpolit icians
g rim
Ġterm in
Ġinvestig ated
Ġd ow
ĠR ose
Ġloc ally
ĠInt ellig
ĠUn it
Ġsk ull
ĠMove ment
as ures
Ġins u
h r
Ġres on
Ġqu ote
Ġrul ing
e z
ess ional
Ġarrange ment
Ġtele phone
Ġsusp ected
v als
ick ed
Ġdet erior
Ġtrans f
Ġlar vae
ĠZ h
G S
st ration
onom ous
ol it
Ġdeterm ination
on ent
20 15
Ġattract ed
le m
ĠLin ux
Ġbul k
ĠBudd hist
ĠT alk
ow a
Ġdisapp ear
end ers
Ġvol umes
Ġinflamm atory
x ic
Ġvac uum
ĠM and
Ġstop s
Ġy ard
Ġp ap
Ġse asons
Ġdang ers
f ather
Ġexp end
Ġmat rix
Ġover weight
Ġenc ountered
Ġlo ans
Ġcateg or
su pp
f are
ĠO il
! )
n ected
Ġincred ible
â Ħ
Ġ18 00
Ġinflu ential
ogn ition
Ġtrans actions
ry ing
Ġcomm ands
Ġdiscover ies
ĠE vent
atur day
Ġnewsp apers
om on
Ġir re
e av
Ġpres um
Ġclass rooms
Ġprec ision
ra red
Ġprotect s
Ġext rem
Ġcr ust
Ġth inks
Ġcond em
ĠD un
h uman
ef its
Ġfrequ encies
Ġpers pectives
Ġvot ing
ĠStat istics
ose velt
ĠC ase
ĠÂ ·
Ġsuppl ied
ĠK im
Ġv on
Ġpay ments
Ġstorm s
Ġem ission
Ġco inc
Ġacknow ledge
Ġan swered
Ġspec imens
Ġto ys
ĠS leep
Ġseg ment
Ġrepeated ly
s ome
Â ©
Ġen comp
Ġexp enses
Ġl ying
ĠC old
. -
Ġcirc les
J an
ĠKen nedy
Ġassum ption
Ġrecy cled
at tle
f irst
Ġterrit ories
W orld
ĠD u
y o
Ġcare g
or ient
ĠY ears
Ġb in
Ġapplic able
n on
Ġin ver
ĠSy ria
ĠLe on
ĠAD HD
Ġdiscuss ing
Ġstim ulate
Ġtub es
Ġdegrad ation
ĠG iven
Ġign ore
g ood
Ġdiagn ose
ĠAn ne
och ond
ĠU lt
con f
Ġen abling
Ġanal og
on ing
Ġcas ual
Ġepid emic
re ll
Ġrac ism
Ġreal istic
ly n
Ġbr ill
Ġtext ure
em ed
Ġge ographic
Scient ists
are st
er ness
ĠP A
Ġmark ers
ĠTrans port
Ġmagn esium
Pro f
Ġpick ed
Ġthick ness
Ġn ick
Ġeconom ies
Ġt ired
ra c
â Ĥ¬
Ġpow ered
ĠGu id
Ġb ands
ik i
ĠBe havior
ĠG h
Ġf illing
ĠH as
Ġbu gs
Ġdepart ments
co in
Ġphr ases
ig ration
Ġdecl ined
is ible
Ġg au
Ġy ields
ĠN S
ĠPsych ology
Ġle ct
Ġsc al
Ġmult ipl
Ġincred ibly
ĠUt ah
Ġconsider ably
ĠR ab
ĠRepublic an
Ġscen es
ĠGra de
Ġgen uine
ĠPr ime
k o
Ġign ored
Ġincor rect
ES T
ĠT aylor
Ġcoord ination
ĠS a
Ġan ch
Ġillust rate
al og
Ġv iable
art s
as a
Ġl ith
Ġincl usion
ig ma
Ġgen etically
ĠSym ptoms
Ġch ip
ĠEth iop
Ġm ud
Ġpreval ent
Ġad mitted
Ġchap ters
ĠIndones ia
ic ting
Ġground water
ĠT ibet
Ġfif ty
ĠW HO
Ġins pect
Ġmet ap
Ġfles h
H z
Ġbl acks
Ġmarg inal
ĠAv ailable
ĠL t
Ġmom ents
Ġcook ed
ĠL iving
Ġqu ad
se ud
Ġv ow
Ġfol k
Ġbo ards
ĠEss ay
Th ough
osa urs
Ġfac ial
Ġinvest ors
Ġrelie ve
k h
ĠC hemical
Ġm a
Ġan ten
Ġ4 9
st ud
Ġhe pat
Ġab road
Ġrecept ors
Ġwh ilst
Ġk ings
ĠY ellow
Ġpath ogens
! "
ru p
ĠHis pan
Ġcomp at
ut y
iv als
Ġst rand
ĠIm per
Ġprotocol s
ĠQ uality
ĠM ental
Ġph ases
Ġorgan ize
Ġport ions
Ġf oster
Ġep it
T ake
Ġdeterm ines
Ġmount ed
ĠUnder standing
ĠG ir
Ġsh ipping
Ã³ n
Ġconvers ations
ont o
200 3
Ġfoot ball
ĠC ape
sc reen
Ġeduc ate
Ġinstitution al
ĠThe rapy
il ly
Ġm arch
m ic
Ġdam aging
h ops
ĠBel g
Ġst iff
Ġimp ression
Ġcompass ion
u ilt
R L
Ġpres chool
ĠS ix
Ġch ains
Ġdism iss
Ġcr ash
Ġ ic
Ġsim ulation
ĠBr idge
G od
Ġm akers
ĠT en
Ġwealth y
ĠR og
ĠDep ression
ĠBar b
Ġrevolution ary
Ġ9 9
ĠOb ject
B ased
Ġp itch
Ġg ums
og l
ĠSp e
ĠSpec ies
Ġrep ublic
Ġw ax
Ġfor b
Ġstress ed
Ġye ast
Ġbeh alf
ĠTreat y
E l
h our
p ur
Ġde hyd
Ġz inc
ĠR ay
Ġcomb ust
Ġpu pp
u z
i ating
oth s
ol ly
Ġwh ales
Ġprec ious
is hers
Ġch a
Ġpip es
Ġinher ited
an th
Ġsh ield
ĠMount ains
Ġlic ensed
Ġover se
ĠS ep
Ġpass ive
Ġhead aches
ĠCon c
Ġsee ks
osp here
m akers
Ġextra ction
ĠM oh
ĠJe an
Ġdig it
os ity
B el
ĠP ear
Ġat om
Ġcomp act
Ġantibiot ic
Ġal ien
ĠM os
ĠF lu
ĠI ron
ĠR ub
Ġme ets
Ġexp ense
Ġlim iting
ĠÂ °
Ġalph abet
Ġinterpre ted
io let
Ġbiom ass
ob s
Ġb or
Ġparticip ated
ĠAr thur
form ance
Ġexpl aining
Ġheart s
ĠG rant
n atural
ruct ive
ole cular
Ġaccess ed
vious ly
ĠFrank lin
eg u
Ġar bit
Ġw ra
Ġso ap
ord an
ak i
Ġco ins
Ġca ffe
op t
ac ular
Ġpr ide
im edia
ĠUr ban
anc ial
Ġconserv ative
iff erent
au g
ause a
Ġgalax y
Ġcat ast
Ġ à¤
Ġdisp osal
Ġaqu atic
Ġfest ival
Ġris es
Ġaf ternoon
Ġsy ll
oc hemical
Ġdec ent
Ġpath s
Ġpul led
el and
ĠâĢ Ŀ
20 16
M ake
Ġprogram mes
Ġmagn et
ann a
Ġpath way
Ġcur ious
war f
Ġpo ems
Ġox ide
Ġfl ed
Ġdim ension
ĠF ram
Ġapp le
Ġtim ber
Ġk in
Ġdesign ers
Ġsk et
Ġbat tles
ĠMar x
Ġb eds
the ning
tt es
st ead
Ġod d
Ġmain stream
Ġindic ator
Ġpro state
Ġsubstit ute
Ġbelong ing
Ġpredom inant
n i
ĠCh ap
Ġview ing
ĠPhilipp ines
Ġfle et
Ġgu ides
Ġdec omp
ĠLar ge
ard ing
ĠRo osevelt
Ġmut ual
Ġdescript ions
Ġt ang
Ġsk illed
Ġmanufact ured
ĠM uh
Ġfurn iture
or se
ĠN i
ĠJ ane
ĠS earch
Ġphys iological
feed ing
il ty
ĠM ission
Ġgast ro
el d
oca ust
ul ous
Ġsatell ites
Ġmut ation
Ġ5 2
Ġst uck
Ġattempt ing
o en
Ġgraph ic
ĠF OR
Ġ5 1
M D
ĠW rite
Ġsurve illance
e ous
Ġtun nel
Ù Ĩ
ĠPol ish
Ġconclud e
Ġshort ly
p m
Ġcolle ges
ĠJ upiter
ose x
ĠF ive
A ug
ĠSt one
ĠC ensus
s l
Ġs au
Ġun ity
Ġmet res
Ġunn ecessary
ĠL ower
Ġdis put
ĠEn ter
ĠCont act
Ġy oga
Ġspecial ists
re strial
Ġs orts
Ġg land
Ġthr one
Ġappet ite
Ġqu e
ag ine
ĠEduc ational
ER S
Ġcat aly
Ġrec overed
Ġcost ly
Ġabs ent
reat ing
Ġout doors
Ġ @
et ry
ĠR us
ĠE le
Ġninet eenth
Ġl apt
ĠRep resent
Ġt elescope
Ġflow ing
ĠCreat ive
Ġdis par
g on
ĠB or
Ġ198 3
Ġpro sec
Ġrelig ions
F L
ir s
let ter
Ġarchae ological
Ġpla que
ot yp
Ġarchitect ural
Ġresc ue
ĠB ow
Ġa ids
Ġfar mer
wh ite
ĠF ord
ke ys
Ġtravel ed
Ġr ic
w hen
c m
ĠL ind
Ġsmall est
Ġsing ing
Ġemp ir
âĦ ¢
Ġp ec
Ġprop os
ra ge
Ġres idence
ĠDou gl
N ext
AR T
re ts
Ġdiscuss es
Ġglob ally
Ġunem ployment
ab etic
Ġposs ession
Ġent ers
Ġrespect ive
Ġepid em
Ġceremon y
Ġphilosoph ical
ĠE s
ipl inary
Ġdefe ated
p ost
Ġclust ers
he ld
O b
Ġtransp arent
Ġfe as
In tern
Ġindu ced
Ġign or
Ġob sc
ĠBul gar
Ġpur su
less ly
or ie
ĠIn iti
ew ater
ES S
Ġens ures
O ct
Ġde als
200 1
Ġperson ally
lar ation
ĠB ah
in stein
Ġher bs
Ġsn ake
Ġfulf ill
Ġdis hes
Ġsl ide
ĠS ens
Ġcompens ation
ol as
Ġcheck ing
ĠIndust rial
Th ose
app y
ĠBuddh ism
Ġg aining
arm a
isp here
Ġst ack
ĠG er
Ġem peror
im eter
Ġcheck ed
Ġpal m
Ġsurviv ors
Ġdis asters
ĠDie go
Ġvolunte er
Ġingred ient
Ġconj unction
Ġshop ping
t wo
Ġagg reg
Ġal b
ĠG reg
ĠSo ft
Ġsp ell
Ġpromot ed
w ill
Ġexam ining
Ġgr ants
Ġ198 2
Ġneighb ors
au nd
oth y
Ġcompar able
ograp her
Ġcross ing
Ġcampaign s
role um
ĠV ers
ĠE dition
Ch ar
inflamm atory
Ġbel t
Ġ197 5
Ġext ends
Ġwar mer
Ġdocument ation
ĠTurk ish
O rig
um ing
ĠF all
Ġut er
Ġarrest ed
Ġprolong ed
ed uc
Ġprop he
ĠFred er
Ġautom atic
ĠO pt
Ġfra ud
F S
g iving
aw ay
ĠM aking
og ene
Ġfollow ers
ĠDef ense
Ġpractition ers
ast ing
ile y
ail ing
Ġbas ics
Ġfail s
b ral
ĠI b
Ġdevast ating
Ġfl ies
Ġche aper
ĠPer iod
osy nt
ĠC ra
Ġcollabor ative
Ġsh adow
Ġang ry
last name
Ġinit iated
EC T
int on
Ġd ictionary
ru ce
Ġcons p
Ġgre y
Ġinterview s
Ù Ĳ
iot ics
Ġcon ce
Ġv apor
P res
il ton
ĠC ro
Ġh ind
Ġann ounce
act ivity
Ġvolcan ic
ĠP arents
Ġmur d
r ass
Ġres ur
Ġden ied
Ġcommand er
ĠKnow ledge
Ġbet a
Ġgra ve
Ġvo ices
Ġbelong s
Ġpharm ac
ĠF A
Ġgalax ies
F A
ou b
Ġfe e
Ġ5 6
Ġepis ode
es see
ĠAr k
Ġang les
erv es
Ġhistor ically
Ġprecip itation
Ġre n
Ġad ul
oles cent
in ced
Ġob ese
it ored
ĠP a
Ġgif ts
ĠN ap
Ġcol ours
ĠR od
Ġacc used
Ġmov ies
oph ag
ĠCapt ain
ĠB ody
Ġend eav
In c
ĠC e
Ġdigest ion
Ġnurs es
Ġar teries
Ġhead ed
sp e
v asive
il ateral
Ġco in
ĠA ges
we et
ĠAr ist
l ink
app ropriate
Ġb rick
ĠB apt
Ġmotiv ated
Ġeffic acy
ĠMill er
ethe less
A v
Ġd ign
ĠM u
ris k
Ġbas ket
ĠKen ya
200 2
Ġmethod ology
ĠP as
ĠO R
Ġelect rom
al in
Ġmen u
Ġassign ments
Ġreg ulated
ĠB ad
g ram
Ġstrength s
V D
p o
Ġblock chain
f ol
u ct
ĠO pp
Ġpollut ants
Ġsacr ific
Ġtremend ous
Ġb old
ation ally
Ġad mit
Ġm im
ĠS ite
Ġser vers
best os
Ġgu ided
Ġenterpr ise
ĠC ut
Cop yright
ac cess
ier ce
s un
Ġterm inal
Ġmean ings
ĠHT ML
Ġfor ty
ab s
ĠK ong
is er
Ġimp osed
Ġconstra ints
Ġth rown
Ġover t
ĠArch ives
Sec ond
ĠCult ural
ig s
Ġse arc
Ġ7 2
Ġoper ators
W S
ĠM it
Ġbreak fast
mon ary
Ġexpl os
Ġaff il
ĠM ong
Ġver bal
Ġint ens
Ġ5 4
ĠMem orial
Ġmach inery
ĠObs erv
O U
Ġint u
Ġneed le
Ġimm ense
ĠZ e
ĠArch itect
am ily
ĠK at
ĠMar g
Ġann iversary
Ġtalk ed
Ġadv ised
Ġpat ch
Ġent ity
els on
ĠEv olution
Ġcon vention
ĠCon stant
Ġb es
Ġnucle us
ra de
Ġprom ised
ĠElect ric
f ive
Ġact ors
Ġcann ab
g rad
ĠD ub
ĠCorpor ation
D id
Ġp ix
Ġp ushing
ab ama
Ġmembers hip
C urrent
ant ine
ĠAfghan istan
ĠH ong
ĠCh ile
Ġpract iced
Ġpoison ing
ĠH unt
w all
Ġrail road
ĠD ur
lt ry
ro ach
Ġequ ity
Ġconsist ed
uls es
ĠR and
ath ic
ropol itan
Su pp
or b
Ġsym met
em pl
ar se
ur red
ĠP oll
ĠTeac her
Ġmag ic
Ġ Ï
ĠComm and
Hist ory
Ġdream s
ĠAcc ount
ĠT ri
Ġrespond ed
Ġpoly mer
Ġveter in
Ġ icon
emb ered
sh ore
Ġregist ration
m outh
Ġ ions
M us
Ġar tery
Ġim bal
Ġbe ef
form ing
ĠCre ate
M E
Ġom ega
Ġlegisl ative
Ġasp ir
Ġab dominal
ĠGold en
he res
ĠR aj
Ġneigh bour
D isc
Ġab d
Ġbo ats
ĠEn c
6 00
Ġb om
Ġn ode
Ġrefrig er
Ġbott les
Ġbl ame
ic ut
ul ative
ĠP rize
E urope
Ġl ig
ib li
Ġprof its
Ġconstit u
Ġsched uled
E m
Ġh ate
Ġfear s
Ġinf l
A V
inc ial
s ens
ĠP resent
ĠCar bon
ĠT ax
ĠB it
Ġast ronaut
c r
Ġv ocal
Ġart ic
Ġhead ache
P P
Ġto mb
ĠT uesday
Ġanaly zing
Ġg ross
Ġhost s
Ġacqu isition
Ġgovern ance
Ġspeak s
ass ment
Ġconv inced
P ublic
Ġch ips
Ġpass engers
Ġquant itative
Ġlaw n
Ġb ases
ĠT y
Ġst atic
Ġper sec
f u
Ġb ay
il ib
ĠPers ian
ĠN at
Ġd irt
ĠL ic
ĠO m
Th us
Ġcy t
sw er
Ġ196 8
ĠSer ies
á ĥ
ĠB an
Ġkid neys
Ġinter rupt
ĠHawai i
ac re
Ġpublic ly
ik h
Ġste ep
Ġwin ning
ĠR out
Ġte ch
ĠTer rit
Ġsubstant ially
ĠPhil ip
ĠW in
ĠConfed erate
Ġcomb inations
Ġbe er
Ġhe ated
ĠN ort
ang ular
Ġinter vals
Ġclos est
E V
M on
Ġman kind
ĠL ove
y ers
Ġge ographical
ĠCommun ication
ĠS ex
Ġalle ged
ĠCl ark
h ave
ar b
Ġread s
Ġdraw ings
organ isms
Ġcar p
Ġra ises
Ġcount ing
Ġb ars
ĠTh ursday
Ġintrodu cing
Ġd ual
Ġde ple
Ġmon itored
as is
Ġdiam ond
Ġc od
Ġinc idents
Ġphot ography
Ġfung i
ĠTe am
Ġcorpor ations
Ġproject ed
ĠExec utive
Ġind ication
Ġconcept ual
am ents
for ward
ĠG ro
Ġsec ular
Ġpress ures
Ġupd ates
Ġins ulation
ote chnology
P at
Ġwh ites
ang ers
Ġdist ress
ĠFre edom
ĠT ai
Ġcert ified
Ġloc ate
Ġconsider ations
ĠPat ients
j amin
ĠAr gent
Ġdo zen
Ġ5 3
ĠDec laration
Ġ198 1
ĠL G
Ġcust oms
ĠLouis iana
Im age
ĠP R
Ġtri ps
Ġent ities
Ġrepl acing
Ġsold ier
ĠAff airs
Ġdatab ases
ĠD al
ok es
Ġfound ing
us hes
ĠD at
Ġg ang
Ġcaffe ine
op ter
Ġdef ining
Ġstruct ured
Ġsurv iving
in ence
ke ley
Ġb ike
Ġ197 3
p y
ĠH ad
Ġwere n
Ġtit les
ĠU C
In stit
ĠI C
m atic
Ñ Ĥ
ĠO d
ĠF isher
ĠTr ump
Ġdat as
ap ore
Ġland f
ĠTenn essee
Ġcontract s
Ġ5 7
v ance
Ġhypert ension
Ġtem pt
port s
Ġinher it
Ġpl ug
com fort
Ġt ender
Ġseem ingly
Ġpur ple
Ġdark ness
Ġpharm aceutical
Ġgeomet ry
ĠAl bert
Ġpoll en
ĠPolit ical
est inal
pl us
Ġfound ations
Ġ197 2
Ġsatisfact ion
ch ild
Ġc her
ĠP il
ĠPl ants
k ay
Ġ194 4
Ġrecept or
d am
Ġcount s
ig ion
ĠKent ucky
Ġcor ruption
Ġchalleng ed
ĠCh am
Ġinteg rate
Ġrel ates
im b
T HE
h is
Ġcirc uits
ĠG P
Ġlack ing
Ġmiss ed
b acks
ĠP ay
ĠF em
Ġch im
ĠMon itor
ĠAust ria
ĠN ich
ĠHealth y
av ed
Ġr ou
he el
Ġs ore
ur ally
ĠAdv anced
D ec
n ut
ues e
gra duate
ĠP ow
ĠV o
ĠInd ependence
Ġb ore
ĠC ass
ex ts
Ġsw ord
Ġstay ing
Ġconstit ute
ĠCom b
ĠGree ks
ol ia
Ġoff spring
Ġpurch asing
ĠE M
Ġfe at
n ames
Ġimport ed
Ġret ire
ena issance
Ġsp ite
ĠV ill
Ġsoc ially
Ġdis in
Ġcrow d
Ġch amp
Ġrad ar
Ġfoot print
Ġelig ible
l ades
r int
th s
Ġaccum ulation
Ġsat urated
OR D
Ġcav ity
m ill
Ä «
Ġin k
Ġemer gence
Ġle an
Ġchem otherapy
Ġin quiry
ri ends
Ġag enda
Å į
ĠM aterials
Ġbrill iant
v ity
ĠR a
Ġdirect ory
t est
Ġbuild s
ias is
Ġcare ers
v o
Ġtherap ist
f at
ĠSh ow
Ġcompet e
indu ced
Ġhighlight ed
Ġpromot ion
Ġlabel ed
ĠPub lishing
T C
te in
ĠT ok
ĠMil itary
Ġpro claim
i ens
Ġneurolog ical
Ġinadequ ate
is a
ien cies
Ġpresident ial
lic t
Ġcar cin
ĠWed nesday
ven ue
kl ah
ĠB oy
ib ration
Ġmar gin
Ġl enses
Ġint act
Ġalt ogether
forest ation
ĠRe qu
Ġ194 1
Ġteach ings
ĠE val
Bl ack
Ġwound ed
Ġt ear
Ġcomb ining
w ind
ar p
od ge
ĠBas ic
Ġprem ature
Ġinter val
Ġed ited
Ġless er
ĠMark et
Ġcomm emor
O V
ĠB ird
es y
Ġter rible
Wh ich
Ġautom ated
Ñ Ģ
ĠP it
Ġbreat he
Ġflo ating
Ġwor ried
ĠIndian a
Ġcomp ression
Ġpredict ions
Ġpeace ful
Ġcomple ting
sy stem
Ġpref erence
ĠProp het
Ġsp here
sc ill
oc occ
lu x
ĠB ob
Ġcor ros
Ġcert ification
g ic
ĠA ra
Ġtr ies
we ed
Ġrele ases
ĠD or
Ġflu ctu
Ġsymb olic
pl ane
or ical
Ġworld s
Ġmicrob es
Ġtra ged
Ġvirt ue
Ġc er
Ġrail way
Ġbut t
ed ge
Ġbrief ly
we alth
Ġresil ience
ĠAb original
P ar
Ġext ending
Ph oto
ĠP V
ĠG il
c at
Ġd rew
vel ation
ious ly
Ġobserv ing
Ġradio active
ĠSe lect
ĠEar l
ĠUs ually
ors hip
Ġmel an
Ġas set
ĠP H
ĠN ig
Ġun healthy
Ġrequ ests
Ġ196 9
ĠProt ocol
Ġpries ts
Ġrel iability
Ġdiscipl ines
Ġev ac
Ġstim ulation
Ġantioxid ants
Ġvot es
Ġuncle ar
Ġdemon stration
ĠStan ford
ĠL ady
Ġillust rations
Ġnav igation
D is
Ġpract icing
ol is
h as
ug ar
ĠNob el
itzer land
Ð ½
Ġca ution
Ġtrig gers
ĠC ook
ffic iency
Ġb apt
on duct
Ġfrag ments
u ana
os ures
ĠAl abama
Ġpan ic
Ġcontrovers y
Ġtest im
Ġundert aken
Ġex ert
Ġdecre asing
Ġjour nals
Ġwas t
Ġ197 1
Ġcross ed
ĠH ell
Ġcomp ress
iet al
ĠSc he
Ġp ound
Ġra ces
ĠImper ial
ĠS D
Ġdecl ar
em an
Ġtw entieth
Ġsug ars
J une
ist ence
Ġcar ing
Ġrow s
Ġmosquit o
um a
Ġup set
rou ps
Ġm ines
ĠB all
Ġgl ory
Ġconsult ation
Ġartif acts
Ġbas in
Ġslow er
Ġenthus i
ĠS aturday
augh ters
Ġvolunt ary
( )
as ia
Ġlegit imate
ad ian
ĠV eter
Ġpig s
ĠRes ource
he at
Ġc oding
Ġsh o
Ġ197 8
Eng lish
Ġ194 2
ĠLaw rence
Ġch at
Ġprov inces
Ġd ated
Ġmon aster
Ġ6 6
u ate
on ge
un cture
iff s
ody nam
Ġtrib al
p ers
ĠIsrael i
ic iency
ather ine
Ġcont exts
Ġbit ter
Ġelimin ated
ol ith
ĠF acts
iz ational
Ġgraph ics
Ġm ul
Ġsl ope
Ġoper ator
D ata
z ens
Ġsu ited
Ġforg otten
ĠLiter ature
f our
ht m
oven ant
ĠCast le
Ġg lands
Ġlun ar
Ġimpr ison
Ġagree ments
p erson
Ġinvestig ations
Ġinterf ere
Ġfe es
Ġassess ing
klah oma
ĠL u
Ġexam s
Ġenvironment ally
Ġconcent rate
he nd
Ġextract ed
Ġnorm s
ĠS C
Ġnum b
Ġread ings
ze ch
Ġexclus ive
âĢ¦ .
C ent
m us
ĠB ot
ĠMuh ammad
Ġimag ery
Ġexplan ations
Ġmod ify
Ġ194 8
ĠFore ign
Ġr het
Ġdepend ence
ĠM agn
ĠBro ok
Ġl y
Ġcont ra
ar ms
Ġlo ads
Ġseg ments
Ġm aternal
Ġsure ly
ĠS ustainable
Ġge ography
ĠC redit
Ġcast le
Ġde emed
In f
Ġsimilar ly
ĠB esides
ĠC hen
am ous
Ġ197 6
o z
ĠC ertain
Ġres ident
Ġ196 7
Ġnob le
Ġd well
Ġt ies
ol lo
ill ery
Ġsym p
Ġstri kes
W ork
b en
Ġwell s
M M
ol utions
Ġaff irm
Ġvot ers
Ġdes irable
h ot
Ġt ale
Ġinput s
S ometimes
Ġcomprehens ion
Ġreh abilitation
F C
ur b
D i
Ġpl astics
Ġl ighter
ast ed
ĠHistor ic
c ription
vers ion
w riting
ĠTor onto
Ġext inct
ĠSc i
pt on
H er
M arch
ĠS ant
Ġinform al
Ġperm its
Ġfirst name
Ġalt itude
Ġhepat itis
ĠK ings
Ġdys function
Ġreb ell
Am ong
ced ented
Ġpen cil
Ġwithdraw al
Ġl act
Ġtra p
ov a
Ġ7 00
isc al
Ġcl osing
Ġworks hops
ĠSy ndrome
et on
Ġinsu fficient
Ġexpl osion
ĠHol ocaust
ĠTor ah
ad ic
let al
ad ays
Ġrel ies
ĠCol lection
ĠRel ations
ĠG ive
Ġelev ation
Ġf art
Ġmed ian
Sc ience
Ġind ivid
Ġdescend ants
Ġp iano
ĠC ert
Ġintest inal
Ġth umb
ĠG ames
Ġreform s
Ġco ating
ĠEffect s
Ġtack le
Ġdep icted
Ġpresent ing
igh ters
Ġfund ament
Ġb icy
Ġlater al
Ġrein force
Ġentertain ment
Ġatt ending
Ġstat ue
ĠCons erv
Ġintermedi ate
op ing
Ġshif ts
ash ing
Ġsens ation
C or
Ñ ģ
Ġstay ed
Ġad min
In ter
amm a
Ġvari ability
Ġdial ect
ĠVis ual
F eb
ĠL ie
Ġconf ined
Ġfresh water
ĠR enaissance
Ġfre ed
Ġjurisd iction
Ġin ability
Ġdiv isions
AN D
Ġn ausea
Ġmen stru
Ġc ro
u ly
Ġpul se
t r
u i
ect or
Ġsepar ately
f il
Ġret ained
Ġcalc ulation
B L
Ġles ions
o ard
ow ed
Ġed iting
Ġadvoc ates
ĠDe ep
Ġat e
Ġrem embered
Ġtravel s
Ġload ed
ann el
Ġharm ony
ĠCount ry
Ġdiv or
im ity
Ġm ast
Ġsystem ic
Ġadvoc ate
ĠIniti ative
Ġimpact ed
Ġcurrent s
Ġwet lands
ĠJ ordan
ĠSt aff
ot hel
ult ural
Ġbank ing
ĠCop yright
v as
ĠH ind
Ġtra ins
ĠIntellig ence
Ġwe eds
T O
Ġgu ilty
Ġscat tered
al ine
Ġban ned
Ġobst acles
Ġmel ting
ĠB ox
Ġrul er
S ur
Ġg er
Ġcar rier
ĠH al
Ġse ats
Ġnot ably
E X
ed ed
ĠA qu
u y
Ġcontin ually
U D
Ġb inary
Ġ19 18
imm une
ĠB road
Ġwar rant
ĠArch ae
ras ound
Ear ly
M at
ĠDem ocr
Ġstri p
Lear ning
S ch
lement ary
Ġol ive
k m
ra ined
Ġs or
Ch apter
Ġaut umn
Ġl ining
Ġdel ight
Ġevalu ating
j an
arm ing
Ġill um
ĠRad io
Ġoccas ions
ĠS i
ĠT al
ĠS ri
Ġtru ck
Ġunp re
Ġmod ules
Ġsn akes
Ġt et
Ġle ts
eng u
en ergy
Ġcryst al
Ġmod est
Ġcompr ised
ĠPalest ine
ĠR ap
Ġdisp ute
b ird
ĠB BC
Ġrec ru
aren cy
ĠB rad
K ey
Ġnegative ly
S ign
Ġcultiv ation
ĠIm age
Ġbow l
Ġneg lect
Ġcru el
m ind
I O
Ġw ounds
Ġm elt
th ird
hem atic
t ics
Ġcreat ure
Ġlandsc apes
ilib rium
Ġmix ing
Ġinterf erence
ĠAd ams
Ġal leg
Ġsp ont
Ġstandard ized
K now
ag u
Ġpe as
Ġoper ates
Ġbreak down
Ġpron ounced
Ġcon sec
od s
Ġbill ions
p res
in us
Ġr ating
ĠG ame
Ġgener ator
Ġsc rew
Ġinsp ire
Ġunc ons
m ir
Ġw ires
t ically
Ġb ats
Ġ20 30
ĠV ery
Ġgr at
Ġstrict ly
G A
Ġimp aired
Ġfunction ality
ar ity
ĠUS DA
ĠPart icip
r ish
Ġtrig gered
b one
Ġpoint ing
Ġcrit ics
Ġl uck
Ġexpl ores
S everal
Ġpra ise
Ġc ups
ĠU pper
Ġ196 5
Ġexplicit ly
F e
G ood
c ount
ĠAl f
Ġce ment
Ġdies el
uc ks
Ġdest ructive
pro cess
Ġbrid ges
Ġt uber
pro of
ĠD og
Ġpref erences
Ġreal m
Ġsurround ings
ĠVir t
ĠI owa
ĠG PS
Ġ1 30
ĠN C
int estinal
Ġund ers
B et
ĠSw itzerland
ĠC ru
Ġgener ates
ĠMal ays
Ġc in
eren n
Ġfung us
ĠAn aly
ĠMar ia
ĠW y
ĠE aster
Ġnew born
Ġw ool
Ġsm ok
N T
reg n
ĠConnect icut
Ġo zone
Ġ197 4
omet ric
Ġqu ot
Ġout standing
N et
ĠP y
Ġelimin ating
Ġaccommod ate
Ġcertific ate
Ġblock ed
Ġsil ent
ĠProtest ant
Ġgall ons
ĠP ra
Ġ1 10
Ġse as
Ġtoile t
ĠF le
Ġoff set
Ġbur ial
ĠStr ateg
ĠJ oh
ĠOr thodox
ĠP ediatric
Ġsynt hes
Ġec ology
ĠÂ »
Ġs ink
Ġto ll
ul ent
Ġsc reens
ĠSum mer
ĠPhilos ophy
Ġnegot iations
Ġtransport ed
ĠAnt on
ĠBang lades
Ġident ifies
Ġwaters hed
ot ive
ru bs
Ġfram es
ĠS M
ĠM aine
ĠW as
Ġpositive ly
d em
Ġf its
ar on
Ġsaf egu
) )
ogen esis
Ġsimilar ities
Ġdelay ed
Ġgro cer
F ood
h al
all ing
Ġrec ur
Ġlast ed
ĠGen esis
im ination
D es
Ġdes per
Ġche cks
Ġunpre cedented
Ġdis se
ĠYou th
ĠO klahoma
Ġactiv ists
Ġmechan ics
Ġinsp ection
un es
ĠSwed ish
Ġscar ce
Ġ ||
Ġc ows
ĠM IT
Ġlong est
Ġmod es
enn is
Ġextens ively
Ġunder m
ĠNew ton
unc iation
ix ed
Ġmark er
Ġsome how
Ġind o
ock ing
ĠCom mer
ar an
am bo
H el
is l
Ġplace ment
ĠPortug uese
it ives
Ġto dd
Ġmac ro
ĠPark inson
D own
Ġc ous
ĠBy z
Ġjud ges
ĠAgricult ural
ĠSing apore
ĠAl b
ĠNor way
O UR
Ġg el
Ġstr ings
Ġleg ally
Ġtit led
Ġmit ochond
ĠMathemat ics
ell ar
Ġincl usive
Ġattach ment
mar ks
P E
Ġcoll aps
Ġimpair ment
Ġst ir
ert o
Ġs ends
Ġf ired
Che ck
Y et
th reat
Ġantioxid ant
Ġs ake
p in
ĠTh ings
Ġ5 8
ĠVen us
ogl ob
G reen
id th
com a
Ġdisapp eared
. (
est eem
ĠH ou
Ġactiv ation
are ttes
Ġcons olid
ĠAr men
res istant
Ġlik es
b es
ad i
ĠP ersonal
re as
Ġth ou
Ġcombust ion
ch i
Ġref ined
Ġ196 4
Ġrab b
P C
ir k
Ġachieve ments
Ġfoss ils
Ġl ux
ĠR ain
Ġqu een
ys ics
ĠBen jamin
oc ene
Ġshell s
Ġcerv ical
P M
ĠI L
w ich
ĠP ast
ĠD ak
l ies
Ġj et
ag a
V is
Ġnav al
d ec
ĠH ans
ĠAll iance
s im
Ġv oy
Ġtoxic ity
Ġthreat ening
A pril
op or
Ġpat ches
b led
Ġpass ages
Ġintest ine
Ġprosper ity
Ġjo ining
B en
T ube
Ġwork force
Ġactiv ated
Ġ197 7
Ġju ven
lud e
Ġcons iders
ĠG i
nov ation
Ġor th
ĠBe ach
Ġunc omm
Ġimpl ant
eth yl
ĠPM ID
F ollowing
Ġplan es
Ġinsert ed
Ġcou pled
st able
ĠReg ional
Ġconcept ion
A ct
ros is
ocy tes
Ġrecip e
Ġacknowled ged
Ġb ip
Ġm ant
St art
Ġsc rap
pro t
ĠCap ital
hes ia
Ġdam ages
e u
m other
ĠC hemistry
Ġ193 9
ĠSim on
Ù Ĵ
am el
Ġv ic
Ġc ock
ĠS ound
ĠG as
az a
ĠAl ways
Ġ9 7
Ġmyth s
ĠB ishop
ĠE at
ot ional
ĠC amb
est ab
Ġparas ites
Ġwat ched
Ġpou ltry
Ġpack ed
Ġbr ut
Ġr anks
Ġinf o
Ġpure ly
ĠDep ending
Ġcra fts
Ġpy ram
Ġun su
Ġchar ging
Comm on
Ġhung ry
Ġbeh ave
Ġwar ned
it ational
Ġf ool
Ġrev ised
Ġhop ed
ĠP erson
ĠB egin
ĠPlan ning
art icles
b uilding
k g
Ġmunicip al
S E
Ġcitizens hip
Ġb on
Ġexplo itation
Ġinst inct
rox imately
Ġindivid ually
ut ri
ĠS el
Ġinv isible
p ub
ier ra
ĠCol lect
ĠSat urn
ĠW olf
Ġco h
Se pt
ĠPrim ary
Ġmaint ains
Ġglass es
ĠDise ases
ĠE D
Ġsil icon
cell ular
Ġgra b
ĠSk ills
l ied
es ar
ĠG ospel
Ġcompet ing
S ym
Ġsubject ed
ĠNe v
ĠBer keley
Ġinv al
Ġper ceive
Ġbas eline
ur u
ĠP ict
ĠAnt i
Ġdiss olved
ĠSm art
Ġr ival
Ġatt ribute
oc ate
Ġcent res
Ġeconom ically
Ġsufficient ly
ul atory
sec ond
F l
ĠSt ock
av y
Ġrecogn ised
d ig
ing ing
ro ck
id el
Ġw re
plic it
r ative
ry ption
Ġf riction
Ġal gebra
Ġformer ly
Ġd edu
Ġpro be
Ġde ce
ĠH un
Ġchart s
Ġc el
ĠM as
Ġmill enn
a us
Ġcomp iled
Ġpar ish
Ad d
Ġselect ing
it ime
Ġan k
Ġtrans it
Ġbre eds
ion ed
Ġtra ces
Ġappl iances
s ite
Ġd warf
Ġcon form
Ġr um
199 9
Ġbul bs
ĠS outheast
ers hip
Ġsil k
Ġarrange ments
ĠF at
Ġreg ards
ĠR ac
st an
ĠAuthor ity
ĠC L
Ġinstruct or
Ġnav igate
Ġoutbre aks
Ġdeploy ed
Ġwhe els
Ġb od
Ġearthqu akes
Ġr iding
Ġtra pped
Ġtrans cript
Ġmob il
Ġint rig
Ġperipher al
n est
ĠAll en
Ġstret ching
ĠP RO
Ġfather s
Ġwh ale
ĠK ash
Ġt ric
Ġl iber
if iers
ĠMay be
m ates
ĠT B
l og
ĠT rib
b ot
ĠS E
Ġun comfort
te ch
Ġaut onomous
ĠImp act
ĠT ogether
th an
ĠR oss
ĠGen erally
ing ham
ĠA str
Ġpost ure
Ġpal ace
Î ½
Ġse af
Ġval ued
Ġf usion
ĠRes ults
ĠV ideo
orient ed
ard o
Ġcomprom ise
Ġp our
Ġsix th
ul iar
Ġprot otype
Ġcultiv ated
ĠMach ine
s ight
Ġkey board
Ġvulner ability
Ġuncons cious
â ĪĴ
od d
Un fortunately
Ġpast e
Ġrequest ed
l en
al ry
Ġdis abled
Ġroll ing
Ġapprec iation
b ial
Ġve ins
Ġb esides
Ġy og
Ġev olve
ĠReg ion
Ġelectro ly
Ġwast ewater
M r
Ġfail ing
b ound
f ood
Ġsettle ments
an ia
Ù ı
Ġe ternal
ĠImm un
R et
ĠB uild
Ġmedic inal
re hend
Ġis ot
Ġres olved
Ġo ak
Ġtomat oes
Ġtem ples
Ġwalk ed
Ġoutl ined
ĠE C
ĠTe le
Ġtur tles
Ġdo zens
Ġpre jud
Ġvari ants
ig nt
Ġinev itable
Ġgas oline
Ġg ently
th y
Ġ6 3
m i
Ġworkshe et
h ome
ĠA B
ut ers
li hood
ig o
Ġp orts
it ar
Ġg ay
osc ow
Ġsupp ress
Ġinnov ations
roph y
ĠR E
Ġadjust ed
Ġpneum onia
Ġcl ot
Ġwar fare
ĠL es
ĠEurope ans
ĠCub a
p ose
Ġd ump
Ġprim itive
Ġinvestig ating
Ġd amp
Ġben ch
Ġflood s
D oes
f ram
u ated
Ġpro c
ĠF ried
per ature
Ġqu oted
Ġret rie
ĠMag azine
ret ion
Ġdraw s
Ġsan ct
Ġpl ural
Ġdispl ace
ĠPop ulation
se ts
ĠC zech
Ġbl oom
Ġf ans
Ġafter wards
Ġlay out
ĠHam ilton
iol ence
Ġmon etary
Ġcort ex
Ġgr asp
l an
ĠK al
ð Ł
ĠB ud
Th anks
ĠCommun ist
Ġmosquit oes
ĠC ab
iz oph
Ġprom ises
Ġen roll
s ource
ĠAccess ed
Ġsurge on
P T
Ġexam ines
A f
Ġa rom
ĠMe anwhile
ron es
Ġgod dess
Ġar sen
ne e
Ġremed y
dr iven
ĠW inter
ĠMc G
Ġtra ff
er k
int erest
Ġd ot
Ġdisc iples
ĠPer u
Ġhas n
Ġod ds
o T
he um
Ġc ram
Ġwor ms
Ġ19 17
Ġmicrosc ope
ur ities
Ġfact ories
Ġsol ved
Ġjew el
F ree
Ġ19 14
n ote
re a
ĠP rior
ax is
Ġsubstr ate
Ġj ack
pp ers
red ict
Ġ196 3
ar bon
ot le
we ek
ĠUn iverse
ĠD ate
g roup
cer pt
ant e
Ġtut orial
ĠCon n
Ġharvest ing
Ġwe ed
D C
Ġb iblical
le ans
ĠBr ig
Ġtempor al
Ġsu cc
Ġsec ured
izoph ren
L C
on ics
Ġtr illion
Ġ5 9
Ġpub lish
Ġlingu istic
D av
ĠR oc
Ġab ortion
Ġret ired
ĠA ward
Ġspir its
Ġabd omen
Ġtable ts
Ġuncomm on
p ack
Ġhand ful
Ġobt aining
p owered
an ic
ĠH ait
uss ian
ress ions
ro st
Ġen erg
Ġass ass
Ġproblem atic
t w
v ised
ĠL anc
ĠDe b
Ġpass enger
Ġmod ification
est het
ĠV I
Ġcounsel ing
ĠF un
Ġ6 8
ĠWh it
Ġmicrob ial
Ġd os
od us
Ġ q
Ġan ts
Ġat he
Ġun ited
Ġmod ifications
Ġlect ures
Ġs its
ĠD ick
l ip
AR S
Ġastronom ers
re ach
Ġl in
Ġdr um
Ġemphas ize
ĠT our
Ġ6 2
Ġpresent ations
Ġhead ing
T ime
in ar
Ġcount less
Ġ6 7
cul osis
er ce
Ġcrit ically
Ġchromos ome
ĠEconom ics
ĠG and
Ġillust rates
Ġsusp ended
Ġr ip
ĠK it
ĠL ink
ĠAl ong
F P
Ġwitness ed
Ġsulf ur
Ġstop ping
ab ase
Ġhoriz on
ĠE instein
ep s
Ġpropos als
ig e
ĠS ong
Ġpre lim
em en
O ut
v ia
ra ce
Ġsm ile
Ġdow nt
Ġen rich
Ġdesign er
ĠSy d
iv ic
th a
Ġinstruction al
dep th
Ġl ion
Ġas bestos
S ocial
ro ts
ĠPat rick
Ġpo le
ĠAn th
Ġt ears
Ġo ct
ĠSt ress
Ġdyn asty
ij uana
% ),
ĠH az
ccess ful
Ġunt reated
Ġtour ists
Ġn asal
sel s
ĠF ox
Ġincent ives
ĠMe chan
Ġam ph
Ġcounterpart s
im ated
Ġas ym
Ġpot ato
ignt y
ric ular
Ġmon arch
Ġstr at
Ġshar ks
ĠK y
Ġp umps
ĠR os
ĠTra vel
ĠA y
Ġpub lishing
ad ows
p hen
us ions
Ġsupport ive
r ator
Ġport able
Ġprelim inary
Ġaccording ly
Ġtraum atic
Ġrestaur ants
ĠH art
Ġcryst als
Ġo un
ĠMo ore
Ġshoot ing
Ġappro aching
L ife
Ġland ed
Ġder iv
ob acter
Ġtransl ate
Ġmyster ious
ra ul
ĠL akes
Ġret ention
Ġdr illing
pl er
Ġclin ic
Ġdry ing
ĠBanglades h
ĠD raw
un ct
Ġtrans action
Th ree
anc ies
h ol
ĠDen mark
ĠC ust
Ġdemand ing
ĠL oss
ĠCo al
Ġsil ence
ĠDougl as
Ġelectrom agnetic
Ġcoord inate
Ġuncomfort able
ĠT s
ĠCon sequently
Ġt y
ceed ings
Ġdes cent
Ġform ats
Ġmat ching
Ġden y
Ġsatisf ied
W hether
Ġc ater
Ġrig id
Ġpuzz le
Ġdisag ree
Ġan a
com put
Ġel ite
opor osis
Ġrest ing
ĠAg reement
Ġsh ame
Ġter rain
Ġvent ilation
ĠF ollow
Ġhigh way
Ġs emic
ĠM un
Ġprocess or
ĠY e
Ġoblig ations
ĠBas in
1 50
p op
Ġret reat
Ġor ch
Ġdel icate
Ġanx ious
Ġ18 50
Ġmicro bi
ac ity
cont rol
ĠLt d
ĠAntar ctic
Ġmus h
ĠNig eria
ĠH ug
Ġur gent
mon th
Ġinfin ite
Ġst ro
d irect
p her
Ġt ent
Ġsod a
im ental
ĠN urs
Ġed it
Ġprior ities
o in
up uncture
Ġur inary
st yle
Ġwas hed
ass ing
Ġflow ering
Ġam bit
im ore
Ġ194 3
ĠO w
Î ¿
Ġinter con
Ġembra ce
F T
Ġs our
ing e
ĠO ak
ĠCom par
M c
Ġform ally
Ġrecommend ation
Ġinvent ory
Ġconnect s
or rh
Ġtour ist
Ġunw anted
Ġut ter
a uses
og rams
Ġremed ies
R ed
il ies
Ġelabor ate
m ay
p it
Ġcar go
Ġstreng thening
ill es
ond er
ĠCurrent ly
Ġpot ent
ores cent
H aving
Ġquestion na
i pt
op hers
Ġw ishes
Ġh ub
Ġr ash
Ġint oler
Ġperman ently
Ġcivil ian
ĠDis order
Ġstrugg les
Ġr ust
ef t
Ġillust ration
Ġburn s
Ġpec uliar
J uly
ĠL uke
Ġritual s
N on
il i
ac erb
ins ic
Ġsequ encing
Ġalle v
Ġreprodu ce
Ġepis odes
us ually
Ġj un
Ġun ions
t em
ĠS ab
Ġacid ic
on ut
ed e
Ġsh ark
Ġbu g
Ġfro st
ĠP ent
Ġcar ved
ĠE sp
Ġbirth day
Ġfol ks
Ġrecon struct
ell o
Ġspec ify
Ġo scill
ĠOr leans
Ġe ager
Ġclim b
M in
Ġlit ter
De velop
Ġcolor ing
Ġbl ade
ĠT erm
ĠBro ther
Ġfeather s
Ġsex ually
ĠJud a
ĠCho ose
Ġinc ons
Ġhop ing
ĠE b
Ġsupp orters
10 16
at ivity
Ġ18 0
ro d
el le
Ġinc om
Ġschem es
ir ie
ĠUk raine
Ġmetap hor
Ġa ug
ĠE V
Ø ±
erv ice
We b
Ġ ]
Ġfor cing
ĠSyd ney
Ġfail ures
Ġerect ed
Ġbul b
Ġtri angle
B ook
ĠBel ow
Ġharvest ed
Ġresp ected
Un iversity
ĠDi agn
ut o
Ġapp les
Ġemploy er
Ex pl
ul se
au nt
Ġevery body
ĠArch ived
Cl ass
ĠBet ter
al ia
Ġnetwork ing
Ġprohib ited
Ġd aughters
Ġ18 80
plic ity
Ġint im
Ġgard ening
Ġn urt
Aug ust
Ġd ye
Ġtrou bles
m id
Ġdram a
Ġst amp
str ong
Ġdef ence
ĠEx ercise
Ġpil grim
Ġhe s
ĠH ud
elt a
ĠFin ancial
il age
S y
Ġauthor ized
ĠChar acter
ĠM oscow
Ġdin osaurs
Ġple asant
ĠS now
Ġv ascular
Ġinf rared
Ġinter ven
Ġveterin arian
ace ous
it ated
Ġmembr anes
n ational
Ġhot el
Ġteen agers
Ġam mon
Ġre pt
Ġpurs uit
Ġoccas ional
Ġseiz ures
D ay
Ġnot ing
Ġ194 7
Ġpress ing
Ġr ated
199 8
I H
am an
ache lor
Ġd a
Ġdep ressed
Ġlive lihood
Ġdign ity
at ics
ĠOlymp ic
ĠH ope
bre v
Ġinvest ing
ĠVictor ian
Ġin exp
Ġed itors
Ġdefic it
p iece
Ġinf erior
Rem ember
Ġb ureau
ĠM RI
Ġpract ically
ĠSy n
Ġcondition ing
Ġclar ity
all ic
Ġtem plate
Ġfr ight
Ġmand atory
ĠBab ylon
S M
au x
Ġwhere ver
Ġappropri ately
ĠSar ah
Ġhom eless
Ġdeliver ing
Ġneighborhood s
Ġlet ting
ĠPol ice
E v
Ġm ol
light en
ĠU ntil
Ġwater ing
at is
ch a
uten ant
d ependent
Ġworth y
Ġst ocks
aret te
Ġalign ment
Ġentreprene urs
S C
ol en
art z
Ġany way
ĠFreder ick
h ouses
ct ica
Ġ18 90
b irds
ar o
Ġsign aling
Ġparam eter
ĠWal ter
ĠBi ological
Ġ6 1
end ix
Ġapp ar
Ġsh ower
ĠAnd erson
st ock
Ġdisapp oint
Ġrecip es
Ġar ises
un ks
ject ive
Ġy ards
ester day
ĠS eed
ĠAl ber
ĠYou Tube
c ap
ĠOr d
AT E
F R
Ġdom ains
On ly
ĠS A
ĠIm ages
Ġwild erness
Ġempir ical
Ġindo ors
ul ph
ĠAng lo
Ġp ile
Ġ19 10
Ġsing ular
Ġconsist ency
ĠCle ar
he rence
ĠB urn
ĠW ords
Ġrec ruit
Ġmicro organisms
omet ry
Ġexclud ed
Ġan emia
Ġper ceptions
ĠF ile
ĠDel hi
ĠA er
ĠE ve
Ġaster oid
Ġlast s
Ġperiod ic
ĠExt ension
Ġadul thood
ail and
Rel ated
ĠEx cel
c hem
Ġspot ted
Ġstraight forward
D esc
l ie
ĠNorth west
Ġfl ags
Ġspec ially
w alk
Ġde af
ob ia
Ġdr ill
Ġpet roleum
Ġber ries
ĠNap ole
le ys
Ġindu ce
rep resent
Ġsan itation
ard less
ann y
Ġa rose
ĠB eng
Will iam
The ir
Ġinf est
ĠLe v
ĠAp ollo
B o
ĠT aking
Ġrul ers
new s
Ġtou ching
z es
on ed
Ġaltern ate
Ġcompr ises
if iable
ight ing
yp ical
ĠEv idence
o vers
Ġlower ing
Ġvari ant
20 18
ĠRec ent
ĠTh om
L a
Ġcompan ion
S um
W omen
Ġfree zing
Ġemp athy
Ġambit ious
Ġall ies
Ġfirm ly
ond ition
Ġcomb ines
Ġneighbor ing
ĠT ell
Ġtom orrow
Ġnation wide
Ġfle e
Ġmoment um
Ġsp ill
ĠTe ch
Ġwell being
Ġantib ody
S w
Ġpip eline
ĠCit iz
Ġex acerb
od ia
Ġinc ub
Ġcor rupt
Ġlear ner
ĠProgram me
ĠFed eration
ĠW right
ĠAt hens
Ġshel f
ĠG round
ĠPh oto
Ġbus h
ĠSw iss
P oint
T op
Ù ħ
ri ans
Ġad hes
ĠB ron
ag rams
Ġtarget ing
h n
Ġhand led
br ates
char ge
ant ry
ĠL ive
Ġmor ality
Ġexcept ional
Ġsn ack
Ġbare ly
Ġtraged y
Ġab st
am ation
ph a
Ġrel uct
Ġassemb led
Ġne arest
Ġver ify
w idth
ĠPh arm
ĠN uclear
Ġt ie
ĠS alt
ĠPlan et
Ġl augh
Ġbe aches
Ġequ ilibrium
Ġdemand ed
ĠMarsh all
u f
Ġtr unk
Ġg low
Ġgra zing
ast ically
Ġjud icial
Ġball s
Ġstimul us
ĠP ack
Ġ9 8
ĠPl us
ĠAnn ual
Ġh ay
H uman
ĠV acc
Ġs ie
ĠF unction
Ġimm ers
Sim ilar
ĠK ind
St ate
ĠAct ivity
Ġutil izing
ĠPen insula
Ġdes ires
Ġlim b
ĠLG BT
ĠF est
Ġcr ude
Ġrad ius
Ġprodu cer
Ġlaw yer
ĠSo il
Ġpred iction
ĠHar ry
Ġbe verages
sp eed
ĠCh air
in cess
ĠP i
Ġcosm ic
ĠCour se
ĠEthiop ia
ex pl
Ġunc on
ĠCol omb
ER E
' '
Ġgo ver
pro f
ĠPal ace
Ġtr ash
Ġeas iest
Ġhead quarters
Ġsatisf y
Ġsuper vision
izophren ia
ow ing
Ġstrong est
aut ions
ou ch
Ġswitch ing
TS D
Ġcomp elling
ĠIndust ry
en c
ĠOtt oman
O G
Ġm ad
Ġorgan izing
t ar
ĠH PV
og ical
Ġ196 1
Ġp erenn
Ġexc ite
rolog y
ĠSoft ware
O K
Ġu pt
ĠN ile
Ġdisc ount
Ġfif teen
Ġreef s
Ġst ain
Ġ20 23
Ġagg ression
Ġpe an
ĠMc K
ens ing
Ġcur iosity
r idge
Ġwood s
Ġap ost
g ly
i w
Ġ10 1
Ġsim ulations
ĠD h
Ġmic row
m ath
ĠFor um
A ust
Ġphilos opher
ĠTest ing
Ġoblig ation
al g
Ġmem orial
ĠAd ditional
ĠPart ners
ill er
Ġveter ans
H ome
op sy
Ġas leep
Ġexpress ing
Ġs ins
ĠE N
Ġdifferent ial
Ġcomm erce
Ġconf using
ĠAct ivities
Ġd y
Ġtempor arily
E duc
Ġa esthetic
Ġh ob
00 00
ri et
Ġprior it
Ġ18 60
lim ited
Art icle
Ġsurprising ly
ke eping
ch ildren
Ġhuman itarian
Ġbreak through
Ġcontact s
Ġcru c
ĠColumb us
Ġadvent ure
ul as
ĠIn it
Ġclaim ing
V I
Ġsign ature
Ġabnormal ities
ĠImpro ve
Ġh anging
ry st
ĠT ips
ĠR on
d y
now ned
Ġfant astic
S D
ĠO ri
Ġra m
ĠDom in
in ters
Ġent ries
Ġcommunic ating
Ġeth anol
os itory
M et
Ġunder water
Ġac re
ific ant
ĠD ocument
Ġdefin itive
Ġprox imity
Ġfart her
ac hers
ĠBl ock
Ġexcept ions
ag g
Ġ196 2
ĠEd itor
iv ated
ans k
Ġshort age
Ġrespond ing
Ġcommission ed
Ġcar n
Ġmat ches
Ġst oring
oc ide
get s
Ġrev ision
b ling
Ġlay ing
Ġsh ops
enn y
ĠE ating
Cons ider
Instit utions
ne ath
Ġreflect ing
Ġshould ers
Ġvers es
Ġce iling
Ġspect acular
Ġtrust ed
ii i
Ġweek end
iat ry
Ġfluor ide
ol ics
oub ted
Ġex it
ĠP s
ĠF oot
Ġtreat s
Ġcolor ful
Ġprot ests
Ġop io
Ġflu x
RE E
Ġparent al
ĠT itan
ul us
ĠB rand
w elling
ĠE ric
Ġpet ition
Ġanim ation
over ty
ĠPre vent
7 00
Ġj ar
Ġclick ing
ĠG ib
ĠV erm
Ġmon op
Ġmuseum s
Ġd orm
ĠKh an
bre aking
ri ages
Ġexerc ising
Ġbur st
l aim
it ol
ĠB art
est hesia
ĠHow ard
Ġ âĢĻ
om nia
Ġdiff ers
eng ine
________ ________
ĠL ank
Ġatt orney
Ġfriends hip
Ġst ays
em ics
ĠPro ceedings
F r
Ġorgan izational
c ost
ro it
ĠTh ank
Ġtra ced
Ġmin istry
ĠEvent ually
p ot
ound ing
Ġgradu al
Ġviol ation
Ġcool er
u pp
Ġle ather
Ġrestaur ant
S R
ore st
ĠB ull
Ġ18 70
ur ban
ĠE mb
ĠChrist opher
Ġrespond ents
ĠTai wan
is ol
Ġre ass
Ġpres erving
? )
ur g
W H
ĠHou ston
Ġplanet ary
Ġpl ag
ĠAl cohol
osynt hesis
ous ing
Ġfil ed
Ġtact ics
Ġatt raction
ĠD er
Ġcub ic
ĠIsa ac
Ġact ed
There fore
Ġtransp arency
ĠEmer gency
ĠPub l
Ġlike wise
atur ated
Ġemphas ized
H ar
Ġt ire
ro sc
Ġgrav itational
threat ening
Ġeleph ant
ES CO
Ġvot ed
Ġcryst all
Ġport rait
Ġcop ing
V ol
t i
ad ers
d ose
ĠB lu
he art
ĠAlex and
Ġst ew
f und
âĢ ²
Ġt ags
te g
ĠAmeric as
Ġchar ter
ch y
Ġbat t
Ġarm ies
Ġp ad
ĠProble ms
Ġcapital ism
Ġep ic
rag on
Ġth ir
ĠT a
ore sc
= "
Ġd ens
Ġoff ensive
Ġtestim ony
AS T
Ġen force
Ġsc ans
Ġbuff er
Ġjust ify
Ġredu ctions
disc iplinary
ĠMan ual
Ke ep
p ret
Ġd olph
ĠF eed
Ġden om
ur ate
re port
Ġse ism
Ġdecl ining
.... ....
cons cious
Ġdisc ont
Ġlink ing
point s
ĠD ark
acter ial
ĠQu estion
ĠRef erence
Ġhe d
ĠAn imals
Ġsimpl er
it o
Ġanaly tical
Ġbase ball
Ġguarant eed
Ġcl ues
ĠT ob
Ġcommerc ially
ĠQue ens
ĠProv ince
ĠHispan ic
v ic
Ġtru cks
Ġtext book
Ġdocument ary
Ġmaxim ize
Ġres ort
Ġbackground s
im eters
ene z
ĠPar ks
Ġadvert ise
Ġbul let
Ġrelax ation
Ġturb ine
L ist
F i
Ġpos es
ĠHig her
Ġlight ning
Ġ14 0
Ġholid ays
Ġcr imin
Ġi P
Ġtut or
Europe an
Ġhier archy
Ġfib re
he w
Ġst ating
Ġ19 19
ĠB ase
Ġf ut
Ġtime ly
Ġexp orts
Ġ196 6
Ġexhib its
Ġs q
ĠT ool
Ġg ym
ĠTh ailand
Ġpull ing
ĠM s
Ġtre asure
Ġel astic
gener ative
Post ed
olit ical
ĠGuid elines
Oct ober
ĠR A
ĠT R
Ù Ī
Ġ7 7
Ġpat ron
Ġimper ative
Ġfisher ies
Ġsub mar
Cont in
Ġb ol
Ġkn ock
ĠCommon wealth
Ġastr onomy
Ġrele vance
il ia
ĠE ye
du e
is an
ĠS ierra
ĠTh or
Ġcompat ible
mark et
ĠIn v
Ġappro ached
ann ah
Ġnut rit
Ġphosph orus
min ute
Ġstress es
Ġ7 8
it ably
Ġd irty
Ġbrand s
ĠMic hel
Ġcannab is
e er
f lu
Ġfe ast
Ġprevent ive
ro b
Ġmod er
Ġsp ider
ĠCons ult
Ġincorpor ating
iz able
i age
v ar
Ġcomp osite
Ġesc aped
Ġod or
Ġthe or
Ġd op
Ġep ile
Ġcontamin ants
Ġparad igm
Ġgl ue
Ġfit ted
B as
ĠP un
s ize
Ġcon ve
Ġchar ity
Ġcommand ed
ĠNev ada
n utrition
ĠG rowth
Ġg ig
Ġdec iding
ĠAntar ctica
b oth
u ction
ĠC and
ĠJ oe
20 20
Ġlim bs
ĠRec ords
Ġmanip ulation
Ġshif ting
Ġmat urity
Ġterm ed
Ã ¦
Ġcor rection
Ġpart ition
ĠH yp
ĠV ien
Ġref use
Ġprof iles
Ġdepos it
Ð¾ Ð
f ting
ĠT her
op ard
ig uous
ĠC M
Per haps
Ġv end
ĠF ocus
ĠC C
spec ies
ab y
ĠB ed
ĠComp an
ĠD ental
Ġappear ing
ne x
Ġlik ed
ã Ģ
ĠW ould
Ġp ist
Ġsurre nder
ĠN an
" ;
we g
Ġaccess ibility
Ġmit igate
Ġmusic ians
Ġadministr ators
ĠI g
ĠE u
ck ed
ĠUnivers al
Ġnovel s
ir ts
B rit
Ġn a
Ġup ward
ĠJ oint
Ġspec imen
ĠBC E
Ġdestro ying
ĠHop kins
sc ient
Ġc itation
is ite
Ġgar lic
ĠR un
Ġdec k
c ard
Ġk et
ĠK a
Ġconc ert
Ġrecre ational
Ġdon or
Ġhar ness
Ġfast est
Ġterrit orial
Ġpr inter
ĠDak ota
Ã º
Ġke en
Ġfavor able
Ġgau ge
199 7
Ġcoron ary
ĠO K
Ġbl end
ĠAm b
Ġcourt esy
Ġal igned
ring e
S chool
ens is
ĠWe ight
Ġadv ise
oubted ly
um m
ĠL oc
Ġserv ants
Ġcorros ion
ĠT ypically
ist le
Ġminor ities
t an
Ġl ips
Ġinexp ensive
p ublic
ij ing
---- ----
Ġcong ress
Ġd ermat
Ġright eous
Ġaut onomy
Ġsovere ignty
Ġhe ct
Ġrend ered
Ġgastro intestinal
ord on
RO M
Ġult rasound
ab ited
ox ic
ĠArt icles
Ġp seud
ĠSp orts
Ġdeal t
Ġhon our
ĠÃ Ĺ
L Y
Ġ ib
Ġhe ll
r ings
ad en
Ġpredominant ly
Ġpost er
Ġrun off
Ġsal vation
I d
ĠEvery one
Ġdisc ourse
Ġn ests
Ġen velop
ater n
verse ly
Ġped est
Ġmar ry
Ġw olf
Ġrecogn izing
Ġremain der
ĠObserv atory
Ġve in
ĠProf essional
am er
eral d
p a
ĠS kin
ĠTr uth
ĠBapt ist
ĠD ra
Ġlov es
ĠCl inton
Ġkind ergarten
Ġstimul i
ĠPro b
Ġ7 4
l ab
th irds
ĠW ang
ĠWe ather
on i
Ġvacc inated
s ky
y g
ĠT itle
ĠL ith
Ġcontin ental
Ġadapt ive
Ġfol iage
Ġnumer ical
Ġm ate
Ġintrodu ces
ĠM ercury
Ġcontroll er
er red
20 19
ixt y
ĠMethod s
W A
Ġb ub
Ġup coming
Ġbroad ly
Ġoverse as
Ġt ide
ĠE L
Ġ8 8
Ġirrit ation
ĠI R
less ness
Ġcompl aints
I B
ĠW i
eg ree
Pub Med
ara oh
Ġblood stream
ĠW at
Ġsh ots
re tt
Ġr if
Ġel imination
Ġsubject ive
= =
Ġt ales
Ġtri um
ĠClin ic
Ġge ological
ĠQue bec
an alysis
Ġadmin ister
Ġk ills
Ġh its
et ric
Ġcomp ly
ĠCom ment
199 6
Ġcra w
Ġsal ary
flow er
ĠFl ore
Ġt ended
Ġm arc
Ġtrans ist
Ġ9 6
Ġsoc ietal
Ġgrass es
Ġgrocer y
e lect
S uch
Ġpul monary
Ġlegisl ature
ĠJuda ism
rate gy
Ġpark ing
ĠN ag
raul ic
Ġp rize
Ġm as
le ading
ĠM i
ĠCh ron
Ġme g
Ġqual itative
ĠG ram
Ġgl uten
Ġaccount ed
D NA
ĠSt alin
Ġselect ive
ĠS in
ĠB os
Ġpick ing
ĠTo o
i ography
ist a
Sept ember
Ġton nes
Ġprivile ge
gen cies
+ +
Ġinject ed
Ġap nea
Ġc ables
ĠN elson
Ġad mission
Ġcomp uls
hold er
ĠSp ect
Ġtal ent
Ġcou ples
Comm un
ĠI M
ĠU RL
Ġrese mble
Ġsimpl est
Ġconst ell
Ġcook ies
Ġpenal ty
ĠG ab
Ġf iscal
od ium
Ġswe at
Ġo re
Ġu mb
Ġde forestation
rit er
Ġadjust ments
Ġam endment
Ġrece iver
L ong
Ġter restrial
Ġpock et
U P
c op
m n
Ġev olving
ĠRec on
ĠKash mir
Ġin appropriate
ĠSe attle
Ġpray ers
Ġh ollow
m ans
Ġec o
ĠGu inea
Ġrecon struction
Ġroutine ly
Ġper me
Ġpestic ide
G reat
ast es
Ġnest ing
Ġshif ted
Ġl ady
ĠSqu are
ot te
Ġoccup ational
Ġcount ed
head ed
Ġf ox
ĠC rown
ĠDis orders
organ ic
Ġide ology
Ġwe ights
Ġad olescent
Ġfe eds
Ġparticip ant
Ġgen re
Ġmet a
Ġcur t
Ġfinanc ing
Ġdemonstr ating
ĠCur riculum
Ġwhere by
Ġdel icious
ĠProble m
ĠHud son
ards hip
Ġs isters
Ġwh it
Ġbo om
aud i
Ġpool s
h oe
Ġstress ful
Ġhost ed
ĠM ember
old ing
Ġ7 3
ĠTechn ical
ĠSaf e
Ġunf ortunately
Ġgover ning
ĠBen efits
lear ning
Ġvalid ity
Ġst icks
Ġprov incial
Ġenh ancing
M ark
Ġser um
Ġto y
Ġan th
op en
rad es
x iety
Ġru ins
Ġhist ories
199 0
Ġco operative
se arch
Ġk ern
Ġar row
ĠAd vis
ĠMem bers
ĠBalt imore
ĠR F
Ġd ive
Ġlapt op
ĠT un
ĠP le
Ġcareg ivers
Ġbelong ed
Ġ esp
ĠT ower
Ġcon gest
Ġdeclar ation
em at
AC T
ĠMor ris
Ġb aking
ĠN AT
Ġnav ig
Ġcont est
ĠPr ice
Ġdecl are
Ġprop het
Ġconclud es
Ġcyl inder
ĠB att
ĠCh i
Ġ193 3
Ġfert ile
low er
Ġsevent h
G iven
ĠDe ad
Ġele g
oll en
Ġsecret ary
ĠS O
Ġreact or
Ġpack ages
ĠCa esar
ass ed
pro v
% ).
Ġl ucky
ï ¼
Ġde ployment
Ġover night
Ġmet ric
Ġcred its
Ġo ven
ĠArgent ina
. âĢĶ
Ġint ric
rav iolet
ĠE R
ĠJ os
Ġadequ ately
ĠPu erto
lighten ment
Ġqu otes
Ġsoon er
Ġmist aken
Jan uary
ro ads
ĠS QL
ly wood
Ġdem ographic
Ġvolcan o
Ġbehavi ours
Ġdepth s
og ly
Ġwel ding
J apan
Ġunder neath
ĠMem ory
Ġtr im
Ġinvest ed
NA SA
ĠArist otle
ul ator
el ong
Ġher d
âĢĿ ).
Ġcol i
Ġdi abetic
ĠZ ion
ĠRel igion
ĠRob inson
Ġscr atch
ĠP ed
Ġemb arr
ĠSol omon
Ġfl ame
Ġ194 6
Ġqu ery
ĠFre qu
Ġfract ure
ay ers
ĠMarg aret
Ġn our
id ency
ĠR at
ĠBr un
Ġsyn chron
Ġacceler ation
ĠM olecular
Ġkn ife
us er
Ġv iv
Ġfun gal
Ġref lex
Ġhur ricane
it ched
iv ia
Ġclean er
ĠEc ology
Ġeru ption
w ick
ld er
Ġthr ust
Ġload ing
Ġclim ates
e at
Ġl iability
Ġcent ered
Ġdeb ates
et ed
c ience
ĠC art
ĠMin or
E c
Ġassist ed
Ġl amp
ograp hers
Ġsp rou
Ġfaith ful
Ġanticip ated
Ġmultip ly
osex ual
Ġconstit utes
h o
ĠUS B
Ġuter us
Ġa pt
ĠM O
Ġ6 9
Ġdecor ated
Ġalph a
Ġfo am
ĠDat abase
ĠY ale
Ġpolit ically
ĠT rue
Ġher bal
Ġmagn ific
Ġre wards
Ġpre st
Ġwal ks
ĠA venue
Ġwond ering
ĠR ow
ĠG a
ĠF riends
Ġve t
be y
Aut hor
J ew
in os
ĠJ osh
ath s
Ġdrag on
Ġh iding
Ġex empl
Ġ7 6
Ġexec ute
Ġincom plete
ĠN ight
ĠScript ure
L ess
he im
Ġnew er
Ġ7 1
ec hes
ĠAcad emic
Ġp osed
Ġest rogen
th ree
icult ural
Ġembry o
Ġm asks
ĠT otal
Ġbad ly
Ġinj ust
at to
Ġgu ests
Ġsum mit
Ġanat omy
Ġa ver
ĠB and
ĠP oor
ira cy
Ġfl ora
iqu ity
ĠQu ant
Ġconsequ ently
fol io
Ġsh rubs
ere rs
ound ed
Ġ194 9
Ġadvance ment
Ġn ights
ĠL ang
Ġart illery
ĠLeg isl
ĠArk ansas
ĠMalays ia
Ġrem inder
is ive
itud inal
ĠNep al
ĠInstit utes
oc ur
Ġrom antic
am ics
Ġrel ied
Ġrig orous
Ġturb ines
Ġauto immune
G R
Ġhe lic
Ġserv ant
A I
Ġ8 4
Ġtur tle
Ġfract ures
m ont
Ġmit igation
Ġsculpt ure
ĠBit coin
ĠC av
Ġex otic
Ġradical s
ĠBelg ium
h um
ĠF if
Pub lished
ad er
Ġcle ared
mit t
ĠArab ia
ambo o
Ġb ishop
pl ants
Ġlith ium
Ġaud iences
ĠAct s
Ġinstrument al
ĠExpl ain
Ġnever theless
Ġdispl aced
ĠM ort
Ġround ed
ĠThrough out
F orm
ign ant
Ġsuccess ion
Ġtra it
Ġmon uments
Ġsl ides
ias m
Ġcart ilage
em bers
Ġacceler ate
Ġweaken ed
Ġp ear
ph y
Ġaccept ing
se a
ĠD ry
Ġadvoc acy
Ġthe ology
ĠN ear
Ġ8 2
Ġmar ijuana
A IDS
e ur
Ġd ancing
ac ies
j e
Ġs ap
Ġnob ody
Ġchromos omes
Ġinc omp
aw ed
Ġend less
) ?
Ġf ost
Ġ193 8
ĠR io
Ġrem n
Ġmar row
Ġwith stand
Ġhar assment
Ġmis under
B ar
ĠSt ra
Ġb ites
Ġintern ationally
ĠHar bor
Ù Ĭ
Ġk ick
Ġcommod ity
ĠC yp
Ġfl ights
Ġgu est
Ġwant ing
Ġmark ing
Ã¡ n
Down load
ĠL iver
Ġbu nd
che ll
Ġpol es
Ġrebell ion
Ġl ag
ĠShe l
ĠDet erm
M R
Ġz o
Ġfeas ible
spe aking
T E
ĠM oney
Ġreg ulating
1 10
Ġ 000
Ġqu it
ĠTra il
Ġtomat o
N C
Ġ20 50
O h
Ġto es
id ation
ĠB uff
ĠB irth
ĠP ier
ĠMe asure
p ill
ĠB L
ĠU g
as i
Ġclean ed
Ġprec autions
ĠL ate
ut ter
Ġaqu arium
Ġbod ily
Ġvis ually
he it
Ġhost ile
ĠOcc up
Ġbo ot
Ġmus cular
Ġball oon
Ġprol if
Ġd ub
ĠG raph
ev a
Ġp m
Ġur ge
Ġpack et
ri ors
iling ual
ĠT ypes
us c
Ġsuggest ion
Ġharm on
ĠFood s
ĠNeg ro
Ġment ally
ĠCP U
Ġgl ad
Ġrecogn izes
Ġut ilities
Ġcompar ative
as ers
ke ep
Ġscholars hip
Ġnort heast
Ġse am
Ġlif esp
g age
Ġse aled
Ġdis ruption
Ġ3 50
op a
ĠPre p
Ġprompt ed
Ġpl ots
any on
ĠPortug al
lud es
ĠDes ert
p ent
ĠC as
ĠRe form
ix on
Ġgar bage
Ø§ ÙĦ
Ġeleph ants
ĠAl most
Ġchick ens
Ġ á
Ġnutrit ious
S L
Ġg host
Ġrepresent ations
te es
bo ards
De cember
ĠCommun ications
ĠEx ample
Ġenc ryption
th ink
Ġd ots
hes s
Ã© s
Ġpun ish
ĠCom plete
Be ing
ĠIce land
ĠL am
Ġconst ipation
Ġant im
f in
ĠRec ord
ĠT ut
Ġob struct
Ġvent ure
re ate
ic ism
ĠA round
Ġtow ers
Ġre nowned
Ġall iance
Ġplace bo
Ġinterpret ations
f erence
ang a
Ġtw in
Ġtrans m
bl ack
ed ience
Ġex clusion
ĠRober ts
z i
ĠS ad
Ġany more
Ġpot s
ĠCan al
Ġastronaut s
h ind
u ce
Ġsupp ose
Ġgovern ed
pat ient
ĠResp ons
p ine
Ġbo iling
Un like
Ġoverl ooked
Ġh ired
Ġne urop
Ġroot ed
ĠNich olas
Ġcar riers
Wh ite
Ġretire ment
es ome
ĠSil ver
h u
Ġblock ing
ĠProt ect
Ġc emetery
Ġph yl
ĠSud an
oglob in
ĠP ic
Ġaer ial
E xt
ĠMor gan
Ġ iv
Ġfree ze
Ġ16 0
Ġseg regation
ĠProg rams
ĠFour th
Ġcomp ressed
Ġopp osing
P H
a ire
eb ra
Ġ7 9
Ġdehyd ration
ĠRus sell
int o
Ġphilos ophers
Ġor n
ud a
Ġgener ic
ĠUp on
199 5
G s
im ation
sc ape
ĠTerrit ory
1 20
ĠD elta
Ġhand ed
ĠPh ill
ĠBe yond
Ġjust ified
Ġlabor atories
ĠNot es
Ġrat ios
hist oric
Ġv ivid
Ġwell ness
ĠTok yo
olith ic
S outh
Ġrecogn ise
Ġs lic
Ġpl ague
Ġ195 6
Ġbr ushing
Ġen rolled
Ch o
Ġenact ed
Ġter r
ĠLet ters
Ġallev iate
. [
b in
Ġch op
Ġsqu ir
Ġunder graduate
as ury
Ġsqu ee
Ġre use
Ġdepos ited
ĠCE O
ĠCrit ical
w ere
Ġsou ls
Ġass im
Ġprob able
Ġviol ations
ĠP D
read ing
Ġaccompany ing
Ġlov ing
ĠWorks he
D ate
ress es
A tt
Ġwor m
ĠSt ew
N O
Ġn m
Ġcra cks
ĠHand book
Ġw and
ĠF ah
ĠMult iple
f n
g ate
re r
ĠCath olics
Ġfeat uring
c ourse
g ender
Ġval ves
ĠC row
Ġped ag
ĠPrinc iples
Ġsens ing
Ġqu iz
Ġstead ily
m aker
ur as
Ġexhib ited
ĠIss ues
Ġbron ze
ĠAl i
ĠGe ographic
Ġfit ting
Ġab oard
Ġspread s
d ays
Ġ19 12
Ġcomprom ised
b ecause
ro v
om ics
el come
Ġ9 3
ĠS L
Ġexp ose
ĠSe ven
ĠI l
Ġdifferent iate
Ġpartners hips
Ġquar ters
ĠFram ework
Ġa il
Ġe cc
Ġrele asing
Ġaud itory
Ġg amb
ĠAn at
Ġment ions
Ġ ..
oc l
Ġlist ing
Ġnorth west
Ġdivor ce
n orm
over ing
Ġtou ched
× Ļ
ĠR ule
Ġmat hematic
Ġhe x
W est
Ġm asters
Ġhun ters
" ).
n osis
Ġbutter flies
c hest
ĠAust in
ĠPalest inian
Ġeru pt
Ġcomplement ary
Ġor nam
ĠF L
ĠGreen land
Ġclub s
b irth
ĠSt rategy
Ġancest or
ĠGall ery
Ġc um
ĠHe at
Ear th
ĠI BM
ĠB ry
Ġsuppl iers
Ġtoler ate
S N
Ġd urable
Ġcom et
Ġinherit ance
Ġgu ilt
oun ter
Ġpursu ing
od a
Ġche w
Ġcoll ision
az ines
Ġrandom ly
Ã¼ r
Ġt we
Ġf ence
Ġn aked
Ġexplo it
Ġtight ly
Under standing
Ġul cers
Ġw are
Ġu plo
ub ric
ject s
ĠBe ijing
pe ople
Ġconven ience
Ġc ant
Ġassum ing
Ġinn ocent
ĠVien na
Ġgu itar
Ġinstall ing
p us
if ting
oci ated
Ġprec urs
ĠÂ ±
ah o
Ġprop ose
Ġheav ier
Ġfle w
Bel ow
Å «
Ġtra gic
Ġ8 1
Ġ195 9
Ġfrag ile
Sym ptoms
Ġcat alog
Ġscan ning
Ġmerch ant
Ġc ues
O H
Ġappar atus
Ġrep ly
Ġcollect ively
Ġcorresp onds
Ġrestrict ion
Ġcoord inated
ill ary
Ġlif ting
Ġfast ing
Ġsmart phone
heum at
Ġtext books
ind ex
Ġcor related
ĠLe ban
Ġliqu ids
ĠL E
ĠCh anges
Ġ8 3
br ate
Ġmanip ulate
or o
Ġt ense
Ġc ens
Ġcor ners
ĠPro duction
Ġspr ings
ĠS ay
ĠC ould
Ġdes erve
vent ional
Ġclim bing
Ġignor ance
ĠH D
Ġmer cy
Ġoste oporosis
Ù ĩ
Ġdet er
ĠCont ent
is ure
Ġf iring
ĠCon cept
Ġmid st
y our
Ġthe e
ĠT u
ĠC anyon
Ġcomp rehend
lo ads
Ġglac iers
c ur
on ian
oster one
ut able
Ġtechn ically
ĠAl t
Ġemb od
m ap
Ġintent ions
trans mit
ed y
Ġro pe
rop ortion
Ġg ospel
ĠU l
un ing
Ġpropag anda
le vant
ĠH E
Ġimmig rant
ĠS ky
ĠPh oen
Ġperform s
ĠSim ple
ĠPolit ics
h alf
Ġ195 7
Ġearn ings
Ġlock ed
Ġrepet itive
um en
Ġun int
Ġdefin ite
ĠH ills
Ġsh aft
ĠAl low
Ġsp iral
Ġdist ribute
Ġ193 6
Ġemphas izes
Ġmisc on
Ġtraff icking
Ġpr ince
Ġspons ored
ĠR ot
Ġset up
P N
Ġflu orescent
Ġjuven ile
Ġn od
ĠCl oud
Ġp onds
ĠF ortunately
ĠA bs
Ġadjust ment
Ġcarbohyd rate
w ritten
Ġexpect ancy
m el
Ġtra ps
b ian
ĠR ange
Ġman ure
vironment al
Ġair plane
D ig
Ġcl ause
Ġreason ably
val ue
ĠSh ah
ĠDon ald
e an
Th ank
ĠInstit ution
Ġ193 7
er get
Ġsouth west
Ġbra ve
Ġcomment ary
Ġpreced ing
ansk rit
ĠP ale
un n
Ġthe ater
Ġdef ensive
ĠMan ufact
ĠB ec
Ġopp onents
Ġult ra
ĠGal ile
Ġepit hel
Ġimp ly
Ġmain land
Ġru pt
IT Y
ĠThom pson
ount ain
ov al
Ġcyl ind
T ype
ere r
o ys
ĠFin land
ĠPrinc eton
R N
p ox
Feb ruary
Ġur anium
2 50
ĠUs ed
Ġtable t
Ġsew age
ĠM ason
iv ism
ĠO wn
Intern ational
ĠNapole on
N ovember
Ġrefuge e
Ġra mp
Ġlaw yers
m ination
Ġadv ancing
Ġdu ct
ĠCamp bell
Ġm aj
ĠS ah
Ġhe red
cl er
H R
ĠT an
ĠSt age
Ġautom ation
oresc ence
Ġw ip
ĠVirt ual
Ġbo il
Ġlim estone
Ġsick ness
Ġcon ceived
Ġv est
ĠRep orts
Ġoutl ines
F F
Ġ Å
Ġ iod
ren cies
Ġam end
Ġret ina
Ġweakness es
ot ine
Ġ19 16
ĠAb d
ĠPC B
ĠD ream
Ġstri ps
ĠOrgan ic
ĠAp ost
Ġcle ans
um ble
Ġspecific ations
Ġkilomet res
d ata
Ġg rief
ĠC hem
ay an
Ġtrium ph
st ones
id ney
ĠAll ied
ach ment
Ġdam s
T reatment
r ill
ĠRail road
Ġsovere ign
H C
Ġra pe
els ius
Ġimbal ance
an ical
ign ment
Ġdem ol
Ġpass words
Ġaccount ability
Ġlength s
ĠMont ana
ĠResp onse
ĠOffic er
Ġdisplace ment
Ġcred ited
B re
Ġt rop
ad ies
00 1
ĠCo ord
ĠByz antine
Ġf ocal
Ġsl opes
IN E
oc hemistry
ĠSh are
ateg ory
Ġtra ils
ĠA ware
Ġdis l
Ġcav ities
ĠF u
ĠV ision
M icro
f uel
Ġso f
Ġac ou
enez uel
ĠG ender
Ġav iation
Ġembry os
th alm
Ġcl ergy
ĠMan ager
g raph
Ġn ail
Ġfor um
Ġdro ve
Ã £
ĠPl ato
Ġver bs
Ġfort une
Ġattend ance
Ġhol istic
Ġinvestig ators
ĠVol unt
Ġt une
int end
Ġcomput ational
ĠK er
Ġrecip ient
ĠFa ith
ĠAlber ta
Ġdivid ing
Ġparent ing
Un ited
G M
Ġt an
Ġan not
ĠJ ob
Ġnan op
Cont act
ĠSus an
Ġb ent
ĠS W
ĠP TSD
Ġpat ience
Ġbelie ving
Ġsqu ares
Ġwed ding
or ia
Ġexcite ment
Ġex agger
ĠLess on
D s
ĠAl an
al ion
Ġ19 15
Ġcal orie
a ic
Ġp iv
Ġb end
ain ted
row se
Ġsch izophrenia
Ġac ne
Ġreg ression
Ġdark er
Ġsurvey ed
ĠSte ve
Ġh ipp
Ġsemic onduct
âĢ ³
Ġ8 7
ĠTransport ation
Ġmon itors
Ġpress ed
ĠGe ological
ĠVis it
I E
Ġex terior
Ġgra pes
Ġend emic
Ġback ed
ĠFor ces
Ġmar ble
Ġfrog s
ĠL en
Ġnon profit
work ing
ĠBM I
P op
ĠM orm
ĠAn na
Ġtransc ription
ĠM R
Ġj ury
Ġg am
ĠUN ESCO
ple asant
ĠAgain st
m o
Ġreve aling
Ġcompar isons
n as
Ġs outheast
Ġd awn
ĠIn fect
Ġover head
Ġmeth yl
Ġenthus iasm
Ġb ru
Ġan terior
the ir
Ġopp ression
Ġinter section
Ġath lete
ĠHarr is
Ġarbit rary
Ġdisput es
Ġ195 4
pat hetic
m un
N ever
sp ace
Ġj e
Ġbless ed
ĠAlf red
Ġor ph
Ġ19 11
ĠAt hen
Ġpath ogen
N orth
Ġair port
ĠAd m
Ġgre ens
ĠProduct s
Î ¹
ĠDyn asty
Ġun stable
Ġconqu est
/ .
ĠCh annel
Ġ9 2
ĠZ one
Ġcoll agen
ĠHy per
s ocial
ĠEn s
son ian
Ġalt ar
Ġkne es
ĠIn j
Ġhum id
Ġgener ators
Ġblind ness
ĠCh ronic
Ġdifferent iation
Ġbel oved
Ġpain ter
Ġmen ing
ĠSing h
ĠM aj
Ġresearch ing
Ġb ibli
Ġth rowing
Ġun ch
Ġcivil ians
Ġbreast feeding
amil iar
ĠA BC
au coma
Ġparas ite
icular ly
rit ical
Ġgen ius
cont rolled
ĠN A
vel and
Ġev apor
âĢ ł
Ġsome body
Ġvoy age
Ġple ased
Ġenjoy ing
c ott
Ġcont ag
ew able
Ġhous ed
T R
ic us
Ġg ates
Ġart work
Ġconf idential
Ġtuber culosis
at ter
Ġw olves
ĠAnth ony
Ġc ite
Ġe cho
ĠJu an
Ex per
st ra
Ġfe ared
ĠP apers
Ġdisturb ance
ĠChall enge
ĠG ate
ĠOver all
Ġse als
ri pp
Ġinv ite
Ġsuccess or
ĠEgypt ians
A ccess
is ers
ĠM ol
Ġpsych iatric
ĠSer ver
Ġindirect ly
Ġblo oms
st op
Ġinc on
Ġ8 6
Ġlow ered
Ġmyth ology
Ġbeet les
Ġgra vel
Ġdetect ing
Ġconv ince
ĠPan el
Ġdevelop er
other mal
ĠCal cul
og g
ĠT ow
Ġcalcul ator
ixt ures
ĠMo z
Ġbless ing
Ġr ush
ang les
Ġvis itor
Pro v
S te
Ġim plicit
Ġ193 5
Ġt in
Ġinst antly
Ġche wing
Go vern
Ġengine ered
Ġmat ched
Ġadop ting
h ad
Ġthe ft
Ġoverl ap
Ġthe atre
se en
Ġemit ted
ĠSo on
Ġscholar ly
ĠP S
Ġposition ed
rim ental
Ġdisadvant ages
Ġc aves
ĠI oT
ĠW aste
Ġam id
ĠBl og
Ġinterf aces
he rapy
Ġ19 13
Ar ch
Ġpul p
ĠLike wise
Ġwitness es
ĠLank a
Ġc ivic
AC E
Ġimport s
Ġdon ated
Ġvit ro
Ġhero es
S QL
Ġ19 29
ĠInf lu
Ġreject ion
w er
Ġth under
Ġcons erve
pr ising
Ġremov es
Ġund oubtedly
Ġ195 3
ish ops
Ġpop ulated
ĠGet ting
ĠDemocr ats
Ġjewel ry
Ġvisual ization
Ġhem isphere
Ġsup reme
ĠLic ense
ĠAr n
ats on
ĠPl ate
Ġcond ens
Ġoccup y
c ultural
Ġed ible
Ġdetect or
Ġw ore
al ks
Ġch ord
hy l
Ġbutter fly
Ġunderstand s
Ġarchitect s
Ġtermin ology
ĠP eters
Ġgl oss
t elling
Ġcent r
Ġris en
Ġgr ate
ĠReg ular
Ġacceler ated
Ġle mon
ĠZ oo
Don ald
Ġt u
ĠG ordon
st ory
Ġmon ks
ĠGh ana
Ġb acks
ĠB aker
ĠTra ditional
ĠDisc overy
Ġu b
ac cept
ĠAd vent
Ġabol ition
weg ian
D ue
ĠA CT
Ġob ey
Ġgrow ers
ĠLaw s
Ġt sun
ĠE t
ex per
U RE
and al
Ġtend on
Ġexpend iture
ĠFest ival
M s
Ġfl oss
Ch ina
? ?
Ġd ur
ĠL ORD
x x
Ġup grad
iber ia
Ġ195 8
c irc
f ar
ra wn
Ġmin ers
Ġhem orrh
t own
ĠL A
Ġsl ip
Ġo t
ĠD ogs
Ġcoc onut
ĠNorm an
ĠT ools
Ġarr iving
Ġrecre ation
Ġanten na
Ġl oses
ĠT ask
em ption
ĠR idge
of ten
Ġamph ib
ĠE ver
Ġlog ging
ĠDet roit
Ġreven ues
ace ae
Ġsou p
ĠReg ister
ul ing
cc oli
Ġc os
Ġin ert
ĠCon struction
Ġflo ors
ophag us
Ġout ward
Ġcap ita
Ġhyd roc
à ¸
Ġnotice able
Ġproport ions
Ġfertil izers
Ġemotion ally
ĠColon el
Ġmon keys
Ġpost erior
Ġneg lected
Ġt elesc
ĠVill age
Ġinform ative
Ph ot
Ġpig ment
ile m
Ġcig arettes
Ġsum m
L ook
ĠE ight
Ġstud io
Ġopen ly
Ġer ad
Ġfront ier
Americ ans
Ġm arsh
Ġur ged
ĠAut ism
K ing
ĠS audi
Ġcan on
Ġpil ots
b rain
ĠN am
Ġpron oun
Ġman eu
br aska
t is
tern s
Ġcy cling
Me anwhile
) (
ce phal
Ġbl ast
Ġassum es
Ġy esterday
ĠP el
ple ment
ĠT el
Ġmicrosc opic
E st
f amily
Ġre nal
ot onin
els h
Ġext r
Ġ12 5
T I
ĠInd o
Ġdown stream
ĠBrazil ian
Ġ9 4
Ġmind fulness
ĠTechn ologies
ĠClass room
g rowing
ik ipedia
ĠR u
oth ic
Ġl acks
rib ing
ĠEvery thing
M al
Ġsimilar ity
ĠDo ctor
ĠProv ide
Ġth irst
In stead
Ġrot ating
Ġf ake
Ġprint s
OR E
ĠMad ison
Ġmand ate
ĠHigh way
la very
ĠLiter acy
Ġm ating
il k
Ġsp iders
Ġmenstru al
e lectric
Ġarch ive
zz le
Ġclar ify
ĠA le
Ġdet rimental
ĠEngine ers
Ġrank ed
Å ¡
Ġunc ont
Ġfavour ite
G erman
Ex ample
Ġ195 5
ĠC ov
ĠB irds
Ġcand y
ed a
Ġrob otic
Ġenterpr ises
N atural
Ġd row
ĠA th
Ġdet ox
Ġoxid ation
Ġschool ing
Ġcur ved
Ġer r
Ġaccum ulated
ĠH orn
ĠProg ress
Ġstro kes
i per
Ġhand y
Ġequ als
Ġlearn s
Ġgovernment al
Ġhyp ot
Ġshap ing
Ġceremon ies
ĠAnton io
Ġdescript ive
ac a
Ġab brev
Ġun h
port ant
Ġjournal ists
ĠÎ ¼
in burgh
Ġd ip
Ġrecord ings
year s
ĠRel ated
Ġchlor ine
d iv
il ization
ĠV ice
Ġb ass
ĠE X
ĠK ant
ie g
ren heit
bour ne
Int erest
Ġutil ization
Ġwin ner
Ġf ont
N E
ĠB eth
pl ess
Ġbl ades
Ġ186 1
Ġlifesp an
Ġdisc on
Ġimpro per
ĠAtl anta
ĠJoh ann
Ï ģ
ĠPh ase
Ġrespond s
Ġconver ts
Ġstr ive
f ires
ĠThe od
ĠL aur
ĠPer formance
Ġcoal ition
d in
ort ing
lud ed
Ġproject ions
Ġpup il
ut t
alth ough
E nd
ĠS ent
Ġser ial
ĠLa ure
ĠApplic ation
Ġun e
Ġcur ves
orth y
ĠSen ior
Ġmerch ants
ch t
ĠG IS
ĠL yn
Ġoff shore
Ġw ives
Ġprem ium
M C
j u
ĠD anish
ĠV in
Ġco il
Ġbra ck
cess ion
Ġide als
Ġmot if
l anguage
Ġe ll
ort ium
Ġorgan ised
Ġcoord inates
Ġconqu ered
Ġdeliber ately
Ġpsych ologist
Ġb unch
ad ium
eg rad
Ġdel ays
Ġparad ox
ĠAct ive
abit at
Ġme ats
ĠWork ers
Ġobser vers
E lect
ĠWalk er
Prof essor
Ġin land
ĠE pid
ĠJ oy
Ġgly c
Ġdesk top
ary n
Ġpe aks
Ġyear ly
Ġfet al
n c
O pen
ĠHe aven
last ing
Ġder ive
Ġconver ting
Dav id
ict ional
Ġsal iva
Ġdown ward
Ġarch ives
Ġc age
Ġres in
ĠApp lied
Ġgot ten
ĠAP I
ĠD a
Ġident ities
ĠLet ter
ie ve
is y
ov irus
Ġkill er
S et
f ed
Ġtra ject
Ġattack ing
Ġdi agrams
Ġday light
m ile
Ġ195 2
Ġcha os
Ġo kay
Ġp ays
ĠC elsius
ĠP arent
Ġrisk y
Ġrein forced
Ġrecon cil
e ger
Ġ ).
ĠM aced
ĠE lementary
Ġmot ors
Ġlif elong
ro f
ĠT am
Ġgl ut
ĠHung ary
M ult
Ġimp ose
Ġcle ver
Ġinteract ing
Ġdefic iencies
Ġrelax ed
ĠGand hi
Ġperf ection
Ġm esh
ĠB rief
Ġtransl ations
Gl obal
Ġh ire
ĠD oc
for cing
gen ic
Q U
ĠK u
Ġrock y
Ġrab bit
b earing
ĠCh ris
Ġundert ake
ĠT elescope
ĠS ax
ash i
ĠRepublic ans
NA L
Ġconnect ivity
Ġdin osaur
mind ed
Ad ditionally
ĠCa uses
Ġappe aling
Ġh atch
ĠSol utions
Ġc roc
Ġgradu ates
Ġchlor ide
Ġmim ic
Ġh ook
ct ory
Ġass ured
ĠRel igious
ate ur
ric anes
op ause
oc ard
Ġunder going
p ositive
Ġ 00
ĠSp eech
Ġhar bor
Ġincent ive
ĠAust rian
Ġpron unciation
ĠC atherine
ĠD A
hist ory
worm s
Ġpersec ution
ou ver
re view
ert ility
Ġad ren
ĠPr ivate
Ġaccum ulate
Ġun pleasant
Ġlab s
Ġbicy cle
Ġn atives
ic idal
Ġde eds
Or gan
ĠW ard
ĠJ ay
Ġmig rants
he tt
Ġrepl ication
Ġpossess ed
Ġb ubble
ĠH erm
Ġland mark
Ġdop amine
Ġ15 00
Ġstret ched
ä ¸
plic ate
Ġrenew ed
Ġgall ery
Ġmag azines
Ġinhib it
Ġterror ism
Ġpl ains
Ġcab in
ot ics
ur i
am y
ĠB uck
Ġco ach
Ġ8 9
ĠS ic
Ġweak er
ĠMot or
Ġmagnific ent
f requ
ĠB ear
iam i
ort ic
be at
Ġinit iate
199 4
ocr ine
Ġrepl ied
he ads
ĠS ide
ĠInd ependent
Ġcompr ising
ĠKar l
ã Ĥ
Ġproport ional
Ġcult urally
Ġult raviolet
Ġ ðŁ
Ġunc overed
ĠBra h
Ġfrust ration
Ġbron ch
S O
Ġe ch
art icle
ĠSt op
ĠV enezuel
Ġesc al
Ġinh abited
Ġinev itably
Ġsubsid ies
Ġf og
cl amation
Ġhost ing
Ġd ough
ĠVal ue
G I
c ode
s ki
ĠArchitect ure
Ġde generation
ah a
Ġseed lings
Ġw ard
Ġm our
ĠC ris
ĠDown load
Ġobser ver
Af ric
Ġm ould
Ġst unning
os itions
osa ic
ĠCamp aign
ot ted
Ġpe pper
Ġsc roll
Ġhyd raulic
Ġautom obile
Ġins omnia
Ġcr an
Ġdoub led
ĠM ir
ĠAl ice
ĠAnd roid
I X
Ġout s
Ġcl ip
Ġtravel ling
Ġreson ance
Ġeth n
Ġmonaster y
Ġun rest
Ġbes ide
Ġde ar
ah n
icro bial
ĠB eck
Ġimp art
ĠK ra
ĠM ike
mod ern
Ġn ails
s um
em br
uke mia
ĠNaz is
Ġintr insic
Ġmurd ered
F our
Ġcreat or
Ġen erget
Ġexp on
Ġexp osures
ER T
ĠLib erty
Ġf ierce
Ġend urance
Ġresid ual
ĠN one
Ġass ay
Ġtri ple
Ġ195 1
ĠDisc uss
Ġepile psy
in formation
Ġc ake
Ġactiv ate
ĠIndividual s
Ġthreat en
ĠCat hedral
Ġhope fully
Ġsign ing
Ġtherap ists
h ill
ĠRec omm
ĠS N
Ġse ized
Ġj ail
K E
Ġphys iology
Ġunf air
Ġo y
en ium
St ill
ĠSum mary
Ġcompr ise
Ġcasual ties
est ial
ĠLy me
Ġup right
ment ioned
Ġunder w
Ġimpl ants
ĠRail way
Ġst igma
Ġgener ous
Ġsuper vis
ĠColomb ia
W ar
Ä ±
ĠM ig
ĠIdent ify
ed es
ĠIll ust
out heastern
Ġun aware
Ġt yr
Ġex cerpt
ĠL eft
Ġra ins
Ġbel ly
ĠOr ange
Ġc ovenant
ĠD in
Ġpros pective
ĠEval uation
Ġreg iment
ĠDel aware
Ġu pl
Ġst olen
Ġdr astically
ĠCong o
ÃŃ a
ĠPub lished
ibl ings
ĠJon athan
Ġrender ing
b ad
ĠG H
ĠW a
Ġhit ting
Ġcorrespond ence
ĠEst ab
Ġby pass
ess ive
Ġbl u
ĠCar ter
Ġapprec iated
Ph one
Ġgl oves
Ġcelebr ations
Ġsupplement ation
C ross
g one
Ġex ile
ĠLeg al
Ġsc ler
ĠCh and
Ġtim eline
Ġspr ink
us p
ĠH old
Ġsn acks
ĠIsrael ites
p arents
Ġe ighth
ap olis
Ġinv aded
Ġclear ing
ĠB Y
Ġdisp roportion
ĠCr ime
Ġcig arette
ĠR ivers
Ġpe pt
Ġsub ord
Ġfin ite
Ġcab inet
Ġpione er
ĠOther wise
er os
Ġs ulph
ĠB ruce
Ġelect oral
Ġaer os
ĠAra bs
ĠGen eva
Ġsun screen
ide press
Ġ9 1
Ġcou p
Ġloyal ty
M art
Ġ9 00
i ates
Ġt ires
own ed
Ġroll ed
ĠHor se
le an
ud al
ĠG ent
Ġcham bers
Further more
Ġv ague
Ġrec alled
Ġopp onent
Ġbi opsy
Ġ186 5
ĠCle veland
ĠFah renheit
ĠJohn s
Ġorient ed
ĠD ays
ĠSur gery
ĠHur ricane
Ġmicrow ave
ĠR ole
Ġrec omb
Ġpurch ases
ĠBarb ara
Ġpl um
car bon
v oc
ot or
Ġaffect ion
so ver
ĠAss istant
Ġ186 2
W atch
Ġar ist
G B
W ash
d oc
Ġmind set
ĠAware ness
col or
g ments
ĠO ral
Ġqual ify
s er
ĠM att
Ġnot orious
Ġpun ct
S earch
Ġdec ides
Ġsw itches
V al
oy d
Ġcompet ent
Ġmig rate
osc opy
ĠA ch
With in
ĠGre ater
st age
ac ious
ĠF alls
Ġcere bral
Ġfort un
Ġloc om
iqu it
Ġant igen
Ġresil ient
à¥ į
Ġdece ased
Ġpro st
Cl imate
Ġethnic ity
L ondon
Ġbirth s
Ġenlar ged
m aster
Ġref eren
ĠAre as
ĠPC R
al is
h ole
Ġsynt ax
Ġinc omes
Ġpe at
ĠAfric ans
Ġint imate
Ġinst ability
bs ite
ĠÂ §
ĠFl ood
names e
v able
ra ment
ĠM aur
Ġdep osition
Ġd ug
Ġdro pping
Ġl av
ĠR ace
ĠTh inking
Ġast on
n ik
ĠStr ong
ĠCre ation
Ġproceed ings
J es
c f
r ong
Ġac et
Ġwar nings
Ġcompet ence
ed ication
ac ial
and o
ph thalm
Ġ18 40
Ġperform ances
Ġnews letter
Qu estion
ad os
Ġjump ing
Ġdipl omatic
Ġall ocation
Ġarg uing
Ġle isure
ĠEc onomy
n ish
In formation
Ġtrad ers
ĠS ugar
ri el
L ooking
m g
ac ulture
Ġyoung est
Ġenc rypt
ĠPr iv
Ġpo ets
Ġmeas les
ĠSu ccess
IV E
om orph
Ġher pes
ĠGl ass
Ã ´
ĠLab our
ĠApplic ations
Ġre lying
Ġex empt
ploy ed
Ġank le
Ġman ually
Ġprov es
Ġpresum ably
Ġaggreg ate
ĠS ave
Ġperenn ial
e le
AL L
Ġveter inary
Ġvic inity
Ġc ognition
Ġeduc ator
Ġinfant ry
F act
ĠHam ps
il is
ĠD E
ĠSt ructure
Ġcatast rophic
ĠW H
ew orks
Ġar ising
Ġgeomet ric
Ġbip olar
ĠR oy
Ġhorm onal
Ġoutl ook
Ġflo at
iz ard
Ġcrypt ocur
Ġd ressed
Ġsh rub
Ġdiam onds
Ġmin us
Ġstret ches
Ġul cer
ĠRog er
Ġn ons
ĠAt mosp
Ġgrand father
Ġdistur bed
Ġsur plus
Ġband width
Ġprofess ors
Ġcelebr ating
ic he
Ġsin us
Ġwilling ness
Ġp s
ĠEd inburgh
Ġcompens ate
Ġmanuscript s
ĠS anskrit
Ġsol uble
Ġce ase
Ġ193 4
ĠP ick
Ġindu ction
part y
Ġa ph
Ġgraph s
ĠK le
Ġneg lig
Ġmal icious
occ up
Ġones elf
Ġintu itive
Ġdeterm in
se tt
ĠAb use
ogene ous
ĠHamps hire
ab a
ĠSc and
Ġfore most
Ġenh ances
Ġmarg ins
ĠGen etic
Ġresemb les
Ġp ie
ĠP ages
Ġsed iments
ĠHait i
Ġcompan ions
Ġeight eenth
ĠOpp ortun
Ġprolif eration
Ġact or
Î µ
Ġstim ulating
Ġlog s
Ġpresc ribe
Ġfract ions
Ġl ubric
ĠD R
ĠAd apt
Ġincl ined
Ġgrad ient
Ġrhet oric
Ġb id
ĠM B
ĠSt ore
à¤ ¾
Ġrou ter
f illed
Ġf ame
ĠJ ama
Ġcontem pl
ĠâĨ Ĵ
Ġequ ator
est y
Ġear ning
Ġdipl om
Ġkind ness
Ġimag ined
Ġcav alry
Ġlob by
ĠMonitor ing
ĠCl aud
Ġreact ive
Ï Ħ
ul ence
Ġdom inance
Ġne at
ult an
Ġ3 60
cl ock
Ġplant ations
Ġcertain ty
Ġrabb its
Ġob l
Ġdom inate
anche ster
s ign
Ġmin isters
ĠNe braska
Ġmiss ile
Ġdecor ative
Ġgu ards
Christ ian
L ow
Ġto e
lic ted
Ġwar riors
ĠIntern al
Ġback up
ott om
bi ology
bl ood
Ġcrimin als
at itis
ĠJ enn
be it
Ġfundament ally
E ffect
g rowth
ĠM obile
Ġwond ered
ĠSen ator
Ġdepart ure
Ġger ms
ith m
Ad ditional
ĠVers ion
fram e
ĠB iol
Ġfun eral
Ġneuro transmit
ĠVe get
ĠImport ant
Ġref ine
ĠSc reen
Ġmult itude
Ġprepar ations
Ġconv inc
ĠN T
Ġclin ics
Ġprivile ges
Ġdiscover ing
Ġmet allic
Ġfa una
Ġdisadvant age
o zo
Ġl one
gen e
i ots
ant i
ĠQu arter
ĠCom plex
Ġdiscont in
Ġen amel
Ġcont ing
ĠCl ay
Ġp ars
Ġbi ography
ĠSy rian
Ġlat itude
New s
Ï Ĥ
av ailable
Ġremind s
in as
Ġp ir
Ġbutt ons
Ġneed les
Ġjournal ist
ĠC auc
ĠB P
rom b
du p
ĠNor wegian
at um
Ġw rist
elt ic
Ġportray ed
Aust ral
Ġpanc reas
ol ation
ĠNav al
coh olic
om ething
ĠBern ard
Ġproclaim ed
Ġdon ation
ĠSim ply
Ġdisturb ances
is en
Ġun equ
Ġ190 5
ĠDO I
Ġic onic
ĠM ade
Ġ( $
ĠY ah
Ġele ven
st art
Ġout let
cy cle
ops is
Ġang el
ero ids
ĠIncre ased
Ġregen eration
ĠB iblical
ĠY ang
ĠCon cer
osp ace
Ġdro ple
add le
f ig
Ġbas al
ortun ate
Ġcast ing
Ġseism ic
N ET
ig raph
Ġt el
l ia
in ators
rib es
ĠComp et
ĠCanad ians
R ad
ect ar
Ġcon e
Ġsocio economic
Ġdon ors
ĠRevolution ary
ĠPublic ations
Ġdecent ral
Ġaccess ing
Ġyog urt
s ch
ig hed
ant ing
Ġdig ging
Ġinteg rating
> >
c ium
Ġm erc
ĠG ran
ĠTe ach
Ġcommod ities
p ace
ble m
Ġreflect ive
Ġc ad
ĠC ou
Ġparagraph s
ĠE gg
Ġpractition er
ĠReg iment
Ġnot eb
ĠN ik
Ġcor rid
Ġwond ers
ĠAL L
ol o
Ġvis ibility
Stud ies
Ġinhib itors
Ġrod ents
ke e
ave ment
b as
or able
Ġw rap
um ption
Ġcapt uring
Ġc ents
Ġm ph
Ġport folio
Ġseaf ood
ing le
Ġcons cience
ograph ies
p ath
r atory
ĠM t
Ġsp ur
Ġinf ilt
ĠSt ay
Ġmal ware
ÃŃ s
g ro
ĠR ud
Ġmer it
Ġsau ce
Ġlove ly
ĠRec overy
Ġtort ure
it ations
Ġin aug
Ġgr inding
Ġsal ts
Ġinstruct ed
ĠElect ronic
sell ing
Ġauthent ication
Ġshr ink
Ġs ized
Ġform ulas
Ġtooth p
izz iness
ess ed
Ġrec k
ĠMar ie
pher d
ĠAn throp
rote in
an us
Ġsp are
Ġgo ats
ns ic
ve t
Ġde le
ag ic
ĠH ep
ĠColl ins
ĠColl abor
T ypes
i ably
on ium
Ġmar itime
D em
l ook
he ter
ĠAut om
ĠDiv ine
ĠIn novation
Ġsket ch
ĠK az
Ġpred isp
ĠVar ious
Pres ident
Ġcoh ort
Ġcon gen
ĠP rad
e ffic
ĠD iam
ĠF light
Ġpanc reat
ĠPediatric s
ĠC ognitive
com b
Ġunp redict
ap hyl
ĠSmith sonian
Ġdial og
Ġcoron avirus
Ġspecific ation
Ġammon ia
Ġn ov
ĠSt ruct
Ġgen ital
Ġcollabor ate
ĠSouth west
ĠRet urn
o ar
Ġin qu
ĠFl ag
Ġorb its
Ġsel dom
T est
l ived
r ise
Ġann oy
Ġeditor ial
Ġcont raction
yl um
Ġspin ning
Ġdisc oura
ĠEb ola
ul u
Ġca ut
Ġcapt ain
Ġpurs ued
ĠD ent
ĠFl ash
ai ro
1 12
K S
Ġin acc
ĠV A
Ġemb ark
Ġs ixty
ĠI F
Ġall ocated
top l
Ã ł
Ġprof itable
Ġrandom ized
Ġannounce ment
Ġcommun ist
Ġback ward
Ġtransl ates
ĠRef uge
Ġamb ient
Ġcaps ule
ĠM iami
Ġst ool
ĠG ray
Ġwork out
Ġph y
anc ouver
hel p
Ġd ors
Ġrec ession
Ġt iles
Ġcor ps
Ġve ctors
Ġterror ist
Ġpubl isher
Ġover th
ĠV II
govern mental
Ġreported ly
B O
Ġh ast
Ġey el
Ġs aint
ov ol
ĠWar ren
Ġstat ues
Ġcit rus
Int roduction
Ġcompl aint
f s
n om
Ġencl osed
Ġhe el
form s
he ster
ĠRo om
Ġtens ions
F ollow
N G
ol uble
Ġcit ations
Ġnurs ery
Ġremind ed
p rop
Ġinstruct ors
Ġcorpor ation
he ll
Ġbenef ic
br ush
Ġgif ted
A ng
a an
ĠH R
ail ure
ffect ed
Ġlif ted
199 3
Pro t
ĠJosh ua
ĠW oman
ĠF ab
t ings
Ġt icks
ĠM C
Ġsh out
Ġpast ure
Ġrevers ed
Ġcondem ned
Ġdr ift
Ġoffer ings
Ġscr ut
W ind
Ġg em
Ġrep airs
Ġsol ids
ential s
Â »
en z
ĠMont real
os able
Ġac upuncture
M aking
Ġp agan
Ġang els
Ġlib eration
Ġst up
Ġstat istically
ĠSpec ifically
R ich
ĠR ice
Ġven om
Ġdesign ation
Ġnation ally
ipp er
D irect
O ld
m ount
Ġg olf
umb ing
ĠHarr ison
Ġwavelength s
Ġmag ical
ĠP ul
Pl an
Ġpassion ate
U ST
s olving
Ġre velation
qu in
Ġentreprene ur
Â ²
Ġ1 15
ĠK an
Ġgen eal
âĢ¦ âĢ¦
Ġfluctu ations
A nal
Ġle ver
Ġrest oring
Ġopt imum
Ġfrag ment
Ġdimin ished
Ġp a
ĠL inks
Ġdemonstr ations
Ġcritic ized
Ġrept iles
ĠSal mon
develop ed
bet ween
Ġbl oss
hat tan
ĠBab y
Ġnow here
Ġsl aughter
w ave
il iary
Ġref ere
Ġsw ift
ogen ous
can cer
Ġinject ions
Ġsupp ression
Ġbi ologists
< /
ra its
Ġpur ity
Ġwa ist
ĠAr c
Ġfold er
Ġsearc hes
B R
Ġs iblings
Ġcons on
Ġactiv ist
Ġsmok ers
Ġl id
Ġl ava
ĠK am
ĠV ari
Ġquestion ed
rim p
ĠChar ter
Ġdatas et
s ix
Ġanal ogy
Ġplant ation
ĠGen etics
Ġinsp iring
ĠDub lin
ĠB iod
Ġrepet ition
f eld
w ig
St and
l ined
ĠF ew
Ġsupposed ly
ĠLead ership
eng ue
ĠIm agine
Ġconvent ions
Ġarsen ic
Ġb ricks
ĠA part
Ġra y
we b
Ġbre w
Ġbe an
ĠH ob
Ġbal ancing
ĠPear l
Ġvol atile
Ġjud ged
Ġvag inal
l ad
ar ound
Ġpock ets
n els
V A
ĠC ool
ours es
p ool
Ġd ome
ir i
pr ints
As k
à ®
Ġb amboo
ĠP in
ĠL ud
Ġge ology
Ġthread s
ĠBeng al
in av
ĠR ules
ĠN othing
co al
ĠR ound
Ġunf amiliar
ĠCorn ell
Ġtelesc opes
Ġe g
omet ers
Ġpenet rate
ĠQueens land
le ft
th ms
ĠV iolence
Ġp ills
Ġcaus al
na issance
g ia
Ġch i
Ġunder way
ĠMe eting
Ġwra pped
Ġcous in
Ġlux ury
B i
ad ata
Ġ19 21
Ġtr an
âĢ¦ ]
lip se
Ġsie ge
Ġn u
Ġg ri
ĠM L
Ġapp rent
ĠK ath
Ġsim plicity
Ġgu y
ĠEth ics
Ġex ceeds
ĠG E
ĠSp rings
Ġ193 2
Ġtransf ers
onge vity
ĠP overty
Ġcollaps ed
x ia
Ġlim itation
ĠBar n
Ġham mer
F rench
ĠM end
ap le
Ġsy rup
ĠMay a
Ġancest ry
F O
ĠÂ µ
eal ous
ĠV III
Ġcompet itors
Ġprejud ice
Ġt ricks
ĠF ern
Ġfest ivals
ĠOper ation
ĠH ubble
Ġsp aw
Ġeconom ists
rim inal
g rass
Ġharm less
Ġben ign
Ġmar vel
Ġaccount able
m ass
ĠT anz
Ġair way
CD C
Ġref lux
ĠSur v
Ġcong regation
Ġvibr ant
o op
t ec
Ġl ions
Ġneed ing
ĠNO AA
Mod ern
id en
ĠR osen
ĠAl ban
Sm ith
Ġto ss
Ġeng ra
ĠDis ney
ens on
Ġresur rection
ill in
Ġ19 22
ĠBre ast
Ġske leton
ac o
ĠO k
Ġel ong
lo or
c ounter
ĠAd ult
Ġsof ten
ĠC I
Ġdig its
Ġsuff ers
Ġclim atic
ĠCost a
ĠS it
ies el
Ġfav ored
ĠIS O
Ġd ull
Ġcolon ists
ĠBul let
e a
Ġl ap
ĠW elsh
ĠN ar
Ġphyl ogen
Ġsh ipped
ĠBre ak
Ġbub bles
Ġthere after
Ġbar rels
ĠFlore nce
L ar
b ishop
e ks
ĠA x
Ġdev iation
Ġsuccess ive
Ġbar rel
Ġcalcul ating
ĠScient ist
Ġvig orous
ill o
Ġhum or
Ġver ification
ĠMor oc
ĠC el
Ġsusp ension
Ġpump ing
U ntil
ĠK enn
Ġmul ch
Ġhect ares
k ill
Ġp ains
Ġcl osure
ĠPit ts
ĠUg anda
Ġdesc ended
ĠL ack
Ġn aming
Ġro ver
Ġuse less
on el
ĠC emetery
ĠCl ar
te chn
Ġtext ile
Ġsubt ract
Ġvine gar
Ġcontag ious
ĠJ am
Ġdisc ern
Ġcountry side
hy thm
ĠMur ray
Ġcompos er
Ġske letal
ĠViet namese
Ġwh oles
ĠF ast
Ġch ol
Ġlip id
Ġstere otypes
) -
Ġin effective
ĠN early
Ġ190 8
Ġforb idden
ĠRepresent atives
le en
Ġg on
a a
j ar
ĠO t
ĠC ole
Ġtreat ies
Ġlit eral
ograph s
C ount
o ise
Ġdep icts
Ġcr ushed
Ġlength y
ĠJ our
ruct ose
Ġprospect s
ar ious
Ġbright ness
Ġnarr atives
ĠB rian
Ġsw ollen
Ġphot osynthesis
l iness
ĠN H
d ist
in ctions
Ġm ars
Ġyour s
Ġunf ortunate
Ġdecl ines
Ã£ o
Ġbus es
Ġisol ate
IL L
ĠUk rain
Ġw ished
ll a
Ġblog s
UC N
iv ores
Ġgradu ated
Ġemail s
J ames
ĠT ab
vent h
Ġrout ines
Ġ190 7
Ġinn ate
Ġad vers
Ġdev otion
Ġlandf ill
P ort
Ġsem ester
Ġkern el
Ġag rees
Ġrecy cle
Ġpoison ous
ĠS AT
ĠB E
ĠBl oom
Ġuns afe
Ġupt ake
Ġinjust ice
Ġl amps
Ġhe ights
Ġscient ifically
P I
d eterm
i our
Ð º
ass ociated
Ġshort ages
ĠCo oper
ĠI Q
ĠH C
Ġsh oe
Ġgradu ation
ĠM anchester
est on
Ġfet us
Ġm aker
ĠF el
IC E
Ġsand y
Ġille g
os ke
Ġconf erences
Ġquestionna ire
Ġgra pe
ĠInf antry
Ġpla us
il ated
Ġsacrific es
E ss
M ich
p resent
Ġval leys
Ġimm ort
Ġbath room
ĠP erm
Ġinc oming
ĠSt yle
ob a
Ġcoc oa
ĠE uro
Ġproject ion
agon al
Ġcr ater
Ġk its
Over all
Ġd ilem
ill ation
ag os
ĠSt ev
Ġvers atile
hib ition
More over
es ters
Ġj elly
Ġcat ar
ĠPop ular
Ġenlar ge
l ooking
Ġc uis
ĠA pr
Ġinstit ute
Ġorb ital
ĠTibet an
Ġl uc
Ġ186 4
Ġbu il
Ġexpect ation
Ġsusp ic
ĠOrig in
ĠVerm ont
g as
v ings
Ġhum ble
Ġperiod ically
ĠEx change
Ġ186 3
Ġelectro des
Ġec lipse
ĠGo als
âĢ¦ âĢĿ
Ġp ork
al ph
Ġjust ification
ri k
Ġpolic ym
Ġacqu iring
Ġinvent or
Ġbom bs
l isted
atic an
ĠAc id
Ġencoun ters
Y ear
ou x
Ġimp ressed
Ġloc als
Ġgu iding
ĠN umbers
Ġwhere in
Ġconstruct ing
Ġmultipl ication
ab e
ĠE sc
Ġcommit ments
Ġconv iction
Ġw iring
d ale
ĠC ow
ĠH imal
Ġsp ores
ov ak
Ġsen iors
ĠC BD
Ġcapac ities
Ġst ub
ĠL em
ry s
Ġeven ly
gg ing
ĠPan ama
Ġanch or
Ġpo orer
Ġpersonal ized
Ġoptim ize
en er
esthet ics
Ġdi ary
ab us
Ġcontin ents
ĠContin ue
D ist
Ġm ites
min ated
O x
i Ã³n
Ġinc ap
Ġcar rots
Ġill usion
Ġwarm th
resp ons
Ġstick y
produ ct
n ell
ĠPhot os
ĠBrook lyn
Ġacc red
com ed
ĠShe et
ows ki
clus ive
ĠG R
Ġtemper ate
Rec ent
Ġspont aneous
ĠS ources
op ia
pr ise
k it
Ġsec rets
ly cer
ĠCont ents
Ġroof s
ĠFil ip
Inc re
Ġwor s
Ġrat ings
Ġbe ams
Le ave
Ġweigh ing
T ry
s qu
Ġle ap
Ġmal nutrition
Ġhat red
Current ly
Ġ18 30
uss ia
Ġpot tery
o an
Â ´
Ġst ance
ĠSy nt
Re view
ĠFact ors
ĠThanks giving
Ġgrate ful
Ġt idal
ans om
ĠPar ad
ĠExper ience
Ġsu ng
ĠRe ich
With out
i osis
É Ļ
oid al
nd s
Ġd rones
ric hed
ĠPro tein
Ġmet ast
Ġquestion ing
ĠConfed er
Ġoun ces
Ġra v
arr ison
ĠInst ruction
Ġoverwhel med
Ġv ibration
Ġdefic its
Ġexplo ited
Id ent
Ġp ulses
urn al
htt ps
u art
Ġl ent
ĠT ol
Ġund es
Ġtal ents
Ġcer amic
d el
ĠG I
Ġtail ored
Ġcirc ulating
af ety
D I
Ġst ip
Ġp ic
ĠC over
ĠPro ced
Ġsexual ity
Ġrect angular
M uch
Ġg rie
Ġtyp ing
Ġadministr ator
Ġform ulated
Ġ10 5
Ġmeant ime
ur ia
Ġce ased
Ġremember ing
m ain
ĠR uth
Ġgen ocide
Ġcorrect ed
ĠHol land
d ish
ĠCell s
ĠAdm iral
S al
ĠC her
ĠM E
ĠW atson
ĠL ect
rit ers
eg al
ĠC F
iv an
ĠSt re
rop he
cept ive
Ġline age
Ġansw ering
Ġap artment
en ers
ĠUnder stand
er ic
Ġun ified
Ġathlet ic
P age
Ġn ull
Ġsec re
Ġsk ip
Ġsuccess es
ĠSign s
Ġdismiss ed
á ¸
Ġt ours
ĠY oga
Ġshe er
ĠBe at
Ġcort isol
" ),
Ġn ectar
um erous
Ġcr ises
Ġcontribut ors
Ġsanct uary
z ema
ĠCreat ing
Ġgrat itude
ee k
Ġreact ors
Ġdos age
l ishes
ip al
Ġend orse
sh ine
Ġgamb ling
V itamin
W HO
b ach
ĠT rees
Ġad en
ĠSt ories
Ġsun ny
ript ions
Ġcra zy
ĠH end
orn s
Ġlight ly
Ġbelie vers
Ġreal ities
Ġpsych ologists
uls ive
or f
ĠM aterial
Ġprocess ors
oun cing
Jes us
h ou
Ġs ores
Ġg amma
Ġco efficient
Ġser otonin
ox y
ĠExp ress
Ġpyram id
Ġintrig uing
ĠWh atever
ri ad
Ġprop osition
Ġpred ator
Ġregul ates
ed ar
Ġm u
au er
Ġav en
Ġcop ied
Ġviv o
ĠAn swer
ank ing
Ġfil t
199 1
ri ver
Ġdiff ering
ĠV ancouver
ĠCons umer
Ġenjoy able
ĠDem ocracy
ĠS H
Ġcan opy
Ġreward ing
Ġdeterior ation
Ġo vere
Ġd read
and y
Ġse aw
Ġad s
Ġsuper f
Ġveget arian
Ġund erest
Ġtric ky
× ķ
ĠH arm
Ġconsec utive
t able
ĠA G
Ġins isted
Ġprint able
cont in
Ġ189 8
Ġrid ic
Ġs aves
Ġle thal
Ġant iv
ĠEm ploy
Ġbond ing
rop s
Ġfl ip
Ġed s
ĠPl ains
ĠWell s
Ġl am
Ġover load
Ġbur nt
ustain ability
Ġhered itary
c ore
st ance
Ġwar n
Ġhighlight ing
Ġcan vas
Ġman ages
Ġconfirm ation
Ġconsult ant
Ġbuil dup
S em
f ields
Ġm oss
ĠP E
Ġsp ike
Ġcrow ded
Ġacad emics
our ge
Ġfun ny
Ġfin est
Ġfram eworks
Ġcapital ist
Ġ190 6
Ġregul ators
ĠCauc as
n uts
Ġk iss
Ġquick er
S ection
Ġan nex
Ġdev ised
Ġmicrosc opy
pl ain
Ġair borne
Ġub iquit
t ail
Ġs aints
um atic
Ġlear nt
ĠF ra
Ġincorpor ates
d oms
Ġ190 1
Ġpod cast
Ġg aming
qu et
ell ite
Ġout reach
Ġt ones
at ra
Ġdr one
Ġimpl ied
Ġdistur bing
D E
S ah
ec d
ĠK el
bor ough
Ġphosph ate
Ġt astes
Ġo lig
Ġgu ys
ĠSh an
Ġfulf illed
Ġembra ced
oll ar
Ġadjust ing
Ġinh al
Ġintoler ance
u cc
ĠS old
ject ion
Ġprop ri
Ġren amed
A ir
Def inition
1 18
at able
ĠCh art
ĠMan hattan
Ġreview ing
Through out
1 000
ĠCam er
Brit ish
Ġmuc us
Ġdeliber ate
ĠC ant
g om
Ġa wards
ĠB ir
Y S
s a
ĠPress ure
R ober
ĠD I
yr us
ĠCreat or
Ġstimul ates
Ġenerg ies
L ead
Ġd edication
Ġsw ing
Ġcontrad ict
b ase
Ġo wing
ra h
ĠA F
ĠD ow
Ġstrengthen ed
Ġimp ed
Ġback yard
Ġbar ley
Ġsail ed
l ib
Ġwas tes
Ex amples
Ġp engu
Ġg rip
Ġsu its
Ġwor sh
ĠY OU
Ġcell ul
Ġhier arch
e ast
ĠJ ere
Ġad here
Ġl ime
Ġnow adays
ĠEx cell
Ġswe pt
Ġcere al
Ġbomb ing
Ġpix els
c lick
Ġen vision
Ġimp ulse
ĠAtl as
Ġdepr ived
S an
se ver
ĠS R
ĠS ure
Ġen jo
arc ity
Ġgrand mother
Ġaccident ally
Ġintric ate
Ġsw itched
Ġvir gin
Ġinver te
ĠT amil
Ġastronom ical
Ġconstell ation
ĠR ic
Ġ190 9
ĠSte in
Ġcater pill
ĠÃ ¢
Ġfabric s
Ġenerget ic
T ext
i oma
ĠPh araoh
O ff
T em
Ġen forced
all as
ĠCh amp
Ġph il
ĠApp roach
ĠProject s
odynam ic
ĠVen ice
ococc us
Ġ193 1
Ġbrut al
R ev
c ra
ĠI gn
Ġsent iment
Des ign
ĠC ities
ĠL ibr
estab lished
m ium
ĠW et
9 00
Ù ĳ
qu er
Ġdownt own
p end
Ġn ets
Th ink
Ġnic otine
Ġcolle ague
ĠNe ither
Ġpack ets
Ġlib ert
ĠCitiz ens
M I
Ġbe ads
ĠG A
ah u
ĠId aho
ĠAS D
produ cts
Ð »
ĠR w
eng es
Ġtrad em
Ġan onymous
Ġwh olly
Ġadd ict
Ġexam inations
Ġgroup ed
Ġred ist
oar thritis
ĠT ang
ore ct
Ġfor age
Ġv oid
essor i
oc ular
Ġrepe ating
a que
Ġrespons ive
ĠFam ilies
roid ism
ab i
Ġprov ing
Ġbr ig
Ġleg ends
ĠM amm
ia e
rop ract
sc ribe
con duct
ĠChild hood
Ġban ana
Ġshut tle
P aul
k ets
Ġb other
aur us
Ġhypothes es
G old
at ar
ic ated
Ġre per
Ġbi ologist
ĠRuss ians
sm all
N R
ĠTr inity
On line
G H
s ac
Ġl od
Ġcapt ive
ĠPat ri
H y
Ġin security
Ġr idge
Ġcharacter ize
Ġinterview ed
frequ ency
l ated
ch lor
Ġne on
Ġcomp ares
Ġfam ine
ĠAr g
oph age
199 2
Ġnit rate
Ġsh ades
Ġam ple
ĠEffect ive
ĠLeban on
Ġthe ological
ĠP ant
Ġhel met
Ġgl aucoma
Ġcontin uity
Ġsocial ist
Ġprev ailing
ĠPract ices
Ġatt ained
Ġspe eches
Ġseiz ure
ĠPl uto
X X
ĠClass ical
Ġl ined
ĠR AM
Ġform ations
ĠGe ography
Ġste al
Ġnick el
od ic
ĠH us
ĠD VD
anc ers
Sh ort
ĠNG Os
ĠP and
Ġco herent
Ġthink ers
Ġarchae ologists
Ġhe ir
ĠN ick
Ġdisc rete
Ã Ĺ
Ġrel iance
Ġdel ivers
Ġrein forcement
ĠPsych ological
Ġtsun ami
Ġc ured
Ġd uck
Ġwas ted
Ġle verage
ace a
Ġadd itives
Ġmod elling
Ġmed i
c lic
Ġ !
Ġ \
Ġab rupt
Ġeduc ating
ĠPark er
Ã© e
Ġrobot ics
ĠMorm on
ad ron
Ġan omal
Ġant idepress
with out
ĠEv ans
Ġw icked
ars on
ĠReg ist
fu els
ĠA id
aj a
ĠIran ian
ĠTop ics
Ġmet ropolitan
Ġden ial
Ġab used
Ġve gg
e very
in ians
ĠC hes
bo at
Ġprison er
Ġind ef
Ġbi ochemical
ĠNo ah
Ġout lets
Ġthir teen
Ã Ĥ
Ġ ____
il ic
ĠN it
sc he
Ġcross es
ĠUs er
Ġoutput s
Ġprem ises
Ġfrust rated
ĠC osm
ĠR S
Ġfl ock
Ġco oper
Ġprotect ions
ĠGen e
ĠSte ven
Ġrhy thms
N umber
op athic
Ġsym pathetic
Ġview er
Ġmight y
ĠBr anch
Ġbe verage
Ġcivil izations
Ġom n
ĠS ut
Ġrel ay
Ġ2 20
ĠDe al
ĠAd ults
Ġjud gments
ĠNAT O
Ġrese t
fact ory
Ġconv icted
ĠOper ations
Ġe ats
ĠC rus
Ġar ter
Ġup wards
Ġel bow
Ġsal ad
col ored
in is
ĠRec ently
Ġmig raine
Ġintest ines
ĠInvest ig
ĠInterest ingly
ĠSt orm
Ġsystem atically
Ġref ract
ĠGra ham
Ġvac ation
d et
ĠA A
ĠR ural
Ġle ukemia
ĠN iger
Ġvers a
ophy ll
o ffic
Ġant agon
Ġbud s
Ġinherent ly
Ġparliament ary
ĠDr ive
et us
ĠM ut
ĠD est
ĠAssoci ate
def ined
Ġchair man
Ġborrow ed
Ġencomp asses
Ġdesper ate
Ġsp ear
Ġdisplay ing
Ġb oss
Ġm ills
ĠT ru
Ġpo orest
Ġail ments
D ifferent
o ft
pl aces
Ġprogress es
ĠGreg ory
Ġt ennis
Ġra cing
Ġwater ways
Ġpredict able
EC D
Ġg ad
sh ire
Ġcapt ivity
Ġhur ricanes
Ġbro ccoli
Ġarr ives
OR T
Ġhom eland
Ġwel comed
ovol ta
T ur
b uilt
us able
ĠL ooking
Ġbr ass
de hy
Ġremark ably
ĠIn sp
__ _
Ġopt ic
Ġcel estial
B ig
Ġtop ical
Ġmis leading
Ġsmart phones
Ġb aked
Ġsub mer
ĠJud ah
ĠMess iah
? âĢĻ
An swer
ĠAssoci ated
Ġdepr ivation
e h
ĠL ore
Ġcatch ing
Spec ial
r ational
Ġconqu er
Ġmorph ology
Ġoxid ative
Ġdolph ins
ithm etic
ĠP ole
ĠH ond
ĠL ock
az ing
Ġtruth s
Ġmira cle
Ġsh ake
Ġsh ores
ĠBut ter
ĠCor inth
ĠSy mb
ung le
Ġlack ed
Ġfol lic
utri ents
im mer
ĠArt ificial
ĠS ed
Ġoccup ations
Ġiod ine
Ĺ ı
Ġ19 23
les i
com mer
Ġblood y
Ġhome owners
Ġmission aries
Ġtransform ing
m any
ĠM ak
ĠW ide
Ġ19 28
ok en
ĠColon ial
Ġcertific ates
Ġsle e
Ë Ī
Ġem ig
Ġsoc cer
ĠH alf
ĠE agle
Ġcat hedral
Ġcongest ion
op ot
Ġbre ach
Ġeld ers
Get ting
ĠZh ang
P al
Ġt ribute
ver b
ĠC eltic
Ġcommun al
ĠOl iver
Ġt enth
Ġnot ions
arm ed
ĠOlymp ics
Ġalk aline
Ġexplos ive
I ts
N F
Ġp ins
acter ia
Ġmart ial
Ġeleg ant
Ġl ump
ĠA ld
ĠSt reng
ĠK rish
ĠPro s
ĠDef inition
Ġmush rooms
r ators
ĠRem ove
B E
U K
g rown
Ġd izziness
Ġwet land
C all
Ġc iting
Ġh alt
Ġfinanc ially
Ġobsc ure
ĠLie utenant
Ġd iving
ĠI CT
Ġint end
Ġ19 25
Ġaw a
ĠParticip ants
ic ient
ĠV it
Ġcor als
Ġaccommod ation
Ġal oud
ĠTh reat
Ġimag in
Ġex h
Ġpra irie
c ards
Ġl amb
el ed
Ġman if
Ġapprox imate
Ed it
Ġbasket ball
Ġsu ck
Ġsp ices
iqu id
Ġbank rupt
ĠRich mond
plo ys
Ġdec isive
rehens ive
osc ope
Ġnarr ator
Ġexceed ed
Ġasym met
ate mal
Ġex ting
ĠH ousing
ould er
Ġrank ing
Ġcul p
ĠBulgar ian
Wash ington
C y
Ġlight weight
Ġlot tery
nam on
P ress
ane ously
Ġtravel ers
Ġpix el
- ,
D an
in ion
Ġcry ing
Ġbuck et
um ed
ĠL as
Ġrot ate
Ġrac ist
Ġscal p
f a
ï ¬
Ġres ide
Ġlegit im
the m
Ġgl ance
ĠAb u
Ġstrugg led
ĠMit chell
S un
ster dam
Ġmas cul
in qu
ne red
Ġcolon ization
Ġfort ified
Ġvolcan oes
ĠMel bourne
Ġreluct ant
ĠIn side
You ng
ĠState ment
Ġsepar ating
AN S
Ġelectro de
L D
ĠH app
Ġafter math
ah l
Ġpast a
Ġtur key
ĠAugust ine
Med ical
Ġprophe ts
gom ery
R ight
Ġst arch
Ġpre historic
iss a
Ġmass age
Ġintrodu ctory
ĠLith uan
f i
Ġdirect ors
ĠGen eration
ĠUlt imately
Ġha w
Ġle aks
Ġspecial ty
Ġmath s
ĠRab bi
Ġw omb
ĠSu ff
ĠInter ior
Ġaw esome
Ġru in
sor iasis
Ġj unk
amm ed
aff e
Ġfell ows
n an
roll er
Ind ia
Ġsimpl ified
Sm all
Ġb ust
am us
ĠRe h
ĠZ o
Ġresearc hed
ĠIde as
Ġf aint
Ġde form
Ġgen omes
het ical
Ġvirt ues
produ cing
1 30
à ¦
ig g
ĠP red
Ġ1 12
ĠR O
Ġpost ers
Ġto ken
Ġbe ats
ĠS ize
Ġon ions
ĠArch ive
Sh are
Ġfer mentation
Ġintention ally
me aning
ĠStrateg ies
Ġl ongevity
Ġchap el
ĠScand inav
r ines
ĠR ico
aw i
ĠEl se
Ġl bs
Ġ1 18
ĠV atican
Ġemer gencies
Ġinfluen cing
Ġaw aken
Ġrefriger ator
Ġt ribut
ar us
Ġinter change
ĠCo ff
ĠCy ber
Ġexp osing
Ġb ored
Ġexc use
Ġj unction
Ġrecruit ment
ĠCris is
ĠN ut
Ġcar ot
Ġh int
id ate
ĠV el
Ġtw ins
Ġins cription
Ġextract s
L ab
Ġ _
Ġfilt ration
n atal
Ġind ul
Ġcollect or
Ġrespect s
Ġcontribut or
ĠVal ent
Ġreb uilt
M ac
Ġg i
ĠK elly
ron ics
ĠMed ieval
ĠTre asury
ĠL DL
Ġsub mission
Ġrev olt
ĠOver view
Ġinterpre ting
B esides
Ġp aired
Ġbar g
AS E
ĠJud ge
Ret urn
le e
Ġembry onic
w ear
ach t
Ġinterp ersonal
Ġbra ke
it ating
Ġte asp
lu ent
Ġtravel led
L P
n amed
ty m
ĠGuard ian
Ġestab lishes
ĠRedu ce
ĠKnow ing
Ġlabel ing
Ġspin ach
Ġmir rors
Ġint eger
Ġev ap
ĠDevelop ing
Ġcontract ed
fall s
Ġanalys ed
ĠHot el
Ġma ize
fund ed
Ġcum ulative
re ason
ĠM ine
ĠD iversity
Ġevent ual
Ġhun ter
Ġbor ne
Bet ween
âĢĿ ),
Ġnational ism
Ġhot els
Ġenjoy ment
Ġnanop articles
Ġrem arks
Ġvisual ize
Ġdisc arded
rim ination
Ġmitochond rial
ĠH at
ass ador
otyp ing
Ġe lic
Ġgra ves
Ġpill ars
im et
ĠC er
our t
Ġtw ist
Ġemploy ing
Ġpropag ation
ur ry
ur ring
Ġthere of
me al
Ġhair s
Ġ å
Ġp oured
Ġre ception
Ġmar riages
Ġhyd rop
Ġrecip roc
Ġnumb ered
Ġunpredict able
ĠP ray
os ium
Ġdiff usion
ĠRe ason
AR E
Ġexhaust ed
Ġdispers ed
Ġour s
Ġrain forest
Ġaer obic
s ervice
Ġf ancy
Ġth rew
Ġ1 11
Ġform ulation
Ġcomment ed
Ġb achelor
Ġn ost
ĠE asy
amp us
U lt
Ġst air
Ġbu zz
Ġsim ulate
ina i
Ġobst acle
I ES
or p
Ġ17 00
Ġresid ues
Ġconvinc ing
S H
f iction
ĠB ened
Ġsc ored
Ġam ateur
Ġlong itudinal
ĠSp eed
10 4
Ġautom otive
cont ent
Ġconsult ing
Ġsusp icious
ĠCoast al
Ġp ens
Ġit ching
Ġab norm
ipp le
Ġpath ology
Ġtax ation
Ġspl end
Ġmyster ies
m orph
ar in
ĠY an
oph ys
Ġexcell ence
Ġtang ible
ĠB us
Ġ4 50
Ġnucle i
ĠCharl otte
Ġswallow ing
her ical
og an
Ġcol oured
Ġcere als
Ġundert aking
Ġsubmar ine
ast ro
Ġpred icting
Ġbacter ium
Ġalarm ing
ĠW aters
ĠX ML
pe ace
Ġclin icians
ĠMil ky
ĠE ra
Ġev id
: -
Ġt iger
ĠFil m
c urrent
w atch
Ġend uring
she et
Ġfurn ace
Ġp ads
inc re
Ġcharacter ization
Ġhomes chool
orect al
ar cer
Ġro ds
Ġmotiv ate
ĠM ust
Ġunique ly
Ġdistribut ions
an throp
ĠR aw
ĠN ord
Ġtax p
Ph il
ĠPort land
Ġb red
Ġe uro
ĠS U
Ġpro se
Ġrec ount
Ġheav ens
D et
ĠR ing
Ġspec ulation
b rown
l ay
de v
Ġ0 1
Ġphysic ist
Ġspok es
m und
ĠP olar
Ġj azz
Ġpredict ive
Ġwin ters
Ġstiff ness
Ġopio id
Ġan esthesia
Ġsc ra
Ġrec urrent
su per
Ġhyd rox
Ġvulner abilities
ĠSte el
ĠH earing
Ġc ores
ĠP ad
stand ard
ĠBe aut
R ob
Ġâ ĪĴ
Ġshar ply
Ġrecru ited
Ġcar bs
Ġpat ents
Ġdef ending
udd y
Ġsuscept ibility
Ġadolesc ence
f ocus
â Ĩ
id o
Ġmon archy
roll ing
Ġaw ake
ĠDen ver
ĠC V
Ġfin ishing
Ġmot ions
ĠRec y
ĠHum ans
ge on
Ġun limited
Ġtick et
ĠCh ick
Ġaddition ally
Ġadvoc ated
ĠHor iz
ot rop
Ġcard board
Ġroll s
Ġcongen ital
Ġstim ulated
c orn
Ġover ly
Ġenc oding
Ġsched ules
Ġmilit ia
o i
ĠF R
Ġle tt
ĠNot ice
Ex p
Ġtun nels
Ġcultiv ate
Ġnegot iate
ĠTanz ania
Ġcan als
Ġgen omic
oura ble
ĠPsych iatry
l as
ĠR oll
ĠG em
ĠIn vent
Ġob edience
ĠBullet in
st ar
ĠThe rap
Ġintern ally
Ġske pt
Ġinval uable
ĠM om
ĠP regn
Ġsp ends
Ġbl amed
er ative
ĠF REE
Ġdetect ors
ĠTurn er
l iving
Ġ Ø§ÙĦ
re ation
Ġe agle
ĠF resh
Ġpric ing
Ġpeas ants
Ġwor sen
Ġz ebra
T otal
Ġrep orter
ĠCat al
D T
er able
Ġsh y
ĠK ir
Ġreplic ate
Ġcool ed
Ġacou stic
am orph
ĠIsa iah
Ġmelan oma
o S
Ġr heumat
Ġsc arcity
Ġcr ashes
bl ock
ĠChap el
ow ers
ab olic
ĠW ays
ell i
Ġreg imes
Ġbase ment
Ø§ Ø
n ih
y on
ĠAss y
Educ ation
Ġf res
Ġ18 48
ĠAn xiety
Ġforest ry
D O
R esp
g i
Ġun even
ath a
Ġslow ing
Ġmount ing
ĠW es
ph p
Ġmy el
Ġdon ations
ĠHawai ian
ub a
Ġpenet ration
Ġbeet le
govern ment
Ġvow el
Ġl b
Ġst aple
ĠAb stract
Ġbur d
Ġdeb ts
ĠWall ace
ore rs
ĠG on
ĠG ill
Ġend ure
Ġbattle field
in se
Ġver ified
ĠProper ty
ĠAtmosp heric
ab we
ex cept
Ġtrack ed
lav ed
Ġstain less
er ion
ĠJ ur
ĠV a
ĠMay o
Ġneut r
ĠConstitution al
Ġpert aining
ĠL ane
Ġsh rimp
19 80
Ġvol t
Ġposition ing
off s
Ġimprison ed
Ġcar pet
Ġreal ization
Ġexpress es
ĠChurch ill
in als
Ġbet ray
Ġdes erves
ĠRe ef
ĠDesc ription
commun ications
J oin
S k
T r
Ġf ictional
Ġto ps
Ġpro ceeds
ĠV ul
Ġep ist
ĠStat us
cler osis
c row
Ġmon oxide
J ournal
Ġg room
Ġlegend ary
Ġl ord
ann ers
Ġground ed
ow l
Ġprogram med
Ġdev il
Ġcataly st
Ġmant le
l ier
so on
angu ages
ĠHar per
h ored
ĠVo ice
Ġhob by
c ro
id ad
ĠB ee
Ġsc aff
m ad
Ġb oring
am as
ab ad
ĠN ixon
Ġopt ional
ĠExper iment
Ag ain
R oman
t aking
Ġde ity
Ġ19 26
Ġany body
Ġsec uring
ĠTe a
Ġcapt ures
Ġstation ary
ĠSal v
ĠNon etheless
em porary
Ġsc ary
Ġass ure
Ġsom etime
Ġpost ing
Ġforg iveness
Ġtransc end
re th
Ġh oc
Ġpl ed
Ġun related
ue z
Ġconduct or
Ġshel ters
on ies
or ian
Ġ19 24
Ġcol der
sw ers
Ġsail ors
Ġpel vic
Ġgrad ers
um my
Ġpres idency
Ġconc ise
Ġinvestig ator
Ġs pp
ric ting
ĠRes istance
Ġconstit uted
Ġl os
Ġ1 17
ugg ing
ĠPier re
L and
Ġc uc
Ġmake up
Ġcat al
Ġorigin ate
Ġflood ed
k ers
it ures
Ġinter mitt
Ġblow ing
Ġexch anges
Ġm ock
ĠIn n
Ġmon key
Ġback wards
Ġbi ases
ĠMet ropolitan
Ġw oven
Ġf ishes
am ph
ĠVe h
T er
r ide
ĠC ort
ĠN ames
ĠRe agan
ĠQu ick
Ġfacilit ates
bel ie
P ower
st ick
An n
Ġpuzz les
M ain
Ġd welling
Ġacc ent
ful l
Ġben z
Ġcoll isions
stitution al
N ame
ĠT ests
Ġcal f
Ġfil tering
ĠLim ited
ject ives
ĠSe qu
AN T
ĠTur ks
Ġwid ow
Ġexclud e
i ologist
arent ly
enn ial
ĠAT P
ĠPrad esh
l ate
Ġc ache
ĠL ot
Ġarg u
comput er
Ġav oc
Ġrest s
En vironmental
ĠEnd angered
ĠCham ber
Ġf ighter
Th omas
Ġtest osterone
Ġchar coal
ĠInt el
Ġsail ing
Ġcoc aine
ĠW ag
AC K
Ġalter ations
ĠPitts burgh
ĠK ur
Ġsens ations
Ġunus ually
Ġ19 27
Ġinter disciplinary
Ġhand les
Ġstri pes
Ġbless ings
ĠIns urance
Ġcough ing
ĠOd ys
o j
ĠB ald
os omal
Ġanaly tics
Ġreb uild
Ġvend ors
ĠCompan ies
u ador
Ġb atch
ĠM aint
Ġmission ary
Ġunivers ally
ĠGard ens
C are
ĠT as
ĠB omb
Ġstat ute
Ġdil ig
Ġhed ge
l ass
ust omed
ĠMe aning
ĠHol lywood
Ġsemiconduct or
U E
ight y
Ġun ve
ĠRich ards
Ġintercon nected
Ġtou ches
H en
Ġde lete
cent ered
ĠTo xic
ĠHealth care
G L
e val
us k
Ġar rows
Ġtox in
Ġsc aling
ĠK in
uss ions
ĠWy oming
ĠAdvis ory
line ar
Ġthr iving
ĠSat an
ĠCamb odia
Ġa ux
ok a
Ġsur pass
the se
er obic
ent ary
ĠG othic
ip es
Ġsim ulated
EE E
Ä ĵ
iv itis
ĠR ate
rough ts
Ġpriv ately
Ġpoll uted
Ġhack ers
Ġtr ump
col m
Ġtodd ler
o qu
ĠB ou
ĠL l
Ġapp end
Ġgo at
own er
ĠSpec ific
ĠSecond ary
ĠMont essori
Ġgall on
ĠCy cle
Ġsc rub
Ġquiet ly
b ee
Ġw art
ra cle
ir uses
ĠM ack
op erate
Ġco ated
ĠSc ale
irm ingham
ĠN IH
ĠGu atemal
ĠS abb
Ġsp o
AR D
Ġdispar ities
ĠP ositive
Ġp ier
ro cy
Ġl i
res olution
Ġmon ster
Ġpain ts
Ġopp ose
Ġtun ed
imp se
ĠF inal
Ġed itions
ĠC u
pl ates
iz a
Ġinstall ations
Ġdischar ged
ĠCub an
g reat
uc ing
Ġyield ed
ĠSing le
V er
l ide
ĠG N
âĢĿ ?
ĠGu y
uk a
Ġder ives
Ġanim ated
ol in
iss ue
Ġaltern ating
Read ing
Ġbapt ism
Ġpean ut
Ġre lic
ĠG ates
ert ation
Ġemer ges
ĠCommun ities
Ġrecip ients
Ġleaf y
Ġlaunch ing
Å Ĥ
on line
ur ved
os omes
Ġlocal ized
Ġphot ographic
Ġresid ue
Ġes ophagus
Ġsymmet ry
ĠM W
Ġall oy
Ġlow ers
Ġpen insula
ĠStew art
in h
ĠF ruit
Ġrep ository
Ġco hes
Ġenvelop e
Ġprecurs or
c i
ro aches
Ġacc us
Ġsol itary
ĠBe hav
ĠCount ries
neg ie
ĠEnc ourage
r Ã©
ĠN ormal
Ġbr ide
Ġjournal ism
Ġagg rav
Ġmarc hed
Ġar che
Ġhon ored
Ġfib res
Im pro
En ergy
Ġpolicym akers
Ġche er
Ġtrou t
Ġdownload ed
eli ac
ĠLess ons
ver bs
ony ms
ĠEpid em
Ġargu ably
P O
ĠB ak
art a
ĠK night
Ġindic ations
Ġagg ress
Ġsad ness
Ġdistract ed
ar re
tle ment
Ġhor ror
Ġcomp elled
Ġforecast s
Ge orge
ĠCond itions
n umber
ĠD NS
Ġcapac itor
dehy de
ĠH ost
ĠTw enty
Ġsecret ion
ĠAltern atively
Ġamend ments
ĠAm sterdam
Ġencourage ment
Ġmort gage
Ġpe ppers
Ġsc ream
Ġfig ured
Ġban anas
ol ism
Ġide ological
Ġang ular
le af
Ġh iring
AS S
Ġqual ifications
ĠMet eor
Ġvig il
sens itive
Ġc ott
ĠM is
ĠK il
Ġmind ful
Ch inese
Ġjun ior
th ose
pr im
Ġencl osure
enn on
ĠElect rical
Ġb ump
Ġwe ird
M en
ĠF ine
oph ysical
Se lect
Ġr anged
Ġse ab
ĠK on
Ġmet aph
ĠExper ts
W ant
Î ²
Ġc ube
Ġanaly se
Ġoptim ization
Ġanat om
Ġm int
ĠR N
Ġdr unk
et ooth
Ġtrans itions
Ġco arse
bl og
Ġsubsc ribe
on ial
es ian
Ġwar rior
Sp ace
Ġguarant ees
s ometimes
Ġl aund
ant o
ĠWh ole
rell a
ĠH S
ĠH omer
ĠV ent
bre ak
ĠSub ject
Ġoptim istic
Ġt il
ro cess
ĠP ine
so le
ĠEx cess
Ġaccident al
ĠPartners hip
ĠT ropical
Ġins ur
Ġless en
Ġavoid ance
ĠFin ance
E s
ĠPl at
Ġdis reg
ĠMay or
Ġp sy
Ġm apped
iv ist
an cer
Sah aran
or por
Ġb ending
ĠS ARS
ĠB anks
l it
Ġredu nd
Ġpar alysis
Ġcy an
Ġaim ing
Ġsan ctions
Ġmonop oly
Ġl az
Ġsh adows
Ġdep icting
Ġpossess es
B P
Ġcategor ized
ul ators
Ġcle arer
Ġconduct ivity
ĠMont gomery
Ġf al
Ġconf irms
ĠProcess ing
Ġinfest ation
P arents
Ġbe ating
Ġvis c
ĠDo ctors
Ġâ ī
Every one
it ism
Ġov arian
p arent
Ġre jo
Ġwe ighed
ĠF itz
Ġimp ulses
Ġqu eries
Ġsol vent
ĠFr ances
Ġge othermal
T M
Ġsc ent
Ġdec imal
Ġhard y
Ġ190 4
Ġcrow ds
ĠArn old
Ġgl impse
Ġret rieved
ĠBrit ann
Ġz oo
ĠÂ «
Ġproceed ed
Ġasc ertain
Ġorb iting
B ra
T aking
Ġon c
ĠMy th
Ġprem ise
Ġarchae ology
A cc
Ġprox y
Ġcom ic
Ġdis gu
Ġtem p
Ġview ers
Stud y
ĠFisher ies
ut or
ĠPl ans
Ġmig ratory
Ġpun ished
ro ot
iv able
ack ing
Ġins ign
Ġreb els
en cer
Ġfa ults
ĠCommission er
ĠUp dated
ĠGr iff
Ġanticip ate
ĠLat ino
Ġcan e
Ġdisc retion
Ġmunicip alities
Ġblank et
Ġindef in
mat ical
p g
Ġs outheastern
Ġc aste
Ġw ins
ĠS V
ous ands
ĠHe in
Ġport raits
Ġdefic ient
Ġc ir
Ġst airs
ĠV i
Ã ¸
ĠD M
ĠR ES
Ġinv ari
Ġtoler ant
Ġextrem es
b ank
g ard
iv ial
ĠExp osure
ĠEss ential
Ġmark ings
ĠSh i
ĠRead er
ĠMat ter
Av oid
ĠD ragon
Ġinter cept
10 1
Ġorder ing
Ġsun set
ĠInteg rated
Ġcroc od
Ġfl ush
imb abwe
ĠHug hes
if ers
ĠInst ru
ĠEsp ecially
ĠF uk
ĠL it
Ġpr inters
Ġmy riad
Ġexerc ised
develop ment
Ġornam ental
Ġst yl
ĠSt rait
Ġmiss iles
Ġinequ alities
ĠCirc le
ĠAlexand ria
F N
ĠD ial
Ġ18 99
Ġnon etheless
Ġ16 00
Ġfacilit ated
ĠIncre asing
ĠConstant in
Ġmaneu ver
u ating
Ġs ne
im age
Ġauthor itative
Ġaff air
cont aining
Ġal tering
Ġ190 3
ĠStan ley
Ġreservoir s
ĠS ikh
t z
v ier
ol ate
ĠS oph
Ġdev ote
inf ected
Ind ian
Ġphot ographer
D D
ag ogue
Ġco ined
Ġplay ground
ĠReg ardless
ĠÎ ±
ĠQur an
Ġhad n
Ġass urance
Ġher ds
Ġbr ighter
Ġexcav ation
fil m
Ã ª
Ġth igh
Ġfor k
Ġpr uning
Ġ[ âĢ¦]
Ġste pped
Ġmo ons
ĠAstr onomy
Jew ish
M edic
T V
Ġ Ä
ent ry
op us
Ġcl o
Ġrest ra
ĠOrgan isation
ĠSum mit
Ñ ĥ
Ġ1 13
Te chn
Ġunsu ccessful
ĠBuff alo
C am
Ġem ploys
A G
e ating
Ġb ile
Ġf ond
Ġrep ent
Ġsub set
Ġcrit ique
Ġpow d
ĠSl av
Ġfortun ate
Ġancest ral
ĠCommer cial
Ġdrople ts
f ile
w rite
Ġexp ands
Ġpolit ician
ĠLe o
Ġpoly mers
Ġc ath
Ġb ic
ze k
Ġeru ptions
b us
ure rs
Ġoper a
osp els
reg ated
Ġw itch
Ġf ighters
id ian
ĠG O
Ġpat rol
Ġreprodu ced
Ġmamm al
ĠArm strong
Ġdiss olve
Dig ital
ell s
ric es
ĠBas il
ĠWhere as
ĠM ale
Ġnav y
count ry
Ġeconom ical
Ġsort ing
Ġinvent ions
organ ized
Ġexceed ing
B uilding
id i
ast rous
Ġtra ded
Ġvot er
Ġreh ab
s aving
an im
ĠS oci
Ġres ume
ir l
ĠR ou
ear th
ĠSt uart
Ġju ices
Hel p
en za
Ġcollect ors
ĠMon te
d rop
Ġl umber
os in
Ġnot ation
Ġres ign
Ġprof iciency
ĠOrig inally
Ġdeple tion
ograph ics
Ġtext iles
Ġbar n
P ut
an ne
ĠPl astic
ĠPre c
Im agine
Ġdon ate
Ġadapt ations
ĠHall ow
Ġster ile
ĠGir ls
! ).
r ising
ã ĥ
Ġp ant
ĠW ire
ĠA chie
ĠN athan
ĠAir port
ec al
Ġinf ancy
ĠY ug
Ġadd itive
Ġcompl ain
ĠFre ud
ĠNurs ing
ĠW or
ock et
Ġ190 2
er ated
Ġdi aph
Ġcur b
Ġgarden ers
ĠContin ental
Ġtraject ory
m ake
Ġa fore
ĠE ither
unt ing
Ġcarbon ate
Ġprompt ly
Ġsurge ons
Ġimprison ment
ĠS aints
ĠG rey
Ġca red
Ġred dish
iar ism
Ġment or
ĠW ol
Ġexp elled
Ġprob iotics
Ġinit iation
b ig
Ġh ive
ĠB od
Ġsett ling
Ġbehaviour al
ĠN J
Ġopen ings
-- -
Ġlivelihood s
ĠB irmingham
Ġpur ification
ĠApp roximately
Ġpersist ence
T w
ct oral
Ġ18 12
Ġmor b
Ġst en
ĠG roups
Ġup stream
Ġ0 8
Ġconflic ting
ĠC ord
Ġmen opause
Ġreven ge
Ġnoun s
Ġr ounds
ĠMil k
198 9
ĠPower Point
ĠBulgar ia
Ġl amin
Ġl adder
ĠI X
ie u
Ġsmooth ly
i atic
s kin
Ġinc arcer
Ġunder gone
ĠEx odus
Ġprevent able
Ġcomplex es
arb ons
Ġantim icrobial
Ġcuis ine
in arily
ĠT rad
ib ern
ĠPre vious
erg ic
Ġcompuls ory
ĠUkrain ian
B er
D el
Ġv as
act ing
ĠZ ika
Ġfire f
Ġvari ance
Ġl ays
ĠV as
ĠDe an
ĠNe urolog
Con f
Ġincons istent
l m
n ative
Ġw it
un ctions
Ġwor ries
ib les
Ġens laved
Ġflav ors
p aper
ĠC oc
Ġpig e
Ġcart oon
os lav
ru its
Ġcompos itions
Ġfil tered
Ġdeb ated
Ind eed
H yd
Ġb il
Ġg inger
ish n
Ġpo etic
Ġread iness
Ġlo vers
ĠSex ual
om ers
ĠAl g
Ġfin ances
Ġprop oses
Ġstrand s
M ary
P ot
asc ar
ĠWeb ster
ĠHung arian
Ġtodd lers
W R
l ength
Ġl ing
ch air
Ġst agn
ĠKe vin
ĠAny one
kl ore
ĠVenezuel a
Ġubiquit ous
w ild
Ġ24 0
ij i
Ġcan s
ĠK os
Ġsn aps
Ġsuppl ier
Ġcand les
Ġaspir in
keep ers
ĠB ath
Ġstr angers
Ġ10 2
Ġcat heter
uth ors
Ġcoast line
Ġvalid ation
Ġlandf ills
Ġsupp ressed
ĠMon ument
L ight
Ġo val
w heel
Ġs erm
ĠM aps
Ġest eem
ĠRock y
Ġbe ast
Ġabsor bing
thod ont
Ġpenal ties
ĠBiod iversity
l iter
im ates
em p
Ġ3 000
Ġdifferent iated
ĠSc ots
ĠEn h
ĠK or
icult ure
b ands
Ġb ishops
Ġst alk
os it
worth y
or ative
Ġsupp lying
Ġ' '
s ided
12 5
lex ia
Ġanaly sts
uk i
Ġpossess ions
ĠIb id
ĠA aron
Ġv ap
der ived
Ġestim ation
e ers
ĠProgram ming
ĠNort heast
atern ity
Ġculp rit
Ġpin point
r ina
Ġcontract ing
Ġnort heastern
Ġdisin fect
T alk
W rite
umb ling
Ġcompar atively
c ribed
ĠY am
Ġfant asy
Ġup grade
bl ue
Ġpump kin
Ġplaus ible
M ax
in ational
Ġall ied
Rec ently
ro ved
Ġl ice
Ġaccomplish ments
chest ra
f olk
ch anging
Ġpred icts
Ġintent ional
Ġsearc hed
Ġc asc
ĠKeep ing
Û Į
Ġt ant
in vasive
Ġsy nd
ĠNov a
M B
pl anes
Ġdis astrous
ĠComp are
Ġâ Ī
us a
Ġide ally
Ġknowledge able
ĠEss ays
Ġmanifest ations
Ġgran ite
ĠFac ulty
ch in
un al
Ġmon k
ĠRes olution
ĠHon or
ber y
ason ry
Ġmal ignant
Ind ividual
ĠIncre ase
Ġs age
ĠL isa
Ġun just
Ġown s
Ġimag inary
Ġrain y
Pl ant
Ġchief ly
Ġorph an
P rim
b lo
u er
ĠB orn
itch ing
Ġcab bage
C oll
C reate
d egree
i aries
Ġvig or
Ġconfront ed
C ap
P rodu
f ired
Ġo ath
Ġp unch
Ġst ing
ort ions
ĠEc uador
Ġt read
Ġassist ing
Ġdors al
ĠC ome
Ġjoint ly
ĠDem on
Ġpione ering
Ġdra ins
Ġsuff erers
Ġlog o
Ġthick er
Ġgener a
Ġpsych iat
Ġmicrobi ome
Ġev angel
ut ory
ĠB ru
ĠL un
Ġacc ustomed
AS H
ĠM ul
qu al
ĠPr incess
IC S
Ġappoint ments
In s
Ġhold er
Ġrepl en
B est
Ġhe mp
cl in
Gen erally
Ġar rays
Ġsens it
Ġphysic ists
c over
ĠL ands
ip el
Ġmult id
Ġcrit erion
Al ong
Ġcommit tees
Ġadvance ments
Ġscript s
ĠDiff icult
F ull
ic uous
ĠSt ri
Ġreg imen
Ġsculpt ures
Ġfemin ist
ophage al
ĠC arm
Ġsk ies
Ġfre ight
for ces
Ġdiagn oses
Ġcrew s
Ġo z
Ġal beit
ĠCon duct
S er
Ġinter course
sc ar
Ġleg umes
reg ulation
ĠRad iation
Work ing
Ġf are
Ġd yes
Ġd roughts
Ġl umin
Ġsho ots
Ġevap oration
Ġk er
Ġcl ocks
Ġsw amp
Pro ject
win ning
Ö ¼
Ġdef ended
Ġl asers
Ġfl ank
Th ird
ĠAustral ians
Ġwood land
Ġfront al
Ġbeat en
F re
Ġl end
ĠEm ma
Te ch
Ġ189 6
Ġsevent y
ĠSh aw
par ing
Ġbuy ers
Ġmaster y
Ġadvis able
Ġfisher men
M O
Ġunderstand able
Ġviol ated
Ġstabil ize
ĠCe le
Ġe go
ĠG row
Ġins ist
Ġbo iled
to xic
Ġsor ry
T T
ĠR ig
Ġcur s
Ġve gan
ĠHer bert
Ġfig ur
ĠR av
Ġsc ared
Ġsoc ket
Ġgood ness
Ġvacc inations
L ink
L ocal
Ġsu ite
ĠWe bsite
Ġdep ict
Ġing en
ĠHel en
ĠBur g
Ġd ess
Ġob struction
Ġsl ice
Ġmouth s
Ġexplore rs
Ġneur on
ĠCoal ition
ĠB elt
Ġcl ue
Ġret aining
Ġconnect ive
C ur
k ar
Ġre un
ib ular
Ġret inal
oph ila
ĠBehavior al
ĠL av
Ġcop ying
Ġbudget s
intend ent
E th
ĠH ipp
ĠL ost
à¤ °
Ġabol ished
ĠCommer ce
st ore
du ino
isp ens
Ġappe als
Ġdeleg ates
le tt
Ġare na
ĠIn sect
ĠRh ode
Ġhorn s
Ġlett uce
C ong
ach i
Ġclass ify
Ġan ecd
Ġ1 14
Ġ18 95
ĠLe ave
ĠApp ly
Ġastronom er
accept able
Ġpancreat ic
w ould
ĠM alt
ĠL ion
IC AL
Ġteen age
Ġadvis ory
Î ¼
ĠP ont
Ġfl ames
Ġpop e
Ġreal izing
ĠiP ad
RN As
e ight
ĠC ad
Ġsp acing
so lete
Ġwr ink
ĠAltern ative
Ġtransist or
d al
l ocal
Ġst amps
Ġback ing
Ġbo iler
Ġpresent ly
Ġdra ined
Ġmanifest ation
ĠWW II
ĠBegin ning
ĠPict ure
h im
Ġse ptic
Ġdec oration
Ġcr us
Ġmult imedia
Ġdepend ency
ĠChe roke
ĠFem ale
M ENT
Ġday time
Ġrev ival
ION S
Ġt ect
ĠH undred
Ġaut istic
anc ipation
Ġsens ible
Ġcred ibility
Ġpump ed
ig ers
Ġle ase
Ġsh ine
Ġquant ify
Sh ould
Ġcondem n
ĠInit ially
W riting
ĠR alph
ard i
Ġfl aws
Ġec zema
Ġir res
Ġrecover ing
ĠOtt awa
Ġm l
Ġd engue
ut an
ĠG L
Ġabs urd
ĠRoman ia
Ġworry ing
Ġconstitu ents
ĠCov id
Ġsuspic ion
ï ¿
ĠF M
ĠAl m
che ck
Ġexpend itures
pend icular
C ertain
w itz
ag in
Is rael
ĠR s
Ġdec ree
Ġdisc rep
Ġ10 4
Ġfat alities
ĠMid west
engine ering
Ġremn ants
ke eper
Ġr ipe
Ġpop ul
Ġrece ipt
ĠEd wards
ĠArmen ian
he id
Ġtechn icians
work ers
Ġcollect s
ĠOb viously
S il
i ang
Ġhum il
ĠComm ander
est ones
Ġrec alls
ĠComp uting
Ġpp m
Of ten
Ġsp ans
Ġfound ers
Japan ese
ĠConstantin ople
âĢĿ ;
Ch ild
ĠDou ble
Ġverte bra
Ġsp heres
gen eral
Ġign oring
Ġlic ensing
Ġfertil ization
ĠG rowing
ĠAz tec
V ery
a ffected
Ġh ull
Ġal coholic
ĠR oot
Ph ysical
Ġrupt ure
g roups
ĠS ites
ak y
iz ards
ĠBrother s
at onin
ĠC up
ĠK o
Ġmay or
Ġpres idents
Ġ10 3
ank ton
Ġenjo ys
Ġn arc
Ġdoub ts
ĠPhilipp ine
Ġchamp ion
Ġdel ta
H ER
Ġt atto
Ġ1 16
iz za
ven ous
ĠCl ose
Ġsuper natural
Ġdefend ant
Ġdress ing
âĢĿ âĢĶ
Ġdet ention
ĠZ imbabwe
Ġ186 7
roc hemical
Ġflour ish
H um
Ġfor aging
ĠB ert
ph ase
ark er
Ġsymbol ism
Ġstar vation
Ġdesp air
Ġlifest yles
Ġblow n
Ġdorm ant
Ġdub bed
Ġevac uation
ĠBud get
IC EF
S am
al ach
Ġ185 7
Ġremote ly
Ġpreced ed
ighth ouse
S at
st en
ĠAd obe
Ġco aches
Ġprogress ively
ĠHer od
ĠDrug s
c s
ĠB alk
ov o
ath on
Ġresp iration
ĠSh ar
ĠInst ruct
Ġexception ally
Ġp ause
ĠLib eral
Ġsug ary
Ġpupp y
Ġin organic
Ġby tes
ilit ating
R o
at ility
ĠT M
ĠL ag
ĠGr ass
âĤ¬ âĦ¢
Ġsymp athy
) âĢĶ
Ġen riched
ron ts
âĢ Ĳ
ill us
Ġr im
ĠN ad
ph ony
Ġelectroly te
r il
ĠE lder
Ġsp ouse
Ġfacilit ating
Ġampl ifier
S pe
ĠE SA
ĠK l
Ġver t
Desc ription
V ideo
Ġover flow
ĠInt rodu
Ġclin ically
ovolta ic
Ï ĥ
is ch
Ġp uls
Ġh iking
ĠZ ero
Ġcand le
ĠExpl orer
Ġirre levant
P resent
t ain
Ġc rab
ur ations
Ġreg ain
Ġequ ival
Ġcentral ized
ĠPas sover
id uous
ĠS or
ast ical
Ġbegin nings
Ġchem ically
Ġrefere nd
ra is
ĠM erc
ud ed
Ġstr anger
ĠConf lict
ĠExper imental
Ġglac ier
Ġscler osis
ĠS low
ĠS inai
Ġequ itable
Ġreal ise
Ġsubsc ription
Ġ ________
ĠThe atre
ĠB ent
Ġcre st
ĠDr inking
Ġcred ible
Similar ly
Ġhelic opter
ap a
ber ty
Ġref usal
ĠWood s
ĠT es
ig rams
âĢĿ :
ĠCar negie
Ġcosm etic
ĠDesc ribe
Rober t
Ġas ylum
Ġ186 8
Ġhem oglobin
Ġgast ric
odynam ics
Ġtoothp aste
ĠS olid
if ted
op ath
ĠH oney
Ġam p
Ġam yl
Ġview point
ĠJul ius
Ġinfl amed
ĠUS D
Ġenroll ment
Ġinterven e
ot ide
Ġfour teen
Ġallerg ens
Ġdisrupt ed
review ed
is ans
Ġdisp osed
op last
all i
Ġ17 0
ĠUs ers
ĠTrans fer
ĠS weet
Ġstory telling
sh ould
Ġi Phone
Ġveter an
Ġweigh s
ĠRequ ire
Ġf ibr
Ġm aid
ĠP O
ĠE lements
Ġtrans ient
Ġmillenn ium
ĠC ause
ĠD ys
Ġsign atures
Ġcho oses
Ġmut ually
Ġexperiment ation
Ġnom inal
n or
ĠC roat
Ġsh aking
ract ice
Ġpath ogenic
Ġexpect ing
Ġmel ody
Ġcaut ious
Ġf el
Ġ1 19
ĠL ives
ob iles
Ġsolid arity
EL L
ĠDisc ussion
M ass
iot herapy
ĠBr ight
Ġdeple ted
Ġmoder ately
Ġsuperf icial
em ail
Ġ10 8
not es
Bl ue
Ġwre ck
Ġj ealous
Ġ10 6
Ġflat ten
Ġadd itions
iction aries
Ġmer ged
Ġexting u
Ġp aved
Ġrep aired
ĠEv ents
Ġdatas ets
ĠC od
um ar
ll or
ĠMal colm
Ø ¯
hold ing
Ġslow s
Ġslow ed
ĠConc ord
Ġsafegu ard
ĠPubl ishers
M ad
ĠT rou
ĠC ret
Ġbl ended
opot am
r ase
Su per
Ġgest ures
H ead
if ts
ĠAut o
press ure
ĠHem isphere
ograph ically
Ġgeneral ized
Ġevalu ations
Ġsed entary
I AL
Ġderiv ative
ĠHallow een
in ia
Ġl iable
ĠF al
Ġtra cing
ĠCyp rus
ling ton
Ġpersonal ities
Ġbeautiful ly
Ġneut ron
Ġt am
Ġf ights
Ġm osaic
be k
ĠÎ ²
Ġampl itude
ĠVeter ans
ĠJama ica
d est
g ow
Ġexp orted
urn ed
Ġmodel ed
inf ection
ĠA V
ĠB our
Ġref res
Ġconsp iracy
rosc opy
h art
ĠMe an
ĠFle et
ĠPhill ips
c ross
at ched
Ġf ructose
ĠA ffect
ish a
Ġqu artz
Ġexp ans
Ġland owners
Ġself ish
ĠDis abilities
Ġ189 3
Ġpatri arch
E ast
ĠM ail
Ġcirc adian
ĠReview s
Ġfulf illing
P sych
Ġin efficient
ĠCh an
be fore
ĠON E
Ġrif le
Ġb ury
us ch
ĠF ib
Ġad jective
Al tern
ĠAdd ress
Ġpersu ade
p rom
ĠC ats
S olar
Ġv ault
ĠJ en
chie f
ĠSur ve
ĠCongress ional
Ġdecomp osition
Ġhas h
Ġprevent ative
iol ent
Ġunw illing
Ġcancer ous
ĠE ur
Ġus able
Ġad herence
w oman
Ġd ock
ĠB rist
ens en
Ġgl orious
os ome
Ġsuper nov
iment ary
ĠSur face
ĠLi u
M ethod
ĠF inding
Ġret in
ĠCl are
ĠOb esity
Ġaspir ations
Ġneighbour ing
Ġm oth
ac id
ari at
Ġsummar ized
ĠIb n
c it
Ġp ent
ĠM ead
Ġmarket place
Ġdead line
link ed
Ã «
Ġch alk
be ans
Ġreflect ions
Ġcontract ors
Ġthin ner
M RI
at ts
othel ioma
ĠAl pha
Ġglobal ization
Ġdisp osable
ĠNi Ã±
v ents
en berg
Ġprot on
Ġacid ity
Ġgrand parents
× Ķ
Ġb ord
Ġsub m
Ġhipp oc
se ed
ah an
ĠLe af
hel m
Ġcustom ary
S elf
U I
Ġp its
ĠM unicip
ĠB R
ĠInf ection
ĠFe el
Ġunderm ine
ĠLanc et
ĠM ix
ĠW heel
Ġsc oring
Ġant iquity
Ġlog istics
neg ative
ent e
ĠW ere
Ġsulf ate
Ä ĩ
Ġmot ives
ĠF ailure
Ġdest iny
198 6
ĠArchae ology
l ag
ro e
Ġprot ons
Ġfair y
Ġrab ies
mans hip
ĠA ur
ĠR y
ĠEx am
ĠGod s
Ġver tically
Ġrain bow
l at
ĠV oc
ĠDo ing
Ġamb ition
Ġcl og
OR Y
Î »
ra x
op ping
Ġse ated
Ġcl an
rit es
ĠZ en
ĠCom ments
Afric an
Ġseaw ater
: :
d esc
il ian
Ġg or
ĠS hip
ĠCo operative
Ġprosper ous
Ġleak age
Ġun im
ric ula
Ġdisc ol
yl ene
ĠVir us
Ġsew er
B ur
m eter
on ts
Ġsub urban
Ad v
Ġsatisf ying
Ġmini ature
Ġc rick
Ġrec laim
Ġbo oster
cript ions
Ġretail ers
Ġbind s
Ġsurre nd
ĠBrig ade
aunt ing
id ated
Ġany time
Ġend othel
Ġhead lines
Ġsent enced
Ġcompost ing
ĠT rain
Ġhe ater
Ġpl un
Ġclass mates
Ġabsor bs
ĠMedic are
Ġsuperior ity
l ance
he e
em er
Char les
Ġunderw ent
l on
ĠAll ies
198 8
ograp hed
ĠTim othy
ĠGir l
C M
ĠD allas
10 5
Ġlo ops
izz es
â Ĺı
ĠR ica
Ġprog nosis
ĠSc out
Ġste ering
Ġelimin ates
198 7
L ittle
op al
Ġcan ned
ell es
ety l
Ġexpect s
Ġassist ants
ĠTer ms
× ¨
re search
ed ical
ocy t
Ġneighbour hood
Ġsubmer ged
D B
ĠL ung
ĠCh ance
Ġfore front
Ġfort ress
Ġenhance ment
Ġnob ility
Ġvibr ations
ĠRon ald
ĠT ak
ĠG ov
Ġant ip
Ġ0 2
ĠMoroc co
Ġt ile
Ġport al
Ġscreen ed
IT H
ĠFather s
Ġmitochond ria
L aw
ract ed
ĠOld er
Ġafter ward
Ġvast ly
W ritten
ce mia
ur gical
ĠN HS
Ġreb el
ĠAstr onom
et e
oc ese
Ġhard est
spec ial
ĠLaur a
ĠTas man
L ater
ig ating
Ġover dose
Ġmethod ologies
Ġvill agers
ba um
er ly
Ġr ansom
ĠN ine
ri en
ĠVol can
ĠStart ing
ĠSac rament
Ġassass ination
Ġgi ants
M o
ĠE T
Ġab uses
ĠU T
ĠV R
Ġsix teen
ĠLead er
ĠHindu ism
en ic
ĠG ross
ag ascar
Ġfoot age
Ġhom osexual
h l
ĠOffic ial
Ġt art
Ġa rous
or ate
Ġsocial ism
Ġcra bs
Ġirre vers
hol m
Ġt ails
Ġpro active
ect omy
ĠOm ega
ĠI UCN
Ġhel pless
ĠSoc rates
bal anced
Ġhop eless
Ġsimultane ous
Ġempower ment
Ġly rics
Ġcan ine
Ġle ague
Ġsub species
Ġminim izing
hand ed
ĠRog ers
m illion
on gh
Ġm RNA
ic able
ĠUn less
Ġdisc ourage
ex isting
Ġp df
Ġh ath
ĠCh a
Ġdist ortion
br ids
ĠAb bey
Ġmel ted
Ġtransmit ter
Ġfemin ine
ĠPun j
an mar
iv orous
Ġsp or
Ġk not
ren ces
Ġd ances
ĠS ons
Ġar ithmetic
Ġind ispens
Ġret ard
Ġclear ance
by ter
Ġo st
Ġdef enses
ĠUS SR
Ġdest ined
ha us
ocy te
Ġid ol
Contin ue
Ġhel ium
ĠArab ian
Ġf ills
min ster
Ġcontext ual
ĠM T
ĠG ary
Ġend ors
uff s
Ġw rest
ag ar
Ġhigh ways
Ġprohib ition
ourge ois
B ER
W ild
l oss
ĠIn g
Ġprob es
Ġpack aged
Ġsatisfact ory
c d
as uring
ĠT odd
ĠW A
Ġent ails
ĠPal m
ĠOccup ational
Ġchol era
N OT
ĠH A
ell ows
ĠBalt ic
il ized
ess ment
Ġv ines
ĠPat ient
Ġglac ial
ĠHom o
ĠM ob
reg ulated
ĠAnt ib
Ġasse mble
Ġdivid es
Ġpig ments
Ġpione ers
Ġendeav or
ĠCert ific
ĠBened ict
ar ist
Ġl ending
Ġres ent
Ġbed time
Ġtal ented
om o
ush ima
Ġtend encies
Ġplate au
ĠPhoen ix
Ġreconcil iation
Ġdiaph rag
ew orthy
Ġimp osing
alm ud
Ġprophe cy
Ġvegg ies
E PA
b ia
ĠH ub
Ġsol o
Ġgar ment
Ġbiom edical
di agn
ï¿ ½
al one
Ġsp herical
f em
Ġb ree
Ġh ips
ĠC ave
qu est
Ġinter sect
Ġmod eration
ĠÂ ½
Ġcustom ized
Ġrelax ing
z ero
Ġf ins
pl ication
Ġout we
Ġpres erv
Ġsal aries
Ġspect ral
b eck
Ġb ilingual
Ġcan cell
ivid ed
med ia
ĠForm ation
Ġnic he
b low
Ġs nee
id y
Ġcl er
ung al
Ġconstruct ive
Ġing est
Dep ending
V s
b uild
Â º
ĠB ring
ĠG ay
Ġpl umbing
Ġun lock
ĠBe hind
Ġsoy bean
e ing
Ġar id
Ġneuro science
Sy stem
K ids
l ater
ĠI van
ĠG az
ull ivan
Ġsouth western
ĠBi ography
ĠGra ce
Ġoptim ized
Ġoverl apping
ĠSep ar
l antic
Ġa ided
Ġover sight
lud ge
Al most
Ġ188 9
Ġle v
Ġatt ent
ur gy
Ġne u
lar ge
Ġoblig ed
Ġst y
ĠC ob
less ed
ĠRec ogn
part icularly
P G
U r
Ø ª
f light
res pect
are a
resp ond
ĠFarm ers
g rams
ĠW el
iss ible
ĠSe ason
Ġrad ically
ĠBr id
Ġbreast s
Ġmemor able
Ġinform ational
Ġbal ances
Ġtit anium
ĠÃ ł
Ġdegrad ed
ĠNeed s
Ġdisadvant aged
Ġst ove
Ġsp arse
Ġun rel
Ġ18 76
Ġdep uty
Ġinn oc
or um
ĠS ustainability
am o
ĠD aw
Ġshe ar
ĠGe or
Ġhero ic
F amily
un i
ĠO g
ang led
Ġdist orted
Ġcontin uation
Ġ188 8
Ġpref ix
ĠPoll ution
ĠStrateg ic
ĠIm aging
rust ed
Ġsp oon
" ?
st atic
Ġal ly
Ġhapp ier
Ġgest ure
Ġcl ips
Ġun expl
eg as
ĠMah ar
Ġp soriasis
ĠW ool
Ġch ords
ĠIn come
Ġdis ks
ple mentation
Ġ12 8
ros clerosis
V ER
b ably
Ġl adies
ical s
Ġper pendicular
ĠRe ality
Ġir rad
y ards
re v
Ġam ended
Ġplan ners
Ġreal ised
fact s
ask et
ĠSam ple
Ġshel ves
Rec omm
Ġcyber security
ĠNeuro science
Ġunch anged
Ġinacc urate
ĠV inc
10 8
ĠPl aces
Ġon ion
ĠM Ã©
ĠB enn
Ġadapt ing
Ġtun a
Ġgram matical
Ġsup rem
ĠMong ol
W ood
Ġn inth
ot ism
Ġno ises
Ġbenef ited
ĠCirc uit
prot ected
Ġman gro
ĠCh anging
Ġty ph
ĠVin cent
ec a
Ġhum ming
Ġc ush
Ġrep rint
Ġ18 20
Ġmig rated
Ġundes irable
ĠRw anda
Ġre charge
ĠC inc
ate red
Ġne c
pro gram
ĠPresident ial
ĠAtt ribution
Ġfold ed
Ġcouncil s
ĠIndones ian
Ġtransplant ation
Ġlig aments
ĠP ries
ĠE is
Ġch icks
Ġconc urrent
Ġpu berty
Ġshock ed
Ġcounsel or
ĠTar get
mun ition
D M
M el
Ġp iles
ĠW E
Ġra p
Ġfl are
ino ids
Le vel
Ġcong reg
Ġassert ion
ĠCond ition
Ġenrich ment
e ff
âĢĻ )
20 21
Ġeight een
Ġd ad
Ġover see
ger ies
14 0
ellect ual
ĠTem perature
embr ance
D ou
ab sor
ass er
Ġins ult
ĠBl acks
Ġrecy cl
Ġsummar ize
Ġb ilateral
ro ots
se ason
Ġv ain
ĠTh y
ĠBr us
Ġstick ing
Ġprompt s
Ġlaund ry
s ay
ĠR yan
ĠN R
ĠO ECD
ae us
Ġcru ise
n ie
Ġe u
Ġsur name
ĠReg ulation
Ġtransfer ring
Ġp rag
Ġin oc
Ġin ward
Ġmult if
Ġdisp ose
ca using
Ġignor ant
Ġcyt ok
P ol
m ith
ĠPe oples
ĠGl as
Ġretrie ve
Ġcl ots
Ġmid night
Ġgate way
ĠBron ze
ur bs
ĠM ang
ĠV ern
Ġhand writing
ĠAd ding
ĠAct ually
Ġacceler ating
Ġgerm ination
F OR
ed er
iff erence
int ensive
up us
Ġaccept s
Ġchim pan
h on
Ð ²
ĠT ong
ĠB uch
Ġcomp ute
Ġ0 3
ĠEm ail
Ġparas itic
Ġquad r
ĠS ett
ĠSt ream
ss on
Ġred ness
ĠRob in
ĠW u
Ġatt en
Ġunc over
Ġlaws uit
Ġcontem por
Ġdilem ma
ĠA PA
Ġwh is
Ġmeas urable
Ġbi ased
Ġbed room
Ġlact ose
ĠCh in
ipp ers
ĠAm y
Ġ188 5
Ġ189 7
Ġjudge ment
L L
et ra
Ġinv ade
EN CE
Ġtrig lycer
Ġbrows ers
Ġsmell s
ĠWorkshe ets
re nd
Ġw ipe
th ren
ĠAc cept
Ġten ure
ĠWars aw
Mat thew
M ajor
et z
Ġsh ale
Ġsepar ates
ĠKe pler
Ġtorn ado
it ian
av oid
Ġiss uing
Ġchief s
il itary
ver ted
ĠPro c
Ġdeep est
IN T
ĠFA O
ĠT ed
ĠS ultan
Ġprot agon
eck er
Ġkin etic
Ġd ash
ag les
Ġrel ativity
Ġdep ressive
Ġbr an
Ġdistingu ishing
ĠVeter inary
prising ly
Ġres olutions
Ġ10 7
ĠTechn iques
ĠL is
Ġ0 9
Ġrain water
Ġswe ating
cons uming
ĠRest oration
Ġcruel ty
ĠEns ure
ure r
Ġnew est
ĠEx ped
ĠApp endix
B orn
ĠL amb
Ġob solete
Ġsw ine
sw orth
ĠSupp ly
E p
M ill
Ġb rit
Ġend omet
Ġspecific ity
Ġepithel ial
P rior
st ad
medi ated
ĠHim self
Ġreferen ced
ĠSabb ath
Ġre usable
reat h
ĠWorks hop
C a
W estern
ĠV iking
Ġret ro
ĠMed al
Ġdest inations
Ġutil izes
ĠExpl ore
ĠGil bert
ĠDiam ond
Ġreg ret
Ġtrans gender
oph ical
Ġtor que
ĠL uck
Ġsp y
Ġtre asures
Ġconcent rating
ĠHun ter
h arm
ar g
Ġsp elled
ĠPl ain
ĠCal vin
Ġscrut iny
t ailed
Ġpe asant
Ġsqu ash
Ġconsult ed
ĠL aser
Ġinf ertility
Ġpol io
Ġdr astic
umb led
Ġs arc
Ġd ining
Ġst ained
Ġsh rine
Ġpartic ulate
Ġsince re
Ġmusic ian
Ġpra ised
Ġwithd rawn
Ġembod ied
Ġaston ishing
b ies
Ġc ray
ĠW ear
ĠR ol
Ġsp ikes
ĠSe vere
Ġcommit ting
Orig inally
Ġca f
Ġtransport ing
ĠPublic ation
âĢł âĢł
ĠP ink
Ġend ocrine
Ġaud it
ĠReg ulations
ĠGuatemal a
Ġa uction
ĠN ash
ib ia
Ġconj ug
Ġtack ling
ĠMes opotam
Ġh ives
ĠR ick
ag us
ag ua
up on
Ġperiod ontal
par ation
ad al
Ġv i
ĠE P
Ġch airs
av an
Ġser pent
Ġcram ps
ĠLGBT Q
Ã ¯
art ments
ind a
ok u
ck er
Ġcomput ation
Ġdestro ys
M or
k ward
Ġde ities
tern ally
Ġ17 76
Ġsem antic
Ġheight ened
ĠBu y
ĠKrish na
ing les
F ive
S en
ĠG un
' )
ĠPer ry
met ics
ĠCy cl
ĠPot ential
Ġcoat ings
Ġneighb ours
idel ity
Ġd ire
est ead
ĠL ex
Ġwar ns
Ġlist ened
ĠGen er
ĠForm at
S ax
ut ral
ver bal
ĠM ann
Ġter ra
Ġdur ability
Mich ael
ro y
ĠC rypt
oot ing
Ġflu orescence
Ġoff ense
Ġsevent eenth
in ety
ĠCho ice
Ġenthusi astic
Ġdens ities
report ed
Ġprest igious
H L
ĠD ance
ĠV ed
Ġsex es
om i
ĠB acon
Ġgen res
Ġorigin ating
Ġthreat ens
Ġmis use
ĠRac hel
F ire
Ġw aking
Ġen light
Ġcal ibr
Ġphot ons
Ġric hest
Ġbibli ography
ill as
res cent
des ign
ĠDom estic
Public ation
Ġumb rella
Ġwart ime
U SA
Ġa pert
Ġr ud
Ġcl iff
Ġdep ended
Ġsuper vised
Ġ186 6
Ġp acks
im ming
chan ical
Ġjump ed
ĠPeters burg
ĠR ut
ph ot
ĠEm ily
bl ind
ĠC riminal
Ġarm or
Ġspiritual ity
Ġinterrupt ed
B io
Ġen v
Ġimpact ing
Ġconc ussion
Ġexch anged
Ġc hess
Ġcy sts
Ġswe eping
bul lying
ĠL ay
Ġpet als
Is lam
Ġ188 6
ĠTre nds
egrad able
Ġa z
ce mic
ĠIn form
ass ic
ĠBat tery
Ġjurisd ictions
E r
Ġam en
az i
16 8
Ġking doms
ĠSom ething
ĠMad agascar
Ġtick ets
Ġexcav ated
Ġh ose
Ġun acceptable
ail ability
F ar
Â ¢
Ġf eces
ag ain
Ġrep ell
idd ing
Americ a
ĠKy oto
a vers
Ġper vasive
Ġgra phen
Ġobject ion
Ġcomput ed
uck er
Ġworth while
Ġdis g
Ġra ge
Ġeconom ist
ĠSch olars
Ġing estion
Cent ral
Ġpiv otal
onel iness
Ġcol orectal
Ġappro ve
Ġpersu asive
ĠRedu ction
Ġvalid ate
Ġceremon ial
Ġassert ed
Ġoste oarthritis
h aw
ĠB A
ĠTh an
Ġcur ricula
erg us
ĠMy c
ĠAng lic
ĠTheod ore
Ġb iting
Ġmem oir
Ġattract ions
enh agen
ĠYug oslav
Ġl ac
cept ual
Cal ifornia
Vis it
ĠClear ly
Ġsquir rels
Ġmening itis
r ud
at on
Ġcons erved
Ġbuild ers
ĠCo hen
Ġmill igrams
Ġin active
Ġl ively
Ġl yn
ĠW OR
ĠL LC
Ġbio fuels
Ġtables p
Ġvag ina
Ġpubl ishers
Ġgraphen e
198 5
Ġaster oids
ĠFif th
F in
Ġtri angles
Ġteen ager
ĠZe us
Ġt rench
Ġle m
so ever
int rodu
Ġ12 00
oph obia
Ġstri pped
ĠExper t
Ġhall uc
Ġintu ition
Ġcin namon
ĠH i
ĠK irk
unt ary
Ġcred entials
ĠGovern ments
amb ia
Bl ood
author ized
k n
oss ibly
ĠRe formation
Ġh ood
ĠF oster
ĠPro du
Ġfore nsic
ĠCont ract
P ers
Ġcon es
ĠV oy
Ġconf use
Ġfarm land
AM A
ĠRap id
Ġant is
ĠMill enn
Ġexpl or
Ġinflu x
Ġvalid ated
Can ada
Ġtransmit ting
Ġfreed oms
Ġn emat
Ġst urd
Ġtra des
Ġprogram mers
ĠComp ared
ĠHar old
ĠRand om
ĠPH P
Ġu gly
ist ine
Ġwe aving
og h
Ġhor r
ĠSch w
ĠMod els
Ġforeign ers
Ġboost ing
mid t
I mp
Ġres ervation
ĠSt orage
Ġass ays
ĠStud io
Ġ189 4
Ġs inking
ĠD iss
ĠE co
Ġste pping
ĠCap itol
opl an
Ġc ess
ĠStat istical
ĠJo in
ĠIs ab
Ġbell s
Ġinverte brates
ĠT almud
ĠB PA
Ġv iability
ph alt
ident ified
Ġrat ified
ĠDiff erence
Ġinsert ion
ĠHind us
ĠVacc ine
Ġindispens able
Ġcur rencies
ĠBut ler
ĠCar n
Ġcoll ar
ĠPers ons
Ġincorrect ly
c ig
es cent
ĠAn swers
Ġconsum es
Ġens ured
Ġrespect ful
Ġrock ets
add y
Ġrational e
Ġdimin ish
A p
if erous
Ġup rising
Ġbas ins
Ġdiscl osure
M a
Ġra id
Ġmig rant
c ool
Ġd ucks
ĠC ategory
ĠF ill
Ġpre aching
Ġno on
Ġfr anch
Ġcontact ed
ĠLuther an
is ks
Ġ0 6
Ġobserv ational
Ġge ologic
Ġrot or
Ġsu ms
ĠL an
Ġfe udal
L o
he y
Ġn ap
ĠN ancy
ep h
Ġattract s
Ġflav our
Ġdisin teg
T om
ĠI an
ĠF uel
ĠAr med
uk ary
B egin
ĠS aul
ass y
Ġaddict ive
ĠM AT
ĠTh ought
Ġdecl aring
Ġsan ction
Ġheaven ly
Ġb a
Ġprofess ions
Ġtri angular
Pat ients
Ġrecur ring
" :
Ġoff enders
str ate
Ġdoctor al
Ġprefer ably
g r
IS H
ĠEc osystem
B s
in ars
Ġp ores
Ġpl edge
ert iary
Ġid i
ĠC AD
ĠW ald
ĠO ptions
Ġun ite
Ġmult ic
Ġdom ination
Ġcircum ference
ĠSic ily
Ġs ab
Ġde ed
Ġpat ented
Ġsil ic
ĠCor on
Ġgraph ical
Ġvoc ational
ĠInj ury
at ri
os hi
ĠHe avy
Ġviol in
Ġattract ing
Ġcompl ication
Ġtrou bled
Ġkn ots
ĠDist ribution
Ġmamm alian
ĠPers ia
ĠGram mar
Ġpunct uation
á »
oc ations
ĠK et
Äģ n
G ive
d ie
Ġo h
ĠO v
Ġdisc s
ĠBas ically
ĠExpl oration
ĠSand y
ryst al
it he
ic iary
ĠV ik
ĠCon versely
Ġmor ally
Ġdisag reement
Ġattain ment
J ose
ĠP od
ĠGod dess
Ġ13 5
Ġdisp osition
Pl ace
bour g
Pre vious
ĠH z
Ġsh ining
lic ation
Ġhold ers
Ġing ested
Ġprepared ness
Ġsimpl ify
Ġhes itate
Ġtutor ials
Ġh ints
ins p
Ġsk i
Ġcur v
18 0
ĠAtt orney
Ġfrust rating
m ax
Ġp ension
ĠS I
ert on
Ġthought ful
Ġvent ric
Ġkil ograms
s afe
Ġp end
ĠH V
Ġaff inity
Ġ188 7
Ġfundament als
ĠC ere
am ines
em ade
Be yond
Ġ186 9
Ġprivile ged
ic ul
ĠE ff
ĠG uru
ĠSp ot
Ġc act
Ġf ried
ĠM au
ĠM ull
ag ne
Ġinv aders
Ġsal inity
ĠBlu etooth
Ġp amph
Ġ- >
Ġrev is
ĠPalest inians
ĠIdent ity
Ġt a
Ġco ats
Ġins criptions
ĠHar vey
Ġuns ure
Ġfabric ation
ĠGalile o
in v
ĠInd ies
ĠDec ision
ĠMet al
Ġsport ing
Ġmonaster ies
Ġa ur
ĠN eb
Ġtum our
Intern et
Ġthe olog
ĠH erald
Ġtend ons
Ġbath ing
Ġfeas ibility
ĠFried rich
ovak ia
ĠM all
ĠO P
ack ed
Ġsurround s
ĠCoun sel
Sp anish
comm on
Ġmic ron
Ġtoile ts
Ġlapt ops
Ġalleged ly
Hen ry
Ġsurrend ered
F ederal
Ġam munition
ĠRe lease
Ġmanip ulated
R s
pp e
ĠBrist ol
tt a
Ġ0 7
ĠList en
Ġiv ory
Ġbel ts
unt ed
conf idence
Ġcompress or
Ġnoteb ook
Ġreferend um
ac ic
ĠM M
Ġno ct
Ġ18 71
Ġmet adata
ĠArch bishop
Ġnan o
Ġmand ated
Ġintermitt ent
Ġh ort
Ġplan k
storm s
) /
b oy
Ġv icious
Ġpl aster
ĠK aren
ren ches
Ġspect rom
ĠMethod ist
Ġproc ure
ĠN F
Ġcy st
ĠHam let
â ĸ
ĠN est
ĠNor se
ĠRout e
Ġp ushes
Ġhel m
Ġcal ves
ĠEn lightenment
Ġsun shine
Ġles ion
á¹ ĩ
AR Y
ĠYellow stone
ĠM ills
oc on
19 70
Ġbegin ners
ĠLevel s
se ctions
Ġcommunic ated
ĠInter view
ĠCare er
s omething
Ġst ark
ĠB ond
Ġaut ob
Ġcatast rophe
t ub
Ġon wards
Ġr anc
Ġun le
Ġassoci ates
Ġanomal ies
Ġsoc iology
Ġflow n
Ġprogress ed
A round
W ik
ĠS hen
Ġsil ica
Ġcoord inator
ship s
Ġconfig urations
I ll
L anguage
w hy
P o
t alk
ĠR T
.. ."
ĠAll ergy
Ġdecl ares
Ġrich ness
ey e
Ġcommemor ate
ĠBritann ica
ann i
sec ure
Ġcook ie
asion ally
ĠSocial ist
Ġincomp at
ĠQuarter ly
W C
o que
ig ens
el ia
olog ous
Ġworld view
oint ed
Ġred irect
ĠMark eting
ĠB erg
ĠR C
Ġpl acent
IN D
Ġjo ins
pret ation
Ġcryptocur rency
P oly
w ash
Ab stract
Ġconscious ly
Ġaw kward
w aters
Ġt asty
Ġcent imeters
Ġhyd rated
Ġhunt ed
ig a
Ġne p
Ġco operate
Ġenc oded
Ġfa ulty
ĠKnow n
ĠLeg ion
ĠB le
ĠK idney
Ġtr ivial
Ġdism ant
ĠBal ance
ĠCru z
L at
pt a
ĠWhen ever
Ġlo ver
Ġpast oral
osc opic
Ġmos que
Ġfer mented
Ġfo il
Ġcentr if
St at
g un
Ġend ured
ĠChair man
ĠBatt alion
Ġapprent ices
Ġpropri etary
ĠB ag
ĠD ros
ĠJ ar
Ġcar riage
Ġcor pus
ĠSupp lement
Ġentertain ing
Ġexcav ations
osaur us
r ason
ĠF BI
ĠG RE
ost ing
Ġinf er
ract ical
Ġinv itation
ĠD ew
iz arre
Ġout dated
Ġdet erg
ĠSh ut
Ġhead er
Ġfear ful
s n
Ġ( -
Ġsu icidal
ĠMart ian
Ġbread th
Ġsole mn
Ġtrigger ing
ĠInfect ious
H and
Ġprog en
Ġemb ro
á ½
ay ed
Ġdes erts
Ġâ Ĥ¬
Ġextens ions
Ġsel enium
Ġbon us
ĠH ERE
Ġsp aced
ĠGerman ic
ĠJul ian
Ġscat tering
ĠRen ewable
In vest
Ġrenew al
utri ent
R edu
ĠEm otional
ĠT CP
Ġgra ding
Ġret ains
ĠX X
Ġut most
ĠIP CC
Pr int
ropol is
Ġcareg iver
ra z
Ġrel iably
Q ue
ĠH abitat
Ġpar ade
Ġsn ails
En ter
Ġdepart ed
t hens
Ġst agger
Ġ0 5
ĠRep ly
Ġsuper v
Ġsam pled
Ġpilgrim age
Ġunh appy
ĠSalv ador
Ġor thodox
ĠP or
Ġrep ay
gg er
Ġstat istic
Ġmess enger
indu strial
Ġflour ished
Ġwip ed
Ġaeros ol
o am
ore xia
ĠL ip
Ġass ists
Ġpack ing
Ġemp owered
Ġadverse ly
Ġdict ators
Ġ` `
Ġdermat itis
ĠGab riel
G C
c ible
Ġst ellar
ĠP ars
ĠP osition
Ġsc av
Ġsec urities
Ġ0 4
Ġfram ed
do ctoral
Ġmillenn ia
Ġim plicated
ax y
Ġnational ity
inn ati
ĠLeon ardo
Ġb ourgeois
ĠT E
eed s
ĠSoviet s
ĠTitan ic
ul er
Ġbo ots
Ġhand ic
ij ah
Ġtermin als
ĠT i
ĠSt ars
Ġstand point
ĠUS S
app le
Ġcust ody
Ġhor rible
ĠPo etry
Ġreward ed
ĠIdent ification
Ġspark ed
Ġhypot hetical
F ore
c reat
Ġm alf
ĠW ing
Ġat op
Ġ10 9
Ġnational ist
sh ort
Ã¶ r
lesi astical
Ġre app
man uel
Ġsuff rage
Ġbar bar
Ġmut ant
Ġanalog ous
or as
Ġz oom
Ġprep ares
Ġcann on
Ġprofound ly
Ġmira cul
Ġav ian
Ġill umin
Ġcoast s
Ġorn ament
> .
in form
er r
ect ive
un it
lect ions
Ġmess aging
ĠHol mes
ĠMad rid
Ġbench mark
n ature
id ine
ĠS olution
ĠL anguages
Ġfact ual
Te aching
Ã ¥
res a
Ġpoll inators
Ġgrass lands
T ips
t ake
in atory
Ġprim ates
Ġattack er
Ġdisput ed
ĠRecomm end
Ġman gan
ĠV ic
erm ost
Ġindic ative
Ġstraw berries
Ġj ungle
Ġinf amous
Ġfl ax
Ġinstit uted
Ġhost ility
Ġarom atic
Cho ose
ĠManufact uring
f if
is se
Ġcomm enced
Ġdiff use
ĠQ ual
ĠDisc over
Ġloose ly
Ġric her
represent ed
F und
P acific
Ġqu o
ĠCh at
Ġro ses
T s
ĠI EEE
ĠG arc
ĠCan aan
Ġsw ings
urch ase
Ġro de
ĠY emen
Ġref using
ĠMar tha
EN D
umber land
educ ation
Ġrecur rence
ĠJ A
ĠCh ang
Ġpr ud
Ġest ates
Ġever green
Ġappl iance
ĠPhys iology
ĠBur ma
ĠVen et
Ġic ons
A lex
Ġactiv ism
Ġt ides
Ġl ane
Ġst a
Ġac ron
Ġsust aining
Bas ic
Ġwas ting
gh ai
so il
riz es
B rown
ĠW ritten
Ġapplic ants
Ġsup ers
Ġtom bs
Ġquot ation
Ġbund le
ĠJenn ifer
c ert
Â ½
Ġre de
Ġj aws
ĠEx ternal
Ġpost p
Ġreact s
Ġsell s
ĠMun ich
Ġcleans ing
Ġre nov
Ġl anes
Ġad orn
Ġag r
Ġur gency
Ġsyn onymous
Ġmira cles
ĠSher man
m onds
it ted
Ġh ibern
ur ized
ad an
Ġper imeter
Ġfound ational
ape ake
ĠK rist
Ġpers ists
Ġcur se
ĠNo vel
Ġmagn ets
Ġsand stone
Ġ188 4
Te chnology
Ġsupplement al
Ġmac ular
Ġadvis or
ĠW iley
ĠF ol
ĠU ran
ik ed
elling ton
Ġ185 9
ĠCra ig
Ġcher ry
ĠCertain ly
o ing
10 2
Ġmot ive
Ġorigin ates
ĠBol ivia
Ġderiv atives
L eg
l os
Ġp orous
Ġen cephal
ĠIt al
als y
Ġflu ency
rec ogn
Ġimper fect
ĠConstant ine
Ben efits
N ature
Ġres igned
ef it
Ġfisher y
ĠCharl eston
ĠSac red
ra ising
ĠH ugh
ĠD S
Ġun real
Ġmod ifying
Ġconf ine
ĠFin nish
ch ant
ĠM I
ĠP F
Ġsub stitution
Ġtem plates
Ġwild fires
Ġ188 2
Ġfra cking
found land
Ġh inder
ost ics
ĠCop enhagen
ĠLind a
W elcome
Ã© t
Ġcircumst ance
Ġadm ire
Ġbrows ing
Ġanthrop ology
ĠLED s
ĠR ise
Ġimpair ments
ĠB I
ĠW elfare
ĠFr an
11 11
ĠEd en
Ġfair ness
Ġin verse
st at
ĠF ear
ich i
Ġup side
Ġco y
ner g
Ġimm inent
Ġviol ate
Ġrout ing
Ġslic es
u itary
ĠCh rom
Ġtw isted
ble ms
cent ral
ĠAss istance
flow ers
Ġregul ator
Ġdisrupt ive
ĠFact or
Ġincap able
ĠH ume
16 0
Ġcelebr ates
ĠStep s
Ġlegitim acy
ĠMy anmar
Ġcultiv ars
Ġmorph ological
ĠS r
ĠTh ai
ĠAb ove
ĠPres ervation
Ġir rational
ĠConf uc
Ġvolunt arily
m ate
Ġ vern
Ġa ra
Ġn ar
ĠB order
Ġr ites
Ġpre natal
ons ored
Ġhy brids
Ġbra ces
ĠClass ification
OC R
ĠRout ledge
A rab
t rue
Ġback bone
Ġcor nea
ĠBl ake
ĠAccording ly
Ġcompl ained
Ġrail roads
Ġrestrict ive
Ġprohib it
Ġprosec ution
Ġencrypt ed
L ou
ĠH iro
Ġmet rics
Ġcalcul us
ĠCheroke e
10 6
vant ages
N ative
b n
Ġo we
im an
ĠB ac
Ġsing er
Ġexplore r
ĠLand scape
osex uality
ococc al
Ġo k
ĠS eg
ĠW onder
pt une
ert il
Ġcar c
Ġexpl oded
Ġsum mers
Ġrev ise
Ġcontrast ing
Ġamb iguous
ĠPot ter
Ġlone ly
ĠT A
Ġch in
ĠF IG
Ġen listed
ood le
ĠK B
aps es
Ġantib acterial
ĠEngine er
Ġ185 1
on aut
ch us
ĠC CS
ĠM Hz
Ġland l
ĠApp alach
Ġwat ches
ĠEnter prise
Ġadvertise ments
c hemical
s i
in it
Ġra ids
is ia
ing ling
ĠB ach
un ity
Ġprom inence
Ġrighteous ness
ĠTes la
Ġl obe
em ann
ĠRe in
ĠMus cle
Ġdiss ip
Ġhero in
Ġf ist
St ar
osph ate
Ġrid ges
os ocial
ĠN ak
ec ca
Ġstate wide
Ġpron ounce
Ġresc ued
s ince
Ġdem ocr
Ġgar ments
Ġrect angle
C reating
il us
et a
ĠS oy
ĠC B
Ġ2 30
ĠJ obs
alle l
Ġinhib ition
Ġrheumat oid
al us
ĠR are
iot a
Ġsn ap
ĠCur iosity
Ġdent ists
Ġdefect ive
Ġrh in
Ġcongress ional
c ond
ĠT ag
op ed
Ġpl ent
Ġtra y
Ġgr as
ĠCont emporary
Ġwa ited
Ġmer its
Ġpret end
ĠScript ures
vol ume
w hether
Ġcontract or
Ġmic rop
C lin
L ocation
ad vert
Ġsl ender
Ġden ying
Ġimpl ication
ĠMult i
Ġspray ing
ĠJoy ce
en o
Ġgr ind
isc her
Ġabs cess
bo ats
Ġpref ers
access ible
Ġafore mentioned
ĠB row
Ġair ways
ĠEd mund
Ġconfig ured
ĠOrig inal
Fr ank
es ame
Ġst ern
ĠC SS
ul i
Ġr ally
sy n
Comp uter
R est
ĠP ere
Ġhe mat
Ġey eb
Ġstat utory
Ġpsych o
Ar thur
Ġmanifest ed
gener ated
Ġmultipl ied
ĠLibr aries
Ö ¸
ĠM ons
ĠThe ore
ĠH aven
ĠH appy
Ġinsect icides
Ġ188 1
Ġadren al
k el
ĠF ROM
ĠCh al
ĠAr duino
Ġste aling
Ġap olog
ĠMc Donald
Ġenthusi asts
Ġunequ al
he ro
Ġb rowse
Ġh ats
ĠS iberia
Ġit chy
Ġsh irt
In it
umb ar
zz y
ipel ago
Ġ æ
ĠA verage
Ġchild birth
Ġtop ography
ï¬ ģ
C ost
Ġp i
ĠF ou
Ġbi otechnology
AT A
ĠPres byter
thern et
Ġexperiment ing
Ġwithd rew
ĠEqu ipment
W E
y en
ĠRe ed
Ġexcess ively
Ġsubs istence
Ġspaw ning
b red
Ġw ines
ĠL AN
Ġun m
Ġag ro
Ġshort ened
Ã© n
Ġfix ing
Ġdiscoura ged
Ġreg isters
Ġmass acre
Ġjo ke
Ġautom obiles
pub lished
ĠT oy
ĠA zer
ĠB O
Ġbl isters
onom ics
Ġdem ise
Ġheart beat
Ġoccup ies
she ll
ĠDiet ary
Ġmathematic ian
Ġa esthetics
ĠM ining
Ġ7 50
Ġsupplement ed
Ġmunicip ality
Ġdisse mination
Ġo phthalm
Ġp he
Ġf ern
ĠB one
Ġfl aw
Ġstream ing
Ġtheore tically
ĠGlas gow
Ġmangan ese
g rand
Ġo ats
op p
ram a
min ating
ĠEqu al
Ġconvey ed
Ġdialect s
Ġirrevers ible
N I
k an
al ong
as so
Ġ20 25
oss il
Ġsub urbs
lu ence
yn ec
Ġresemb ling
Ġaffil iated
W ould
W orks
ĠG or
act ivated
Ġchem ist
Ġsuper b
[...]
