{"!":0,"\"":1,"#":2,"$":3,"%":4,"&":5,"'":6,"(":7,")":8,"*":9,"+":10,",":11,"-":12,".":13,"/":14,"0":15,"1":16,"2":17,"3":18,"4":19,"5":20,"6":21,"7":22,"8":23,"9":24,":":25,";":26,"<":27,"=":28,">":29,"?":30,"@":31,"A":32,"B":33,"C":34,"D":35,"E":36,"F":37,"G":38,"H":39,"I":40,"J":41,"K":42,"L":43,"M":44,"N":45,"O":46,"P":47,"Q":48,"R":49,"S":50,"T":51,"U":52,"V":53,"W":54,"X":55,"Y":56,"Z":57,"[":58,"\\":59,"]":60,"^":61,"_":62,"`":63,"a":64,"b":65,"c":66,"d":67,"e":68,"f":69,"g":70,"h":71,"i":72,"j":73,"k":74,"l":75,"m":76,"n":77,"o":78,"p":79,"q":80,"r":81,"s":82,"t":83,"u":84,"v":85,"w":86,"x":87,"y":88,"z":89,"{":90,"|":91,"}":92,"~":93,"¡":94,"¢":95,"£":96,"¤":97,"¥":98,"¦":99,"§":100,"¨":101,"©":102,"ª":103,"«":104,"¬":105,"®":106,"¯":107,"°":108,"±":109,"²":110,"³":111,"´":112,"µ":113,"¶":114,"·":115,"¸":116,"¹":117,"º":118,"»":119,"¼":120,"½":121,"¾":122,"¿":123,"À":124,"Á":125,"Â":126,"Ã":127,"Ä":128,"Å":129,"Æ":130,"Ç":131,"È":132,"É":133,"Ê":134,"Ë":135,"Ì":136,"Í":137,"Î":138,"Ï":139,"Ð":140,"Ñ":141,"Ò":142,"Ó":143,"Ô":144,"Õ":145,"Ö":146,"×":147,"Ø":148,"Ù":149,"Ú":150,"Û":151,"Ü":152,"Ý":153,"Þ":154,"ß":155,"à":156,"á":157,"â":158,"ã":159,"ä":160,"å":161,"æ":162,"ç":163,"è":164,"é":165,"ê":166,"ë":167,"ì":168,"í":169,"î":170,"ï":171,"ð":172,"ñ":173,"ò":174,"ó":175,"ô":176,"õ":177,"ö":178,"÷":179,"ø":180,"ù":181,"ú":182,"û":183,"ü":184,"ý":185,"þ":186,"ÿ":187,"Ā":188,"ā":189,"Ă":190,"ă":191,"Ą":192,"ą":193,"Ć":194,"ć":195,"Ĉ":196,"ĉ":197,"Ċ":198,"ċ":199,"Č":200,"č":201,"Ď":202,"ď":203,"Đ":204,"đ":205,"Ē":206,"ē":207,"Ĕ":208,"ĕ":209,"Ė":210,"ė":211,"Ę":212,"ę":213,"Ě":214,"ě":215,"Ĝ":216,"ĝ":217,"Ğ":218,"ğ":219,"Ġ":220,"ġ":221,"Ģ":222,"ģ":223,"Ĥ":224,"ĥ":225,"Ħ":226,"ħ":227,"Ĩ":228,"ĩ":229,"Ī":230,"ī":231,"Ĭ":232,"ĭ":233,"Į":234,"į":235,"İ":236,"ı":237,"Ĳ":238,"ĳ":239,"Ĵ":240,"ĵ":241,"Ķ":242,"ķ":243,"ĸ":244,"Ĺ":245,"ĺ":246,"Ļ":247,"ļ":248,"Ľ":249,"ľ":250,"Ŀ":251,"ŀ":252,"Ł":253,"ł":254,"Ń":255,"Ġt":256,"Ġa":257,"he":258,"in":259,"re":260,"Ġthe":261,"on":262,"er":263,"Ġo":264,"at":265,"Ġs":266,"en":267,"Ġc":268,"Ġw":269,"es":270,"is":271,"nd":272,"it":273,"or":274,"Ġp":275,"al":276,"Ġb":277,"ed":278,"an":279,"Ġof":280,"Ġf":281,"ing":282,"Ġin":283,"ou":284,"ar":285,"Ġm":286,"Ġand":287,"Ġto":288,"ic":289,"Ġd":290,"ion":291,"le":292,"ro":293,"as":294,"Ġh":295,"ent":296,"Ġth":297,"ct":298,"Ġe":299,"il":300,"Ġre":301,"om":302,"ve":303,"Ġl":304,"st":305,"Ġn":306,"ly":307,"Ġbe":308,"âĢ":309,"Ġis":310,"ĠT":311,"se":312,"ol":313,"Ġg":314,"ation":315,"im":316,"id":317,"et":318,"ut":319,"ce":320,"ot":321,"ur":322,"ra":323,"ch":324,"ow":325,"ĠA":326,"Ġfor":327,"ig":328,"Ġu":329,"Ġthat":330,"ĠS":331,"Ġon":332,"Ġst":333,"ver":334,"Ġy":335,"ĠI":336,"ĠC":337,"ir":338,"ul":339,"ay":340,"am":341,"Ġas":342,"ith":343,"el":344,"ad":345,"Ġpro":346,"her":347,"Ġare":348,"Ġcon":349,"Ġan":350,"Ġwith":351,"Ġyou":352,"if":353,"Ġwh":354,"Ġit":355,"Ġor":356,"Ġal":357,"ter":358,"od":359,"ĠM":360,"ĠThe":361,"Ġ(":362,"ment":363,"ge":364,"ĠP":365,"th":366,"Ġ1":367,"op":368,"ate":369,"ist":370,"ers":371,"Ġde":372,"Ġhe":373,"ies":374,"ill":375,"ess":376,"ab":377,"ĠB":378,"Ġex":379,"us":380,"Ġwe":381,"ore":382,"ect":383,"âĢĻ":384,"Ġcom":385,"Ġsu":386,"ity":387,"est":388,"ac":389,"res":390,"Ġha":391,"ive":392,"um":393,"ĠH":394,"ld":395,"rom":396,"os":397,"Ġv":398,"ke":399,"Ġby":400,"ant":401,"em":402,"iv":403,"qu":404,"ain":405,"ĠW":406,"nt":407,"Ġat":408,"pp":409,"igh":410,"Ġwas":411,"Ġcan":412,"ĠD":413,"ud":414,"Ġfrom":415,"ĠE":416,"Ġch":417,"oc":418,"and":419,"Ġr":420,"ort":421,"ĠR":422,"Ġne":423,"ĠF":424,"Ġse":425,"ial":426,"Ġ2":427,"ure":428,"Ġnot":429,"ĠâĢ":430,"un":431,"Ġle":432,"art":433,"ical":434,"ĠG":435,"ĠN":436,"Ġhave":437,"ri":438,"ĠL":439,"og":440,"Ġsh":441,"Ġen":442,"Ġsp":443,"Ġthis":444,"ight":445,"Ġab":446,"pt":447,"ich":448,"Ġwor":449,"rou":450,"red":451,"all":452,"ther":453,"ould":454,"The":455,"ions":456,"ost":457,"gh":458,"00":459,"ome":460,"our":461,"du":462,"Ġim":463,"ated":464,"Ġus":465,"ine":466,"per":467,"Ġpl":468,"ag":469,"out":470,"ard":471,"ell":472,"Ġtheir":473,"ide":474,"act":475,"ff":476,"Ġint":477,"ĠO":478,"ans":479,"pl":480,"ast":481,"ear":482,"age":483,"ak":484,"ust":485,"Ġwhich":486,"Ġyour":487,"Ġk":488,"Ġwhe":489,"Ġthey":490,"ec":491,"ĠJ":492,"ous":493,"iz":494,"ĠU":495,"ood":496,"Ġall":497,"Ġad":498,"ult":499,"Ġwill":500,"ib":501,"Ġcont":502,"end":503,"ĠIn":504,"Ġinc":505,"cc":506,"Ġdis":507,"ru":508,"Ġmore":509,"Ġcomp":510,"ong":511,"ap":512,"âĢĿ":513,"Ġres":514,"ia":515,"ip":516,"vel":517,"ew":518,"ations":519,"Ġhas":520,"ere":521,"so":522,"Ġdo":523,"orm":524,"ary":525,"ater":526,"ĠTh":527,"able":528,"ence":529,"are":530,"ild":531,"Ġman":532,"Ġother":533,"Ġcl":534,"ual":535,"Ġbut":536,"ks":537,"Ġwere":538,"ry":539,"ind":540,"ep":541,"Ġper":542,"Ġme":543,"ents":544,"Ġte":545,"Ġimp":546,"ĠâĢľ":547,"ach":548,"Ġone":549,"Ġalso":550,"ance":551,"reat":552,"'s":553,"ose":554,"ign":555,"ake":556,"ress":557,"ass":558,"ase":559,"au":560,"av":561,"Ġso":562,"Ġ19":563,"ction":564,"Ġj":565,"ition":566,"Ġout":567,"ice":568,"one":569,"Ġar":570,"Ġun":571,"ime":572,"very":573,"ber":574,"Ġapp":575,"Ġpart":576,"Ġabout":577,"ord":578,"Ġstud":579,"ace":580,"Ġev":581,"ory":582,"ens":583,"ok":584,"ack":585,"ish":586,"ount":587,"Ġwho":588,"ame":589,"ire":590,"ĠSt":591,"Ġpe":592,"Ġinf":593,").":594,"Ġhis":595,"Ġsy":596,"Ġthem":597,"Ġcomm":598,"ors":599,"ue":600,"ub":601,"ite":602,"Ġsc":603,"ike":604,"ces":605,"ĠK":606,"ang":607,"ree":608,"ound":609,"now":610,"low":611,"ĠIt":612,"olog":613,"Ġbec":614,"Ġup":615,"Ġpre":616,"Ġ\"":617,"Ġmay":618,"ie":619,"ric":620,"Ġthan":621,"ile":622,"Ġqu":623,"iff":624,"ople":625,"Ġsome":626,"ĠCh":627,"ays":628,"Ġrec":629,"Ġyear":630,"ail":631,"ates":632,"Ġbeen":633,"Ġthere":634,"Ġwhen":635,"ian":636,"ings":637,"nder":638,"Ġits":639,"mer":640,"ough":641,"Ġinto":642,"Ġgo":643,"Ġag":644,"Ġtime":645,"ren":646,"Ġtra":647,"Ġwork":648,"ph":649,"Ġover":650,"ĠThis":651,"rit":652,"te":653,"Ġ20":654,"Ġthese":655,"erv":656,"Ġpeople":657,"vers":658,"Ġdiff":659,"ons":660,"Ġhow":661,"ally":662,"ĠV":663,"rough":664,"lud":665,"Ġro":666,"ause":667,"Ġuse":668,"Ġcons":669,"ond":670,"Ġhad":671,"Ġtr":672,"ms":673,"Ġcol":674,"ll":675,"Ġra":676,"tern":677,"Ġour":678,"ove":679,"ific":680,"Ġ3":681,"Ġact":682,"Ġbet":683,"we":684,"Ġmost":685,"int":686,"Ġlike":687,"Ġknow":688,"alth":689,"ities":690,"Ġunder":691,"Ġbl":692,"irst":693,"ys":694,"ments":695,"lic":696,"Ġdes":697,"Ġsa":698,"lect":699,"Ġwould":700,"ject":701,"ĠY":702,"ious":703,"les":704,"ook":705,"row":706,"ning":707,"Ġacc":708,"velop":709,"stem":710,"Ġneed":711,"Ġnew":712,"Ġtw":713,"Ġsuch":714,"Ġrel":715,"Ġif":716,"ffect":717,"Ġrep":718,"Ġany":719,"Ġhel":720,"ient":721,"Ġgen":722,"Ġchild":723,"Ġinclud":724,"ational":725,"ob":726,"cess":727,"ular":728,"ative":729,"ple":730,"hed":731,"Ġwhat":732,"Ġused":733,"yp":734,"Ġhelp":735,"ced":736,"Ġonly":737,"Ġpr":738,"ool":739,"Ġprodu":740,"Ġph":741,"ating":742,"ov":743,"Ġprov":744,"Ġno":745,"Ġmany":746,"Ġind":747,"Ġam":748,"Ġdevelop":749,"Ġoff":750,"Ġthrough":751,"Ġfirst":752,"),":753,"Ġfe":754,"Ġspec":755,"ĠUn":756,"fter":757,"ath":758,"Ġreg":759,"oss":760,"ise":761,"round":762,"Ġac":763,"ark":764,"Ġdi":765,"ics":766,"Ġpo":767,"uc":768,"Ġexp":769,"eth":770,"hen":771,"erm":772,"ful":773,"Ġem":774,"uring":775,"Ġtwo":776,"ts":777,"rib":778,"Ġsystem":779,"Ġdiffere":780,"oth":781,"ink":782,"iss":783,"ne":784,"Ġob":785,"old":786,"als":787,"rop":788,"ility":789,"Ġdec":790,"ible":791,"Ġass":792,"Ġatt":793,"Ġadd":794,"ased":795,"ĠâĢĵ":796,"ten":797,"Ġsur":798,"ange":799,"Ġshould":800,"ife":801,"ĠHe":802,"fore":803,"ower":804,"ures":805,"In":806,"ble":807,"ert":808,"Ġwell":809,"arch":810,"Ġ-":811,"aw":812,"Ġfl":813,"Ġwater":814,"ween":815,"ram":816,"Ġsupp":817,"ract":818,"ng":819,"Ġrem":820,"Ġinv":821,"Ġyears":822,"Ġ201":823,"Ġsub":824,"Ġco":825,"own":826,"sel":827,"ade":828,"gan":829,"Ġhealth":830,"ied":831,"Ġsm":832,"Ġbetween":833,"Ġ4":834,"ution":835,"hes":836,"Ġpres":837,"cy":838,"Ġcould":839,"its":840,"Ġhigh":841,"Ġ200":842,"Ġwhere":843,"ever":844,"ick":845,"Ġtrans":846,"Ġmake":847,"wn":848,"ily":849,"uch":850,"Ġget":851,"Ġbu":852,"xt":853,"ants":854,"chool":855,"Ġ5":856,"Ġher":857,"ss":858,"Ġpers":859,"Ġimport":860,"form":861,"ology":862,"ural":863,"ident":864,"chn":865,"Ġear":866,"ience":867,"Ġrese":868,"Ġinter":869,"ited":870,"Ġform":871,"ting":872,"Ġmod":873,"Ġinst":874,"meric":875,"Ġnum":876,"iet":877,"Ġpol":878,"Ġdisc":879,"ines":880,"land":881,"Ġexam":882,"ins":883,"ont":884,"hat":885,"Ġfound":886,"Ġdifferent":887,"Ġbecause":888,"ef":889,"ict":890,"ists":891,"ually":892,"Ġlear":893,"Ġafter":894,"Ġsim":895,"ata":896,"Ġthen":897,"ness":898,"Ġlong":899,"Ġlar":900,"gy":901,"Ġcar":902,"Ġvery":903,"Ġeven":904,"Ġexper":905,"Ġworld":906,"Ġeffect":907,"Ġjust":908,"Ġmed":909,"Ġcent":910,"ft":911,"ism":912,"cept":913,"Ġway":914,"Ġincre":915,"Ġtyp":916,"ature":917,"Ġinform":918,"Ġdet":919,"urn":920,"oy":921,"Ġed":922,"other":923,"Ġcount":924,"aking":925,"get":926,"Ġhum":927,"Ġ18":928,"Ġsee":929,"Ġresp":930,"ically":931,"ĠAmeric":932,"ives":933,"vent":934,"Ġke":935,"ivers":936,"Ġsign":937,"ollow":938,"Ġgener":939,"Ġthose":940,"Ġref":941,"Ġvar":942,"Ġprog":943,"iew":944,"Ġpat":945,"cer":946,"Ġevery":947,"arm":948,"Ġext":949,"Ġcall":950,"Ġprocess":951,"Ġfact":952,"Ġbeing":953,"Ġpub":954,"Ġresult":955,"Ġsaid":956,"Ġchildren":957,"ck":958,"omm":959,"ases":960,"Ġeach":961,"ps":962,"Ġsoc":963,"led":964,"ues":965,"Ġloc":966,"ds":967,"Ġgra":968,"Ġsec":969,"tle":970,"Ġrequ":971,"Ġca":972,"..":973,"ruct":974,".âĢĿ":975,"ody":976,"ages":977,"iron":978,"Ġimportant":979,"Th":980,"Ġpartic":981,"Ġlife":982,"Ġtechn":983,"ĠAl":984,"ork":985,"Ġset":986,"Ġmuch":987,"Ġcommun":988,"Ġmon":989,"Ġdist":990,"ĠWe":991,"Ġart":992,"Ġmy":993,"ather":994,"Ġshe":995,"Ġdep":996,"Ġcre":997,"ved":998,"Ġdef":999,"vern":1000,"Ġfam":1001,"Ġent":1002,"Ġduring":1003,"ized":1004,"ĠPro":1005,"Ġown":1006,"Ġfood":1007,"Ġfollow":1008,"imes":1009,"cent":1010,"Ġread":1011,"Ġinformation":1012,"Ġstudents":1013,"ices":1014,"ĠThey":1015,"Ġlead":1016,"ward":1017,"Ġlevel":1018,"ĠAs":1019,"Ġmade":1020,"Ġright":1021,"Ġsk":1022,"ĠRe":1023,"Ġsame":1024,"Ġaut":1025,"Ġdoes":1026,"gg":1027,"any":1028,"Ġstudy":1029,"ize":1030,"ection":1031,"Ġgrow":1032,"Ġproble":1033,"io":1034,"Ġfind":1035,"Ġ6":1036,"Ġperson":1037,"hip":1038,"Ġgood":1039,"Ġschool":1040,"Ġdata":1041,"Ġav":1042,"ĠIf":1043,"Ġcur":1044,"Ġend":1045,"Ġback":1046,"Ġmin":1047,"the":1048,"ted":1049,"Ġins":1050,"Ġboth":1051,"Ġche":1052,"Ġstr":1053,"ĠAn":1054,"ale":1055,"onom":1056,"ĠFor":1057,"und":1058,"Ġpop":1059,"Ġbefore":1060,"Ġusing":1061,"Ġshow":1062,"Ġcomple":1063,"ality":1064,".,":1065,"Ġgrou":1066,"viron":1067,"Ġsmall":1068,"Ġhist":1069,"Ġexpl":1070,"Ġcor":1071,"ĠAr":1072,"19":1073,"stand":1074,"read":1075,"ially":1076,"Ġgl":1077,"omen":1078,"ince":1079,"ĠHow":1080,"ivid":1081,"inal":1082,"Ġmain":1083,"Ġagain":1084,"Ġtreat":1085,"iel":1086,"ined":1087,"Ġoften":1088,"Ġtest":1089,"ty":1090,"ars":1091,"Ġbo":1092,"20":1093,"ock":1094,"Ġprot":1095,"der":1096,"Ġbr":1097,"||":1098,"Ġsol":1099,"Ġless":1100,"ĠInd":1101,"rol":1102,"nce":1103,"Ġval":1104,"Ġposs":1105,"ergy":1106,"Ġwhile":1107,"ex":1108,"imate":1109,"ix":1110,"Ġdise":1111,"Ġday":1112,"Ġtake":1113,"ished":1114,"000":1115,"Ġstate":1116,"ute":1117,"Ġlit":1118,"Ġhim":1119,"ien":1120,"Ġnow":1121,"ax":1122,"Ġserv":1123,"Ġcell":1124,"ĠSp":1125,"akes":1126,"Ġnumber":1127,"Ġocc":1128,"Ġmem":1129,"Ġfun":1130,"ral":1131,"ĠNew":1132,"Ġec":1133,"Ġpower":1134,"ier":1135,"dition":1136,"oh":1137,"Ġris":1138,"Ġvis":1139,"Ġbody":1140,"irect":1141,"Ġresearch":1142,"vironment":1143,"Ġorgan":1144,"ulation":1145,"Ġactiv":1146,"ury":1147,"ides":1148,"iety":1149,"Ġdesign":1150,"Ġchar":1151,"iqu":1152,"Ġ10":1153,"up":1154,"Ġhuman":1155,"Ġbel":1156,"ered":1157,"iving":1158,"air":1159,"Ġclass":1160,"iversity":1161,"Ġaround":1162,"ĠSc":1163,"Ġhand":1164,"Ġmust":1165,"ves":1166,"Ġsupport":1167,"ah":1168,"Ġdown":1169,"Ġthree":1170,"ters":1171,"Ġredu":1172,"ium":1173,"Ġcommon":1174,"Ġlook":1175,"Ġstart":1176,"ven":1177,"ital":1178,"Ġconf":1179,"uss":1180,"ger":1181,"hers":1182,"ave":1183,"Ġest":1184,"Ġgreat":1185,"Ġcle":1186,"aj":1187,"Ġpoint":1188,"Ġelect":1189,"day":1190,"Ġgovern":1191,"rent":1192,"Ġ7":1193,"Ġdid":1194,"Ġplan":1195,"This":1196,"ains":1197,"ving":1198,"Ġser":1199,"âĢĶ":1200,"ĠBut":1201,"ouse":1202,"Ġlarge":1203,"cl":1204,"self":1205,"rain":1206,"Ġexample":1207,"ross":1208,"Ġland":1209,"acter":1210,"Ġcare":1211,"gen":1212,"ĠYou":1213,"Ġreport":1214,"Ġ8":1215,"Ġcontin":1216,"ron":1217,"ee":1218,"Ġop":1219,"itions":1220,"orn":1221,"ional":1222,"com":1223,"Ġallow":1224,"Ġconst":1225,"ull":1226,"Ġincluding":1227,"ared":1228,"ĠThere":1229,"ash":1230,",âĢĿ":1231,"Ġthough":1232,"anc":1233,"Ġbuild":1234,"Ġcour":1235,"eg":1236,"Ġunderstand":1237,"way":1238,"Ġret":1239,"Ġequ":1240,"Ġadv":1241,"Ġeduc":1242,"Ġwrit":1243,"Ġcalled":1244,"Ġmet":1245,"Ġsom":1246,"Ġdr":1247,"iven":1248,"Ġpract":1249,"Ġstill":1250,"ĠAnd":1251,"Ġknown":1252,"ner":1253,"outh":1254,"aterial":1255,"ĠâĢĺ":1256,"iver":1257,"els":1258,"ired":1259,"Ġbeh":1260,"Ġeas":1261,"Ġpublic":1262,"ividual":1263,"Ġquest":1264,"10":1265,"Ġide":1266,"Ġthink":1267,"âĢĵ":1268,"Ġplace":1269,"ids":1270,"reen":1271,"iod":1272,"Ġgu":1273,"erest":1274,"oms":1275,"Ġ9":1276,"osed":1277,"ential":1278,".\"":1279,"oci":1280,"inc":1281,"Ġmight":1282,"Ġappro":1283,"ĠIs":1284,"ected":1285,"ries":1286,"Ġfew":1287,"ider":1288,"ets":1289,"de":1290,"Ġmat":1291,"ization":1292,"ination":1293,"ank":1294,"âĢľ":1295,"Ġstand":1296,"ources":1297,"Ġpresent":1298,"Ġwant":1299,"bers":1300,"ĠWh":1301,"itive":1302,"ĠThese":1303,"Ġchang":1304,"Ġenergy":1305,"me":1306,"lish":1307,"Ġcaus":1308,"raph":1309,"Ġproduct":1310,"Ġenvironment":1311,"Ġtem":1312,"Ġpur":1313,"Ġdem":1314,"ration":1315,"Ġwithin":1316,"eng":1317,"ense":1318,"Ġwithout":1319,"oun":1320,"ption":1321,"ording":1322,"Ġchange":1323,"ived":1324,"Ġiss":1325,"ethod":1326,"Ġindividual":1327,"ffic":1328,"ason":1329,"ertain":1330,"Ġsym":1331,"Ġdevelopment":1332,"tt":1333,"Ġ199":1334,"ior":1335,"ĠEng":1336,"Ġplay":1337,"Ġphys":1338,"esp":1339,"Ġmaterial":1340,"Ġdon":1341,"Ġproject":1342,"Ġimm":1343,"Ġimpro":1344,"line":1345,"eral":1346,"ĠDe":1347,"Ġident":1348,"Ġcap":1349,"Ġlearn":1350,"ĠUniversity":1351,"Ġlight":1352,"Ġdisease":1353,"angu":1354,"arent":1355,"Ġben":1356,"Ġ&":1357,"less":1358,"Ġair":1359,"Ġdirect":1360,"man":1361,"Ġpot":1362,"alk":1363,"Ġsl":1364,"Ġprof":1365,"ians":1366,"Ġsit":1367,"Ġanother":1368,"ĠAmerican":1369,"Ġpass":1370,"iness":1371,"Ġwomen":1372,"Ġve":1373,"Ġpos":1374,"Ġbre":1375,"agn":1376,"Ġeng":1377,"Ġarea":1378,"sc":1379,"Ġlaw":1380,"orth":1381,"Ġbelie":1382,"Ġmus":1383,"illion":1384,"ton":1385,"Ġsocial":1386,"Ġblood":1387,"Ġbest":1388,"bs":1389,"ified":1390,"ability":1391,"Ġinclude":1392,"ajor":1393,"Ġhome":1394,"ental":1395,"ĠCon":1396,"ological":1397,"Ġmeas":1398,"Ġbas":1399,"pr":1400,"Ġinterest":1401,"Ġcult":1402,"erc":1403,"ield":1404,"ained":1405,"ug":1406,"It":1407,"ering":1408,"rodu":1409,"ify":1410,"Ġdesc":1411,"Ġet":1412,"Ġpain":1413,"atic":1414,"Ġmark":1415,"atural":1416,"Ġrest":1417,"ats":1418,"Ġrisk":1419,"Ġant":1420,"ccess":1421,"Ġcontrol":1422,"Ġbecome":1423,"ently":1424,"Ġopp":1425,"'t":1426,"Ġsever":1427,"Ġanal":1428,"Ġprogram":1429,"Ġanim":1430,"ĠAd":1431,"ways":1432,"ik":1433,"Ġmethod":1434,"Ġold":1435,"az":1436,"ĠHowever":1437,"Ġhere":1438,"Ġbetter":1439,"ource":1440,"Ġproper":1441,"Ġgovernment":1442,"Ġlow":1443,"ĠPh":1444,"Ġmove":1445,"Ġeconom":1446,"Ġleg":1447,"ining":1448,"ision":1449,"Ġearly":1450,"gin":1451,"Ġpar":1452,"ern":1453,"rist":1454,"hor":1455,"Ġmil":1456,"ills":1457,"lished":1458,"Ġagainst":1459,"rap":1460,"ĠSh":1461,"here":1462,"to":1463,"Ġkeep":1464,"Ġwar":1465,"Ġtoo":1466,"Ġlast":1467,"arc":1468,"ware":1469,"Ġorder":1470,"ead":1471,"str":1472,"Ġele":1473,"Ġreal":1474,"eed":1475,"Ġsecond":1476,"Ġtre":1477,"Ġmeans":1478,"icle":1479,"Ġavail":1480,"Ġprovide":1481,"Ġcause":1482,"ients":1483,"Ġfore":1484,"ories":1485,"ission":1486,"Ġoper":1487,"Ġhistory":1488,"Ġmajor":1489,"Ġter":1490,"ards":1491,"ention":1492,"Ġoccur":1493,"Ġgroup":1494,"Ġfamily":1495,"use":1496,"Ġparticular":1497,"Ġunt":1498,"Ġpossible":1499,"Ġdev":1500,"amp":1501,"lu":1502,"Ġperform":1503,"Ġtop":1504,"ĠUnited":1505,"ĠRes":1506,"view":1507,"Ġseveral":1508,"Ġsay":1509,"Ġcurrent":1510,"ĠCl":1511,"ĠWhen":1512,"ples":1513,"Ġinvol":1514,"Ġperiod":1515,"Ġaddition":1516,"Ġindu":1517,"ised":1518,"Ġspecies":1519,"Ġable":1520,"ograph":1521,"ote":1522,"Ġfin":1523,"par":1524,"pect":1525,"ĠEx":1526,"Ġlearning":1527,"Ġmean":1528,"Ġnear":1529,"Ġorig":1530,"Ġmen":1531,"ina":1532,"Ġhig":1533,"Ġhapp":1534,"Ġ15":1535,"Ġbenef":1536,"irc":1537,"Ġpercent":1538,"Ġsaf":1539,"ĠâĢĶ":1540,"oid":1541,"Ġ[":1542,"Ġcal":1543,"ĠCol":1544,"Ġ.":1545,"ĠGod":1546,"Ġlangu":1547,"ogn":1548,"ĠPl":1549,"Ġel":1550,"Ġprom":1551,"idence":1552,"Ġthings":1553,"Ġopen":1554,"Ġcr":1555,"Ġsince":1556,"What":1557,"Ġbus":1558,"Ġfeel":1559,"Ġplant":1560,"Ġnon":1561,"ane":1562,"Ġaffect":1563,"Ġlim":1564,"urop":1565,"Ġmar":1566,"Ġothers":1567,"ret":1568,"ator":1569,"br":1570,"Ġcost":1571,"though":1572,"Ġsignific":1573,"Ġamong":1574,"ĠCan":1575,"ilar":1576,"ĠTo":1577,"Ġscient":1578,"Ġareas":1579,"ĠZ":1580,"sy":1581,"osp":1582,"ots":1583,"Ġname":1584,"Ġtreatment":1585,"of":1586,"Ġavailable":1587,"ended":1588,"Ġfre":1589,"Ġcountry":1590,"port":1591,"ĠQ":1592,"Ġhead":1593,"Ġbased":1594,"ends":1595,"Ġfac":1596,"Ġfollowing":1597,"ĠSe":1598,"ames":1599,"Ġfour":1600,"ww":1601,"Ġtimes":1602,"ĠStates":1603,"ĠComm":1604,"Ġsays":1605,"omp":1606,"ole":1607,"Ġprevent":1608,"ably":1609,"ling":1610,"Ġcase":1611,",\"":1612,"Ġaccess":1613,"elf":1614,"Ġcome":1615,"urther":1616,"Ġcond":1617,"ocus":1618,"ĠAt":1619,"Ġcertain":1620,"ances":1621,"Ġpost":1622,"Ġfree":1623,"cing":1624,"Ġwee":1625,"Ġdel":1626,"Ġmonth":1627,"Ġage":1628,"une":1629,"Ġproblem":1630,"Ġlo":1631,"Ġtype":1632,"Ġconn":1633,"Ġ17":1634,"Ġobject":1635,"be":1636,"ression":1637,"aper":1638,"Ġrun":1639,"Ġlist":1640,"Ġrece":1641,"Ġstruct":1642,"Ġview":1643,"ox":1644,"urope":1645,"ided":1646,"Ġcells":1647,"We":1648,"Ġlab":1649,"Ġpress":1650,"Ġcreat":1651,"hy":1652,"Ġproblems":1653,"Ġput":1654,"Ġbro":1655,"Ġnatural":1656,"ope":1657,"Ġlocal":1658,"Ġbi":1659,"ploy":1660,"Ġgr":1661,"Ġlittle":1662,"ones":1663,"Ġsuccess":1664,"oint":1665,"Ġvol":1666,"Ġintern":1667,"icult":1668,"Ġhard":1669,"resent":1670,"olution":1671,"If":1672,"Ġlevels":1673,"Ġ12":1674,"stit":1675,"Ġbir":1676,"Ġlet":1677,"ggest":1678,"Ġamount":1679,"ĠCent":1680,"ething":1681,"Ġassoci":1682,"Ġflow":1683,"Ġuntil":1684,"Ġyoung":1685,"ĠEn":1686,"Ġmult":1687,"Ġfar":1688,"Ġbook":1689,"Ġess":1690,"Ġmaking":1691,"ledge":1692,"Ġlater":1693,"Ġimpact":1694,"ither":1695,"18":1696,"ĠChrist":1697,"Ġgiven":1698,"por":1699,"work":1700,"Ġturn":1701,"ĠTe":1702,"ately":1703,"not":1704,"Ġshort":1705,"ged":1706,"ortun":1707,"Ġsw":1708,"atory":1709,"12":1710,"ĠNational":1711,"Ġdue":1712,"Ġsignificant":1713,"oks":1714,"ĠEurope":1715,"Ġfunction":1716,"Ġsuggest":1717,"Ġcho":1718,"Ġheart":1719,"ication":1720,"Ġseem":1721,"__":1722,"over":1723,"Ġfocus":1724,"hem":1725,"Ġdeterm":1726,"uture":1727,"ĠAf":1728,"ĠBe":1729,"Ġcomput":1730,"ured":1731,"ĠFr":1732,"aken":1733,"cle":1734,"Ġpolit":1735,"Ġvir":1736,"Ġbehav":1737,"aps":1738,"Ġinvest":1739,"Ġdays":1740,"ĠOr":1741,"Ġeducation":1742,"Ġfil":1743,"Ġlikely":1744,"ĠWhat":1745,"Ġsomething":1746,"Ġcirc":1747,"Ġalong":1748,"Ġsystems":1749,"Ġrad":1750,"Ġcomb":1751,"Ġalways":1752,"agement":1753,"ried":1754,"Ġhy":1755,"face":1756,"ĠOn":1757,"Ġcommunity":1758,"Ġ0":1759,"Ġcourse":1760,"Ġappear":1761,"orld":1762,"ending":1763,"icro":1764,"Ġincrease":1765,"vious":1766,"Ġusually":1767,"Ġconsider":1768,"ĠUS":1769,"ĠAll":1770,"Ġsing":1771,"aster":1772,"Ġclear":1773,"As":1774,"Ġobs":1775,"Ġrele":1776,"Ġdeath":1777,"Ġdra":1778,"ecially":1779,"Ġteac":1780,"isc":1781,"Ġdifficult":1782,"Ġgive":1783,"ring":1784,"Ġspecific":1785,"Ġresults":1786,"Ġbrain":1787,"Ġpast":1788,"Ġwords":1789,"Ġtechnology":1790,"Ġ16":1791,"Ġlanguage":1792,"Ġcreate":1793,"Ġconsum":1794,"Ġenc":1795,"ours":1796,"Ġtoday":1797,"Ġline":1798,"Ġneeds":1799,"ape":1800,"Ġsimilar":1801,"Ġauthor":1802,"ohn":1803,"There":1804,"Ġparent":1805,"Ġexperience":1806,"Ġcancer":1807,"etic":1808,"Ġcentury":1809,"min":1810,"ember":1811,"ators":1812,"asing":1813,"Ġ$":1814,"Ġexist":1815,"Ġtemper":1816,"ned":1817,"How":1818,"Ġconditions":1819,"50":1820,"app":1821,"ĠSo":1822,"Ġwhy":1823,"Ġrecord":1824,"Ġdescrib":1825,"af":1826,"Ġill":1827,"Ġpopulation":1828,"Ġcharacter":1829,"Ġdiscuss":1830,"ĠMed":1831,"ively":1832,"Ġmillion":1833,"especially":1834,"ptoms":1835,"Ġey":1836,"Ġspace":1837,"Ġspecial":1838,"aining":1839,"11":1840,"idd":1841,"Ġnecess":1842,"Ġabove":1843,"mit":1844,"Ġnext":1845,"ruction":1846,"ribut":1847,"Ġvarious":1848,"obal":1849,"Ġbegin":1850,"ored":1851,"Ġ'":1852,"ĠBl":1853,"Ġworks":1854,"Ġfuture":1855,"oney":1856,"ler":1857,"Ġgre":1858,"most":1859,"Ġdam":1860,"Ġhigher":1861,"Ġcrit":1862,"Ġprofess":1863,"St":1864,"Ġmov":1865,"Ġer":1866,"Ġprop":1867,"iation":1868,"Ġchanges":1869,"rug":1870,"Ġhowever":1871,"ique":1872,"Ġtry":1873,"Ġapplic":1874,"Ġask":1875,"ode":1876,"Ġleast":1877,"Ġestab":1878,"ĠBrit":1879,"Ġacross":1880,"Ġtoget":1881,"Ġtogether":1882,"Ġcountries":1883,"Ġrequire":1884,"Ġside":1885,"atch":1886,"ray":1887,"Ġstrong":1888,"selves":1889,"Ġnever":1890,"ilities":1891,"Ġrespons":1892,"Ġkind":1893,"Ġbusiness":1894,"orts":1895,"ateg":1896,"Ġleft":1897,"omes":1898,"ĠAfric":1899,"aves":1900,"by":1901,"Ġimprove":1902,"sp":1903,"Ġcomplete":1904,"ison":1905,"Ġtool":1906,"ĠEar":1907,"Ġworking":1908,"Ġplants":1909,"Ġterm":1910,"Ġenough":1911,"amm":1912,"Ġaway":1913,"Ġways":1914,"oot":1915,"Ġmot":1916,"Ġespecially":1917,"nal":1918,"ilt":1919,"thing":1920,"Ġtru":1921,"Ġchem":1922,"aces":1923,"Ġcy":1924,"Ġresearc":1925,"Ġeffects":1926,"oman":1927,"ĠSy":1928,"Ġpatients":1929,"Ġgeneral":1930,"Ġcolle":1931,"Ġkey":1932,"sw":1933,"for":1934,"Ġhaving":1935,"Ġsens":1936,"acy":1937,"acc":1938,"aring":1939,"ysis":1940,"ĠGerm":1941,"duct":1942,"Ġprim":1943,"Ġsubject":1944,"Ġtypes":1945,"Ġfull":1946,"lement":1947,"alf":1948,"Ġcases":1949,"Ġstudies":1950,"let":1951,"Ġteam":1952,"ument":1953,"aching":1954,"ires":1955,"ipp":1956,"Ġstep":1957,"Ġknowledge":1958,"Ġnet":1959,"iting":1960,"aim":1961,"Ġrelations":1962,"Ġgoing":1963,"Ġbecame":1964,"ales":1965,"hing":1966,"ĠWar":1967,"side":1968,"Ġrepresent":1969,"Ġwhether":1970,"Ġhouse":1971,"ae":1972,"Ġinflu":1973,"Ġnorm":1974,"ges":1975,"chie":1976,"ĠSome":1977,"Ġmind":1978,"ising":1979,"ued":1980,"ley":1981,"Ġ198":1982,"An":1983,"Ġmakes":1984,"Ġconcer":1985,"Ġprotect":1986,"NA":1987,"Ġaccount":1988,"ency":1989,"Ġsymptoms":1990,"ann":1991,"ification":1992,"//":1993,"Ġself":1994,"ĠJohn":1995,"istic":1996,"Ġfurther":1997,"Ġz":1998,"Ġreason":1999,"apt":2000,"Ġphysical":2001,"itor":2002,"Ġrole":2003,"Ġlower":2004,"Ġground":2005,"ready":2006,"...":2007,"Ġopt":2008,"ĠLe":2009,"Ġcity":2010,"ott":2011,"For":2012,"Ġbig":2013,"ery":2014,"ĠWorld":2015,"Ġquestion":2016,"Ġtext":2017,"ĠGen":2018,"ĠWith":2019,"ites":2020,"iol":2021,"ung":2022,"Ġpolic":2023,"ables":2024,"atures":2025,"aut":2026,"Ġsum":2027,"ĠEnglish":2028,"Ġfund":2029,"Ġlive":2030,"Ġsure":2031,"30":2032,"urch":2033,"ĠOne":2034,"Ġscience":2035,"ird":2036,"Ġproduction":2037,"Ġpred":2038,"Ġdig":2039,"200":2040,"edi":2041,"ĠGo":2042,"cul":2043,"Ġactivity":2044,"lo":2045,"augh":2046,"Ġchall":2047,"ream":2048,"Ġens":2049,"Ġ30":2050,"Ġseen":2051,"Ġactivities":2052,"Ġrange":2053,"Ġindic":2054,"15":2055,"unt":2056,"ibility":2057,"://":2058,"Ġeff":2059,"Ġvalue":2060,"Ġgroups":2061,"Ġreally":2062,"16":2063,"Ġtoward":2064,"erence":2065,"Ġlot":2066,"Ġnut":2067,"bon":2068,"Ġstory":2069,"Ġmodel":2070,"Ġparticip":2071,"Ġwr":2072,"Ġdone":2073,"Ġgrowth":2074,"Ġproducts":2075,"Ġalready":2076,"rel":2077,"Ġresources":2078,"Ġloss":2079,"Ġbelow":2080,"Ġoffic":2081,"verage":2082,"sych":2083,"Ġrather":2084,"Ġstat":2085,"etimes":2086,"Ġarticle":2087,"Ġclose":2088,"Ġword":2089,"esc":2090,"ĠThat":2091,"mber":2092,"uation":2093,"ĠIntern":2094,"Ġquality":2095,"Ġ14":2096,"oura":2097,"Ġdeveloped":2098,"Ġpotential":2099,"Ġpaper":2100,"Ġeither":2101,"osis":2102,"Ġrecogn":2103,"ĠCar":2104,"Ġwind":2105,"ĠHealth":2106,"iple":2107,"ands":2108,"Ġprob":2109,"Ġsite":2110,"overed":2111,"Ġoil":2112,"Ġfall":2113,"Ġbat":2114,"fact":2115,"Ġdeg":2116,"leep":2117,"Ġtradition":2118,"Ġemploy":2119,"ĠMar":2120,"Ġneg":2121,"Ġfield":2122,"Ġbuilding":2123,"iam":2124,"Ġachie":2125,"put":2126,"When":2127,"Ġsingle":2128,"rams":2129,"ival":2130,"Ġevent":2131,"Ġmass":2132,"Ġabs":2133,"Ġphot":2134,"Ġskills":2135,"ĠAm":2136,"Ġur":2137,"idered":2138,"Ġaccording":2139,"Ġnational":2140,"ER":2141,"Ġonce":2142,"Ġclimate":2143,"Ġreduce":2144,"17":2145,"earch":2146,"Ġflu":2147,"ĠCal":2148,"ĠGe":2149,"amin":2150,"Ġsource":2151,"Ġissues":2152,"Ġindust":2153,"ublic":2154,"ĠTr":2155,"ĠIm":2156,"ĠShe":2157,"Ġtaken":2158,"Ġsoil":2159,"Ġcollect":2160,"Ġinit":2161,"val":2162,"Ġwhole":2163,"Ġsun":2164,"rict":2165,"Ġfr":2166,"Ġfrequ":2167,"Ġmeet":2168,"Ġdrug":2169,"Ġrate":2170,"Ġdom":2171,"Ġwhite":2172,"ivil":2173,"ĠPr":2174,"Ġconcept":2175,"Ġmembers":2176,"Ġupon":2177,"rect":2178,"Ġfive":2179,"Ġcut":2180,"Ġsurface":2181,"Ġmedical":2182,"Ġaddress":2183,"ĠDr":2184,"ĠAb":2185,"ĠNorth":2186,"urity":2187,"Ġevidence":2188,"Ġrelig":2189,"Ġquestions":2190,"ule":2191,"fficient":2192,"14":2193,"Ġobserv":2194,"Ġfail":2195,"13":2196,"ym":2197,"eter":2198,"Ġconsidered":2199,"ĠSouth":2200,"Ġred":2201,"fer":2202,"Ġdetail":2203,"Ġcame":2204,"Ġcreated":2205,"ĠAmerica":2206,"Ġsize":2207,"Ġsent":2208,"Ġreturn":2209,"Ġann":2210,"ĠBy":2211,"Ġtot":2212,"Ġpressure":2213,"ips":2214,"ask":2215,"Ġrecomm":2216,"sh":2217,"Ġwide":2218,"Ġintrodu":2219,"Ġthemselves":2220,"Ġfri":2221,"Ġresearchers":2222,"Ġtell":2223,"Ġnature":2224,"reme":2225,"roll":2226,"ivity":2227,"âĢ¦":2228,"Ġliving":2229,"plic":2230,"ĠAss":2231,"ĠMay":2232,"Ġassociated":2233,"Ġanimals":2234,"Ġdest":2235,"Ġcannot":2236,"Ġpay":2237,"eb":2238,"Ġhold":2239,"Ġdoct":2240,"Ġpolitical":2241,"ights":2242,"Ġsound":2243,"oph":2244,"ibr":2245,"ety":2246,"ĠStud":2247,"Ġpractice":2248,"org":2249,"illed":2250,"Ġstates":2251,"like":2252,"Ġmarket":2253,"aced":2254,"Ġsimple":2255,"Ġincreased":2256,"Ġrequired":2257,"epend":2258,"Ġver":2259,"Ġprote":2260,"Ġ=":2261,"Ġactually":2262,"Ġadult":2263,"utions":2264,"Ġskin":2265,"Ch":2266,"Ġthought":2267,"ĠRep":2268,"Ġrelated":2269,"ober":2270,"ournal":2271,"Ġengine":2272,"Ġstress":2273,"Ġopportun":2274,"Ġhistor":2275,"reg":2276,"Ġlay":2277,"Ġweek":2278,"iding":2279,"Ġneeded":2280,"Ġunderstanding":2281,"sequ":2282,"Ġsal":2283,"enn":2284,"yn":2285,"Ġeffective":2286,"ĠAust":2287,"Ġhealthy":2288,"Ġquick":2289,"Ġentire":2290,"Ġidea":2291,"Ġcomplex":2292,"Ġrelationship":2293,"Ġ13":2294,"ĠMan":2295,"Ġ197":2296,"Ġspe":2297,"pro":2298,"Ġmaterials":2299,"Ġpurp":2300,"Ġmoney":2301,"Ġability":2302,"oon":2303,"Ġmicro":2304,"Ġcondition":2305,"Ġstudent":2306,"Ġfamil":2307,"ening":2308,"Ġfat":2309,"Ġglobal":2310,"Ġdog":2311,"eds":2312,"itud":2313,"Ġcomes":2314,"Ġalmost":2315,"Ġmaint":2316,"ging":2317,"Ġitself":2318,"ai":2319,"Ġpublished":2320,"Ġblack":2321,"erve":2322,"Ġarg":2323,"aging":2324,"Ġdoc":2325,"ened":2326,"Ġeconomic":2327,"Ġport":2328,"Ġmor":2329,"Ġrights":2330,"olic":2331,"acks":2332,"Ġprovides":2333,"Ġparts":2334,"artment":2335,"Ġexperien":2336,"Ġmodern":2337,"aged":2338,"Ġdiet":2339,"oses":2340,"Ġansw":2341,"Ġfish":2342,"Ġfactors":2343,"itary":2344,".)":2345,"ĠSoc":2346,"ĠAct":2347,"Ġservices":2348,"Ġvers":2349,"go":2350,"hib":2351,"rad":2352,"ump":2353,"ĠYork":2354,"Ġexerc":2355,"uel":2356,"Al":2357,"Ġhtt":2358,"ises":2359,"Ġcat":2360,"ush":2361,"Ġnecessary":2362,"Ġavoid":2363,"chan":2364,"lying":2365,"To":2366,"Ġpath":2367,"ney":2368,"ĠX":2369,"ores":2370,"bo":2371,"Ġtook":2372,"Ġsuff":2373,"ĠEarth":2374,"mb":2375,"vere":2376,"Ġmanagement":2377,"--":2378,"Ġmonths":2379,"urs":2380,"Ġweight":2381,"Ġhalf":2382,"yl":2383,"Ġbar":2384,"Ġarch":2385,"gest":2386,"AS":2387,"Ġcoll":2388,"Ġproduce":2389,"Ġparents":2390,"ply":2391,"You":2392,"Ġlink":2393,"Ġarr":2394,"Ġapproach":2395,"ĠDep":2396,"):":2397,"Ġpriv":2398,"ĠGu":2399,"Ġbegan":2400,"ences":2401,"Ġmeasure":2402,"ma":2403,"Wh":2404,"Ġreact":2405,"Ġgas":2406,"ĠHist":2407,"rown":2408,"Ġassess":2409,"Ġsuper":2410,"Ġgreen":2411,"Ġcop":2412,"ĠHis":2413,"Ġ|":2414,"based":2415,"Ġconduct":2416,"Ġever":2417,"Ġsoft":2418,"ensive":2419,"Ġyet":2420,"utes":2421,"my":2422,"oll":2423,"Ġmedic":2424,"Ġcolor":2425,"Ġanalysis":2426,"Ġtar":2427,"Ġpattern":2428,"Ġjob":2429,"Ġtherap":2430,"ĠComp":2431,"Ġpopular":2432,"\".":2433,"Ġfarm":2434,"ume":2435,"Ġemer":2436,"ese":2437,"irm":2438,"Ġ100":2439,"Ġcomputer":2440,"cient":2441,"Ġclaim":2442,"Ġliter":2443,"ĠState":2444,"ĠDo":2445,"apan":2446,"izing":2447,"Ġchemical":2448,"Ġregion":2449,"Ġpersonal":2450,"onse":2451,"ĠNe":2452,"Ġregard":2453,"Ġthroughout":2454,"Ġstop":2455,"Ġsepar":2456,"abor":2457,"usion":2458,"ĠCont":2459,"iction":2460,"empt":2461,"Ġreading":2462,"iddle":2463,"Ġrepl":2464,"Ġfeed":2465,"nces":2466,"Ġrul":2467,"Ġsense":2468,"abit":2469,"Ġincreasing":2470,"ccording":2471,"Ġsleep":2472,"Ġfire":2473,"ections":2474,"inter":2475,"Ġsam":2476,"Ġtaking":2477,"ĠJew":2478,"ĠCo":2479,"Ġge":2480,"het":2481,"icles":2482,"ĠBritish":2483,"Ġprinc":2484,"Ġhours":2485,"Ġaction":2486,"ĠAfter":2487,"ES":2488,"Ġonline":2489,"Ġbuilt":2490,"uck":2491,"estern":2492,"Ġwriting":2493,"Ã©":2494,"Ġshows":2495,"Ġ196":2496,"Ġindividuals":2497,"Ġbur":2498,"hold":2499,"Ġsociety":2500,"Ġrecent":2501,"ĠCanad":2502,"erous":2503,"Ġut":2504,"Ġtalk":2505,"Ġ50":2506,"ches":2507,"ze":2508,"Ġcontent":2509,"igure":2510,"itation":2511,"Ġlonger":2512,"ript":2513,"pid":2514,"Ġservice":2515,"Ġprevious":2516,"Ġla":2517,"AT":2518,"Ġtraining":2519,"Ġterms":2520,"Ġsix":2521,"Ġclean":2522,"yle":2523,"Ġcompany":2524,"Ġtotal":2525,"Ġposition":2526,"Ġschools":2527,"Ġstructure":2528,"Ġinteract":2529,"emic":2530,"minist":2531,"astic":2532,"gar":2533,"wh":2534,"Ġmatter":2535,"Ġsurv":2536,"lor":2537,"Ġindustry":2538,"anced":2539,"ricult":2540,"Ġheav":2541,"Ġthing":2542,"Ġbehavior":2543,"Ġetc":2544,"Ġtemperature":2545,"ows":2546,"ederal":2547,"Ġcaused":2548,"Ġinj":2549,"Ġsex":2550,"Ġenvironmental":2551,"Ġconc":2552,"Ġprovided":2553,"Ġcheck":2554,"Ġcontact":2555,"ĠPe":2556,"Ġcontain":2557,"iment":2558,"Ġ25":2559,"ene":2560,"Ġmeaning":2561,"Ġlives":2562,"Ġdisord":2563,"fully":2564,"reng":2565,"ulations":2566,"Ġdiagn":2567,"ĠWhile":2568,"Ġeasy":2569,"Ġtravel":2570,"Ġheat":2571,"ns":2572,"Ġbreak":2573,"Ġsat":2574,"aff":2575,"ropri":2576,"Ġbenefits":2577,"Ġtrue":2578,"Ġbring":2579,"ĠEm":2580,"Ġcauses":2581,"ĠII":2582,"son":2583,"Ġce":2584,"mon":2585,"aily":2586,"ĠSchool":2587,"Ġaccept":2588,"Ġdesigned":2589,"Ġvide":2590,"lt":2591,"Ġshown":2592,"Ġmusic":2593,"Ġviol":2594,"ister":2595,"istance":2596,"arr":2597,"lands":2598,"inary":2599,"rought":2600,"ronic":2601,"ĠJapan":2602,"ster":2603,"Ġvariety":2604,"Ġmethods":2605,"hood":2606,"ĠResearch":2607,"Ġ194":2608,"AR":2609,"Ġ11":2610,"Ġrev":2611,"Ġregular":2612,"Ġincludes":2613,"ĠNo":2614,"Ġmach":2615,"abet":2616,"Ġearth":2617,"Ġvari":2618,"vey":2619,"Ġfru":2620,"Ġspread":2621,"atives":2622,"Ġbelieve":2623,"aving":2624,"ched":2625,"Ġlove":2626,"imately":2627,"Ġpositive":2628,"Ġsafe":2629,"lex":2630,"Ġfem":2631,"Ġstandard":2632,"Ġaverage":2633,"Ġprec":2634,"light":2635,"Ġprograms":2636,"asc":2637,"Ġbacter":2638,"Ġled":2639,"Ġsimply":2640,"Ġtarget":2641,"istics":2642,"Ġwild":2643,"Ġlif":2644,"ID":2645,"aries":2646,"Ġeat":2647,"ĠInstit":2648,"Ġgreater":2649,"rior":2650,"Ġrelative":2651,"Ġsometimes":2652,"Ġissue":2653,"ades":2654,"Ġmechan":2655,"ufact":2656,"Ġdeep":2657,"ĠÂ":2658,"Ġorigin":2659,"ĠPar":2660,"Ġste":2661,"Ġcarbon":2662,"dom":2663,"ners":2664,"amed":2665,"rench":2666,"Ġsubst":2667,"Ġculture":2668,"Ġmovement":2669,"Ġslow":2670,"rast":2671,"ĠKing":2672,"aling":2673,"Ġuses":2674,"ĠIndia":2675,"ĠSu":2676,"eration":2677,"Ġthreat":2678,"Ġoriginal":2679,"duc":2680,"Ġinvolved":2681,"Ġexc":2682,"Ġhelps":2683,"Ġpage":2684,"Ġdoing":2685,"osition":2686,"Ġresponse":2687,"Ġrespect":2688,"verse":2689,"know":2690,"Ġevents":2691,"But":2692,"Ġreported":2693,"new":2694,"Ġwritten":2695,"arily":2696,"Ġface":2697,"ĠSec":2698,"Ġscientists":2699,"Ġidentify":2700,"Ġremov":2701,"Ġdamage":2702,"Ġcompan":2703,"Ġencoura":2704,"ĠPres":2705,"Ġfoods":2706,"ban":2707,"Ġsources":2708,"rand":2709,"ucle":2710,"aches":2711,"Ġple":2712,"Ġreview":2713,"Ġpict":2714,"Ġcamp":2715,"ength":2716,"ctions":2717,"Ġcompet":2718,"Ġstreng":2719,"Ġoutside":2720,"Ġimage":2721,"Ġpoll":2722,"Ġdemon":2723,"ender":2724,"Ġnormal":2725,"Ġforms":2726,"Ġlack":2727,"Ġpsych":2728,"Ġpoor":2729,"oles":2730,"Ġcompon":2731,"umb":2732,"22":2733,"oor":2734,"Ġrefer":2735,"ief":2736,"elling":2737,"Ġparticularly":2738,"ops":2739,"ials":2740,"uge":2741,"Ġbasic":2742,"ervation":2743,"Ġdeveloping":2744,"IN":2745,"Ġemb":2746,"Ġforce":2747,"Ġimplement":2748,"Ġinteg":2749,"ĠPer":2750,"Ġproduced":2751,"Ġwebs":2752,"Ġserious":2753,"Ġattention":2754,"Ġattempt":2755,"ĠWill":2756,"Ġbal":2757,"ĠScience":2758,"Ġensure":2759,"Ġessential":2760,"Ġcust":2761,"ĠAustral":2762,"cil":2763,"ĠMin":2764,"Ġlate":2765,"ached":2766,"Ġdeb":2767,"Ġshare":2768,"Ġgenerally":2769,"Ġextreme":2770,"ming":2771,"idge":2772,"Ġsust":2773,"Ġgrowing":2774,"Ġtax":2775,"Ġdispl":2776,"Ġharm":2777,"room":2778,"Ġanimal":2779,"Ġfeet":2780,"Ġappl":2781,"Ġcoun":2782,"isions":2783,"Ġnumbers":2784,"Ġattack":2785,"Ġaff":2786,"Ġwood":2787,"Ġmedia":2788,"rim":2789,"Ġsqu":2790,"ĠChina":2791,"Ġlog":2792,"Ġemot":2793,"Ġcorrect":2794,"Ġvacc":2795,"Ġideas":2796,"Ġlat":2797,"bor":2798,"Ġelectric":2799,"Ġconsist":2800,"Ġvisit":2801,"Ġforest":2802,"Ġ--":2803,"issions":2804,"25":2805,"Ġ/":2806,"Ġox":2807,"rated":2808,"IS":2809,"irit":2810,"Ġchalleng":2811,"Ġincluded":2812,"ana":2813,"Ġprobably":2814,"Ġseries":2815,"Ġdoesn":2816,"ĠApp":2817,"Ġteachers":2818,"Ġcontinue":2819,"set":2820,"Ġaware":2821,"fect":2822,"Ġmess":2823,"uth":2824,"osing":2825,"Ġpatient":2826,"Ġdefin":2827,"cies":2828,"ĠMe":2829,"ĠEd":2830,"Ġvirus":2831,"Ġap":2832,"ĠMany":2833,"Ġnight":2834,"Ġmanufact":2835,"Ġgetting":2836,"osure":2837,"Ġnetwork":2838,"ĠCO":2839,"oly":2840,"hel":2841,"Ġselect":2842,"Ġdraw":2843,"ribution":2844,"Ġ24":2845,"Ġhyd":2846,"ius":2847,"ĠQu":2848,"Ġtherefore":2849,"ems":2850,"Ġsomeone":2851,"imum":2852,"Ġtakes":2853,"ecause":2854,"Ġir":2855,"Ġexpress":2856,"Ġeasily":2857,"Ġindepend":2858,"Ġcolon":2859,"raft":2860,"Ġsafety":2861,"Ġdou":2862,"ads":2863,"Ġveget":2864,"Ġcit":2865,"Ġcross":2866,"Ġmother":2867,"ino":2868,"ĠCount":2869,"Ġprint":2870,"Ġprep":2871,"Ġthus":2872,"ĠAg":2873,"Ġlooking":2874,"Ġspeed":2875,"Ġsea":2876,"Ġcommit":2877,"Ġago":2878,"Ġkids":2879,"On":2880,"where":2881,"ĠInt":2882,"ĠJan":2883,"ography":2884,"haps":2885,"ext":2886,"Ġmagn":2887,"Ġtraditional":2888,"ension":2889,"Ġinstead":2890,"ground":2891,"Ġinternational":2892,"Ġquite":2893,"Ġsou":2894,"rs":2895,"ĠPre":2896,"ties":2897,"vention":2898,"ĠMore":2899,"Ġtheory":2900,"Ġdaily":2901,"Ġfa":2902,"Ġinvestig":2903,"Ġtur":2904,"inks":2905,"Ġpolicy":2906,"Ġconcent":2907,"oes":2908,"Ġallows":2909,"Ġfinanc":2910,"rie":2911,"Ġleaders":2912,"ying":2913,"asons":2914,"anks":2915,"Ġearl":2916,"ha":2917,"cell":2918,"Ġstarted":2919,"Ġtown":2920,"iforn":2921,"ĠPart":2922,"Ġappropri":2923,"Ġwall":2924,"Ġdifference":2925,"Ġprimary":2926,"Ġvit":2927,"Ġcover":2928,"ĠAug":2929,"Ġadded":2930,"Ġful":2931,"Ġmental":2932,"ington":2933,"ĠBo":2934,"rew":2935,"Ġdiv":2936,"overy":2937,"Ġcommunities":2938,"Ġdetermine":2939,"uary":2940,"ror":2941,"erson":2942,"Ġwarm":2943,"Ġdiseases":2944,"ĠJu":2945,"Ġsil":2946,"Ġtools":2947,"Ġfav":2948,"Ġcivil":2949,"Ġtiss":2950,"ĠCenter":2951,"Ġbab":2952,"na":2953,"ĠYour":2954,"Ġdang":2955,"Ġperformance":2956,"erg":2957,"Ġeth":2958,"Ġestablished":2959,"ĠEuropean":2960,"Ġthous":2961,"Ġpoints":2962,"www":2963,"Ġi":2964,"ancy":2965,"Ġtree":2966,"Ġestim":2967,"ls":2968,"Ġheld":2969,"ĠEduc":2970,"Ġnation":2971,"Ġinstit":2972,"Ġinside":2973,"Ġbooks":2974,"Ġprogress":2975,"itude":2976,"ĠCons":2977,"Ġmilitary":2978,"Ġachieve":2979,"Ġsold":2980,"Ġlarger":2981,"orks":2982,"Ġmultiple":2983,"iot":2984,"Ġ40":2985,"Ġunc":2986,"Ġunique":2987,"ĠFrench":2988,"ceed":2989,"AN":2990,"Ġquickly":2991,"Ġthird":2992,"rate":2993,"ĠIndian":2994,"iency":2995,"Ġcapt":2996,"abetes":2997,"ifornia":2998,"Ġcompared":2999,"Ġreflect":3000,"ĠJes":3001,"Ġdirectly":3002,"Ġeval":3003,"Ġscientific":3004,"Ġtend":3005,"Ġoffer":3006,"ĠMost":3007,"OR":3008,"Ġspeak":3009,"ĠEl":3010,"Ġsolar":3011,"Ġreve":3012,"Ġhumans":3013,"Ġaltern":3014,"ellow":3015,"Ġdecre":3016,"Ġcompanies":3017,"yr":3018,"useum":3019,"Ġimmedi":3020,"ounds":3021,"undred":3022,"Ġeye":3023,"elt":3024,"Ġhighly":3025,"ĠAc":3026,"Ġproced":3027,"ĠGl":3028,"Ġfront":3029,"ift":3030,"Ġtrees":3031,"Ġhost":3032,"Ġanswer":3033,"Ġrout":3034,"ĠCom":3035,"Ġfoot":3036,"Ġdry":3037,"Ġdrink":3038,"Ġbit":3039,"Ġsoon":3040,"Ġbirth":3041,"Ġadditional":3042,"Ġwent":3043,"ĠInstitute":3044,"Ġprotein":3045,"ille":3046,"joy":3047,"Ġdocument":3048,"Ġdemonstr":3049,"term":3050,"Ġsevere":3051,"Ġaud":3052,"Ġactive":3053,"Ġtri":3054,"One":3055,"Ġalthough":3056,"Ġhor":3057,"Ġbehind":3058,"pril":3059,"Ġaspect":3060,"Ġcentral":3061,"Ġfamilies":3062,"ĠWest":3063,"ON":3064,"Ġexercise":3065,"iers":3066,"Ġacid":3067,"Ġseems":3068,"Ġinfection":3069,"nov":3070,"Ġshall":3071,"Ġnegative":3072,"ĠDepartment":3073,"pe":3074,"Ġextra":3075,"Ġgard":3076,"ĠGerman":3077,"Ġbad":3078,"Ġsecurity":3079,"ĠArt":3080,"Ġuseful":3081,"Ġbroad":3082,"vant":3083,"thern":3084,"ulate":3085,"ĠCalifornia":3086,"Ġprior":3087,"den":3088,"Ġobt":3089,"iques":3090,"Ġlabor":3091,"ĠSm":3092,"Ġcritical":3093,"ĠBr":3094,"Ġbeginning":3095,"gency":3096,"Ġtransport":3097,"Ġ2010":3098,"uries":3099,"Ġ,":3100,"Ġsupply":3101,"21":3102,"omet":3103,"Ġcard":3104,"Ġvideo":3105,"ĠGree":3106,"cean":3107,"Ġhttp":3108,"ilos":3109,"Ġfram":3110,"23":3111,"Ġtowards":3112,"Ġwalk":3113,"Ġleading":3114,"ĠOct":3115,"Ġhar":3116,"isms":3117,"Ġpurpose":3118,"Ġstay":3119,"Ġclin":3120,"ĠChar":3121,"ĠMarch":3122,"hern":3123,"ĠRec":3124,"Ġdoctor":3125,"He":3126,"Ġsection":3127,"uman":3128,"ĠNot":3129,"formation":3130,"Ġteaching":3131,"Ġsus":3132,"ĠOf":3133,"Ġelements":3134,"Ġlimited":3135,"oming":3136,"yond":3137,"ĠOther":3138,"ĠChild":3139,"Ġanaly":3140,"Ġhabit":3141,"ils":3142,"Ġexpect":3143,"Ġcustom":3144,"ims":3145,"iter":3146,"Ġwhose":3147,"So":3148,"ĠRuss":3149,"lation":3150,"Ġsituation":3151,"Ġsearch":3152,"Ġstra":3153,"Ġ2012":3154,"Ġfeatures":3155,"iber":3156,"ĠAfrica":3157,"Ġsoftware":3158,"ĠHar":3159,"Ġaccur":3160,"itis":3161,"Ġmount":3162,"Ġquant":3163,"ĠUs":3164,"Ġcontains":3165,"mar":3166,"Ġcontribut":3167,"40":3168,"Ġdecl":3169,"rogen":3170,"aly":3171,"Ġancient":3172,"Ġlost":3173,"olar":3174,"Ġvalues":3175,"Ġhot":3176,"Ġminutes":3177,"ĠAlthough":3178,"ĠHistory":3179,"IC":3180,"Ġbase":3181,"oring":3182,"Ġblock":3183,"ĠAfrican":3184,"Ġexact":3185,"rote":3186,"Ġones":3187,"âĢ¢":3188,"Ġhands":3189,"uk":3190,"____":3191,"ĠInternational":3192,"Ġinterp":3193,"Ġstri":3194,"rition":3195,"ologies":3196,"And":3197,"Ġbrought":3198,"ĠJune":3199,"Ġnews":3200,"Ġfight":3201,"ĠHer":3202,"Ġpack":3203,"Ġcred":3204,"Ġmom":3205,"inct":3206,"ĠAnt":3207,"ĠMus":3208,"Ġadminist":3209,"Ġelse":3210,"âĢĿ.":3211,"Ġrequires":3212,"Ġagricult":3213,"Ġhundred":3214,"Ġprotection":3215,"Ġcapital":3216,"wise":3217,"Ġdark":3218,"Ġjo":3219,"Ġfast":3220,"ription":3221,"ĠReg":3222,"fort":3223,"come":3224,"orthern":3225,"Ġenjoy":3226,"Ġthinking":3227,"Ġimages":3228,"used":3229,"Ġwrite":3230,"Ġstrateg":3231,"Ġreceived":3232,"Ġnucle":3233,"Ġ2011":3234,"Ġdescribed":3235,"lection":3236,"imin":3237,"ĠJesus":3238,"ĠSept":3239,"coh":3240,"Ġgot":3241,"Ġlaws":3242,"Ġadults":3243,"Ġlength":3244,"Ġwaste":3245,"Ġinfluence":3246,"hest":3247,"Ġprivate":3248,"Ġrates":3249,"Ġcapac":3250,"ĠAugust":3251,"Ġdecision":3252,"inese":3253,"Ġcarry":3254,"gn":3255,"equ":3256,"ĠSch":3257,"Ġord":3258,"ĠTra":3259,"Ġsustain":3260,"Ġworkers":3261,"ĠMon":3262,"rael":3263,"Ġnorth":3264,"Ġsymb":3265,"Ġlargest":3266,"Ġmill":3267,"hens":3268,"itch":3269,"istry":3270,"Ġexcept":3271,"Ġleaves":3272,"Ġgoal":3273,"Ġapplication":3274,"Ġagree":3275,"ĠDav":3276,"ields":3277,"ĠBar":3278,"Ġwa":3279,"Ġbecomes":3280,"Ġdemand":3281,"Ġang":3282,"att":3283,"ĠHere":3284,"izations":3285,"Ġlocated":3286,"ĠRiver":3287,"Ġjud":3288,"pper":3289,"Ġdisp":3290,"Ġfinancial":3291,"ĠKe":3292,"Ġgame":3293,"Ġdevices":3294,"Ġadop":3295,"cks":3296,"Ġmemory":3297,"Ġnearly":3298,"Ġlines":3299,"ĠFirst":3300,"estic":3301,"ĠCor":3302,"Ġprojects":3303,"Ġreligious":3304,"Ġwebsite":3305,"Ġweeks":3306,"Ġep":3307,"Ġx":3308,"Ġsn":3309,"con":3310,"ulated":3311,"60":3312,"ĠSw":3313,"ĠChristian":3314,"ibrary":3315,"Ġ21":3316,"Ġplaces":3317,"Ġmention":3318,"cial":3319,"sect":3320,"Ġtypically":3321,"Ġcosts":3322,"mission":3323,"Ġimportance":3324,"med":3325,"iles":3326,"Ġbeaut":3327,"ĠTw":3328,"vest":3329,"Ġcommand":3330,"AC":3331,"Ġprocesses":3332,"80":3333,"Ġbacteria":3334,"Ġestablish":3335,"see":3336,"ipment":3337,"rag":3338,"Ġseason":3339,"Ġsites":3340,"Ġfit":3341,"Ġreach":3342,"bit":3343,"odies":3344,"Ġrare":3345,"199":3346,"Ġfather":3347,"eal":3348,"Ġult":3349,"Ġsolution":3350,"Ġtold":3351,"Ġappropriate":3352,"ĠAmericans":3353,"Ġproperty":3354,"ĠPress":3355,"imal":3356,"ĠApril":3357,"ĠJuly":3358,"Ġremain":3359,"Ġsurround":3360,"Ġstru":3361,"Ġborn":3362,"Ġtable":3363,"Ġmole":3364,"year":3365,"ĠServ":3366,"Ġremains":3367,"EN":3368,"Ġefforts":3369,"idents":3370,"iece":3371,"Ġveh":3372,"Ġhimself":3373,"Ġadj":3374,"ĠWash":3375,"Ġsouth":3376,"arian":3377,"Ġegg":3378,"Ġbasis":3379,"izes":3380,"Ġfriends":3381,"Ġcommunication":3382,"Ġcitiz":3383,"At":3384,"aid":3385,"Ġcool":3386,"ype":3387,"Ġdeal":3388,"entially":3389,"Ġinstall":3390,"Ġtests":3391,"Ġsaw":3392,"itect":3393,"uro":3394,"'re":3395,"Ġgives":3396,"24":3397,"ĠCanada":3398,"ĠFrom":3399,"ĠMc":3400,"Ġrapid":3401,"back":3402,"atur":3403,"ĠMy":3404,"IV":3405,"Ġtechniques":3406,"Ġcultural":3407,"Ġrespond":3408,"Ġcreating":3409,"Ġdied":3410,"Ġvict":3411,"oke":3412,"rig":3413,"life":3414,"ĠEngland":3415,"oud":3416,"Ġanything":3417,"Ġadvant":3418,"Ġcrop":3419,"Ġsugar":3420,"aul":3421,"rab":3422,"resh":3423,"Ġdead":3424,"Ġmiles":3425,"uous":3426,"ĠAssoci":3427,"cles":3428,"Ġcode":3429,"Ġmix":3430,"Ġcenter":3431,"Ġadapt":3432,"ipl":3433,"ĠProg":3434,"Ġeyes":3435,"ED":3436,"Ġeverything":3437,"ĠPresident":3438,"uments":3439,"Ġroom":3440,"Ġteacher":3441,"Ġeating":3442,"ogen":3443,"Ġsummer":3444,"Ġnothing":3445,"Ġconstruction":3446,"ĠDay":3447,"iar":3448,"These":3449,"Ġson":3450,"Ġapplications":3451,"ondon":3452,"cember":3453,"Ġweb":3454,"Ġder":3455,"Ġ2013":3456,"Ġtherapy":3457,"Ġfuel":3458,"Ġhope":3459,"king":3460,"ĠCong":3461,"Ġpan":3462,"Ġresponsible":3463,"Ġtesting":3464,"ama":3465,"Ġautom":3466,"Ġsequ":3467,"cohol":3468,"aught":3469,"water":3470,"ĠGovern":3471,"Ġhous":3472,"Ġfinal":3473,"Ġfollowed":3474,"ĠIsrael":3475,"Ġcoast":3476,"Ġ2009":3477,"Ġdevice":3478,"Ġimag":3479,"Ġmonitor":3480,"Ġcou":3481,"Ġteeth":3482,"ĠWilliam":3483,"Ġscreen":3484,"exic":3485,"Ġreasons":3486,"Ġbehavi":3487,"Ġbott":3488,"Ġbenefit":3489,"Ġdepend":3490,"co":3491,"Ġcam":3492,"ding":3493,"Ġstage":3494,"Ġcele":3495,"IT":3496,"ĠChinese":3497,"ford":3498,"Ġpractices":3499,"head":3500,"Ġtrade":3501,"ran":3502,"Ġbreat":3503,"ĠChurch":3504,"Ġdigital":3505,"Ġcalcul":3506,"ĠPark":3507,"ĠRet":3508,"sec":3509,"Ġexamples":3510,"Ġspirit":3511,"ĠEducation":3512,"Ġreceive":3513,"Ġrecently":3514,"Ġgradu":3515,"Ġice":3516,"Ġasked":3517,"ellig":3518,"ira":3519,"Ġconflic":3520,"ĠCity":3521,"omb":3522,"Ġking":3523,"illing":3524,"unch":3525,"Ġfederal":3526,"Ġmiddle":3527,"ham":3528,"tery":3529,"Ġten":3530,"Ġexpected":3531,"Ġforces":3532,"ony":3533,"Ġconstit":3534,"Ġtit":3535,"itable":3536,"Ġchoose":3537,"Ġolder":3538,"ought":3539,"Ġobjects":3540,"Ġconnect":3541,"ari":3542,"lamm":3543,"Ġconsequ":3544,"Ġdate":3545,"Ġcold":3546,"Ġcontroll":3547,"Ġpen":3548,"Ġanti":3549,"Ġ2008":3550,"ev":3551,"anish":3552,"Ġlegal":3553,"Ġbeyond":3554,"Ġmid":3555,"ribute":3556,"apter":3557,"Ġaffected":3558,"Ġprofessional":3559,"ĠGreat":3560,"Ġwoman":3561,"Ġund":3562,"Ġyourself":3563,"mosp":3564,"Ex":3565,"Ġbul":3566,"Ġcommunic":3567,"By":3568,"strial":3569,"Ġinsp":3570,"Ġdiabetes":3571,"Ġopportunity":3572,"Ġsmaller":3573,"ĠFeb":3574,"bur":3575,"Ġequipment":3576,"ica":3577,"ula":3578,"Ġ:":3579,"ovember":3580,"Ġfear":3581,"Ġeconomy":3582,"Ġhyp":3583,"PA":3584,"With":3585,"time":3586,"ĠSeptember":3587,"book":3588,"Ġproviding":3589,"Ġvisual":3590,"Ġmodels":3591,"Ġrain":3592,"ests":3593,"Ġlocation":3594,"iples":3595,"ĠInc":3596,"Ġscale":3597,"Ġsett":3598,"Ġeveryone":3599,"oe":3600,"ĠLear":3601,"ĠEven":3602,"ĠJanuary":3603,"Ġbeg":3604,"ĠOctober":3605,"Ġcurrently":3606,"ocr":3607,"Ġstandards":3608,"Ġwrote":3609,"ĠWashington":3610,"edia":3611,"Ġtrying":3612,"Ġalone":3613,"While":3614,"ĠTechn":3615,"rees":3616,"uff":3617,"ĠPol":3618,"lin":3619,"airs":3620,"Ġoccurs":3621,"Ġrules":3622,"ĠJournal":3623,"Ġinstru":3624,"can":3625,"Ġorganization":3626,"Ġrecommend":3627,"Ġrock":3628,"Ġdegree":3629,"Ġcompletely":3630,"vert":3631,"ĠSystem":3632,"ocol":3633,"men":3634,"Ġfile":3635,");":3636,"Ġhon":3637,"Ġwon":3638,"ospital":3639,"ĠAccording":3640,"Ġpet":3641,"Ġusers":3642,"Ġswe":3643,"Ġrise":3644,"Ġexposure":3645,"Ġvia":3646,"Ġgoes":3647,"Ġplanet":3648,"Ġpoly":3649,"Ġcru":3650,"Ġsuccessful":3651,"Ġshape":3652,"ĠThen":3653,"ĠIS":3654,"Ġstrength":3655,"Ġpurch":3656,"load":3657,"Ġinteresting":3658,"Ġ23":3659,"Ġweather":3660,"enge":3661,"Ġoverall":3662,"Ġeffort":3663,"ĠMexic":3664,"Ġformer":3665,"ĠBi":3666,"Ġleave":3667,"Ġnamed":3668,"aur":3669,"Ġearlier":3670,"iest":3671,"Ġdrugs":3672,"lam":3673,"Ġconstant":3674,"ĠOur":3675,"Ġapprox":3676,"Ġcollection":3677,"Ġdestro":3678,"Ġuser":3679,"Ġmeasures":3680,"Ġmember":3681,"Ġperfect":3682,"ĠDevelop":3683,"Ġcommonly":3684,"Ġdifferences":3685,"Ġchurch":3686,"Ġbirds":3687,"Ġplaced":3688,"ros":3689,"oday":3690,"Ġgenetic":3691,"Ġpregn":3692,"Ġrob":3693,"Ġisn":3694,"ĠCommun":3695,"ĠDis":3696,"mitted":3697,"ĠCounty":3698,"ĠTrans":3699,"Ġenh":3700,"ĠRed":3701,"Ġmaintain":3702,"ĠLaw":3703,"Ġsteps":3704,"Ġcommerc":3705,"Ġwinter":3706,"Ġallowed":3707,"Ġelectr":3708,"Ġcateg":3709,"Ġdiscovered":3710,"Ġoccup":3711,"ĠLondon":3712,"ĠEc":3713,"Ġidentified":3714,"Ġneigh":3715,"Ġcra":3716,"wide":3717,"ords":3718,"Ġeight":3719,"ĠBlack":3720,"ingu":3721,"Ġbillion":3722,"Ġcontinued":3723,"uit":3724,"Ġpredict":3725,"Ġcoming":3726,"Ġdisplay":3727,"Ġreduced":3728,"Ġ60":3729,"ibly":3730,"27":3731,"ĠEast":3732,"Ġgold":3733,"ĠDecember":3734,"ĠRoman":3735,"Ġfruit":3736,"ĠSim":3737,"Ġenter":3738,"ky":3739,"ara":3740,"Ġ193":3741,"ĠVir":3742,"Ġmob":3743,"Ġmajority":3744,"Ġapplied":3745,"edom":3746,"ensity":3747,"Ġformed":3748,"reet":3749,"ĠDNA":3750,"Ġexec":3751,"ĠSur":3752,"eech":3753,"Ġvirt":3754,"Ġmax":3755,"Ġrule":3756,"iable":3757,"ocks":3758,"Ġcontext":3759,"Ġpowerful":3760,"Ġwond":3761,"Ġrich":3762,"irection":3763,"alt":3764,"enty":3765,"Ġpow":3766,"Ġmiss":3767,"more":3768,"Ġteach":3769,"off":3770,"26":3771,"ĠSan":3772,"bl":3773,"rec":3774,"Ġcourt":3775,"ĠHigh":3776,"ruary":3777,"Ġacqu":3778,"Ġgave":3779,"Ġtox":3780,"hemat":3781,"udd":3782,"Ġ2007":3783,"Ġroad":3784,"ĠRead":3785,"ste":3786,"bre":3787,"Some":3788,"AL":3789,"aters":3790,"Ġshowed":3791,"Ġmis":3792,"ĠInst":3793,"ĠCoun":3794,"ĠMod":3795,"ĠVal":3796,"Ġnote":3797,"Ġhistorical":3798,"Ġsch":3799,"29":3800,"Ġgir":3801,"ĠCour":3802,"Ġden":3803,"Ġstatus":3804,"ĠDuring":3805,"Ġtrack":3806,"aint":3807,"encies":3808,"Ġbra":3809,"gypt":3810,"Ġ195":3811,"Ġperhaps":3812,"Ġsect":3813,"Ġfair":3814,"Ġmouth":3815,"Ġpresence":3816,"Ġversion":3817,"Ġjoint":3818,"known":3819,"ĠArch":3820,"Ġbelief":3821,"Ġsigns":3822,"que":3823,"Ġball":3824,"Ġcook":3825,"Ġsitu":3826,"cious":3827,"aled":3828,"Ġpatterns":3829,"Ġphilos":3830,"Ġtissue":3831,"Ġsymbol":3832,"Ġlimit":3833,"ĠAlso":3834,"oration":3835,"Ġcompar":3836,"Ġpeace":3837,"emy":3838,"Ġactions":3839,"Ġremember":3840,"Ġnutri":3841,"aste":3842,"Ġchoice":3843,"Ġdidn":3844,"Ġimmune":3845,"Pro":3846,"Ġcapacity":3847,"Ġillness":3848,"ĠSince":3849,"Ġproperties":3850,"70":3851,"Ġassign":3852,"inated":3853,"Ġfully":3854,"Ġguid":3855,"Ġchanged":3856,"Ġincreases":3857,"ĠNow":3858,"ĠBecause":3859,"osy":3860,"Ġassist":3861,"Ġmachine":3862,"Ġvill":3863,"Ġfactor":3864,"ĠNovember":3865,"ĠGeneral":3866,"28":3867,"iful":3868,"Ġcry":3869,"related":3870,"Ġfemale":3871,"Ġast":3872,"ĠPat":3873,"Ġmut":3874,"Ġcities":3875,"Ġemp":3876,"Ġmoment":3877,"Ġunit":3878,"Ġillust":3879,"Ġrelatively":3880,"Ġefficient":3881,"orge":3882,"Ġfunctions":3883,"Ġatmosp":3884,"craft":3885,"ĠHouse":3886,"Ġstories":3887,"Ġacad":3888,"RE":3889,"Ġnames":3890,"Ġstim":3891,"Ġpiece":3892,"gery":3893,"Ġincor":3894,"Ġworth":3895,"Ġappears":3896,"Ġrat":3897,"\",":3898,"Ġtou":3899,"Ġemissions":3900,"ĠWater":3901,"Ġevolution":3902,"phas":3903,"Ġasse":3904,"Ġ+":3905,"iate":3906,"Ġpromot":3907,"ĠSociety":3908,"Ġmig":3909,"Ġworked":3910,"odes":3911,"ament":3912,"Ġdat":3913,"Ġmoving":3914,"ternal":3915,"Ġanx":3916,"resp":3917,"Ġstaff":3918,"ĠGermany":3919,"ĠProt":3920,"Ġbaby":3921,"Ġelement":3922,"Ġprice":3923,"rief":3924,"atin":3925,"Ġtele":3926,"Ġexisting":3927,"Ġalcohol":3928,"Ġgiving":3929,"iences":3930,"house":3931,"ĠJewish":3932,"Ġconstruct":3933,"ĠConf":3934,"Ġarchitect":3935,"Ġeducational":3936,"ĠAre":3937,"aign":3938,"Ġcomponents":3939,"Ġstrugg":3940,"II":3941,"ĠFin":3942,"iring":3943,"ĠUnion":3944,"Ġconvers":3945,"ĠPeople":3946,"amb":3947,"Ġtransfer":3948,"Ġtask":3949,"ĠRo":3950,"Ġfresh":3951,"Ġriver":3952,"Ġrepe":3953,"Ġstar":3954,"force":3955,"HE":3956,"ession":3957,"Ad":3958,"ĠAustralia":3959,"Ġforward":3960,"Ġantib":3961,"Ġhair":3962,"Ġvo":3963,"rupt":3964,"ĠJust":3965,"Ġdistance":3966,"Ġmission":3967,"Ġopportunities":3968,"Ġ28":3969,"ees":3970,"Ġinstance":3971,"Ġoffers":3972,"Ġequal":3973,"Ġeffic":3974,"Ġbox":3975,"Ġpicture":3976,"Ġpp":3977,"part":3978,"Ġ26":3979,"Ġabsor":3980,"ĠEgypt":3981,"Ġforeign":3982,"Ġexpand":3983,"Ġroot":3984,"rieved":3985,"Ġinnov":3986,"Ġrunning":3987,"Ġing":3988,"Ġwrong":3989,"iny":3990,"ĠFl":3991,"Ġbelieved":3992,"pective":3993,"ĠUse":3994,"rick":3995,"Ġregions":3996,"icip":3997,"Ġstyle":3998,"ĠProf":3999,"ero":4000,"ald":4001,"Ġdirection":4002,"Ġthousands":4003,"Un":4004,"abilities":4005,"Ġmuscle":4006,"Ġhuge":4007,"âĢĿ,":4008,"Ġfriend":4009,"Ġinstruct":4010,"Ġfamous":4011,"Ġchallenges":4012,"Ġwatch":4013,"Ġnative":4014,"ĠPhil":4015,"Ġevalu":4016,"Ġbalance":4017,"Ġdetect":4018,"Ġreports":4019,"ĠFrance":4020,"Ġfindings":4021,"Ġassum":4022,"ĠCongress":4023,"Ġexperim":4024,"Ġblue":4025,"Ġgarden":4026,"All":4027,"Ġdetails":4028,"ogle":4029,"asion":4030,"era":4031,"ĠPal":4032,"Ġmal":4033,"Ġpassed":4034,"orage":4035,"Ġweak":4036,"Ġdefined":4037,"eding":4038,"ĠAssociation":4039,"ifically":4040,"Be":4041,"Ġsurpr":4042,"Ġcitizens":4043,"Ġconsumption":4044,"Ġ2000":4045,"Ġmap":4046,"Ġbreast":4047,"Ġoffice":4048,"omas":4049,"igen":4050,"Ġplastic":4051,"Ġ22":4052,"Ġplanning":4053,"Ġexplain":4054,"Ġaim":4055,"ygen":4056,"rehens":4057,"Ġtreated":4058,"Ġguide":4059,"Ġinsect":4060,"Ġoptions":4061,"Ġchance":4062,"Ġobserved":4063,"Ġcontract":4064,"ĠEach":4065,"Ġsac":4066,"lim":4067,"SA":4068,"Ġcollabor":4069,"Ġ27":4070,"Ġsuggests":4071,"After":4072,"Ġresistance":4073,"che":4074,"Ġqual":4075,"ĠFebruary":4076,"Ġexperiences":4077,"Ġeventually":4078,"Ġfavor":4079,"ĠAng":4080,"Ġextremely":4081,"Ġclassroom":4082,"ĠTheir":4083,"Ġattract":4084,"ĠMedic":4085,"Ġcarried":4086,"Ġsurvey":4087,"Ġstrategies":4088,"ĠEnvironment":4089,"Ġtechnologies":4090,"uild":4091,"Is":4092,"Ġbound":4093,"Ġfeature":4094,"yd":4095,"Ġmale":4096,"pped":4097,"Ġincome":4098,"Ġ2015":4099,"ST":4100,"Ġfix":4101,"Ġglass":4102,"ĠWestern":4103,"Ġgain":4104,"care":4105,"Ġcommercial":4106,"ĠThus":4107,"Ġseven":4108,"DA":4109,"Ġseparate":4110,"Ġsignificantly":4111,"Ġfigure":4112,"Ġapply":4113,"rome":4114,"à¤":4115,"Ġgoals":4116,"Ġexhib":4117,"Ġiron":4118,"ĠInternet":4119,"hors":4120,"Ġdisorder":4121,"ographic":4122,"Ġdivid":4123,"uls":4124,"oma":4125,"eces":4126,"Ġ2006":4127,"Ġsuppl":4128,"Ġfert":4129,"bed":4130,"ĠUK":4131,"ĠGreen":4132,"Ġexcess":4133,"Ġmilk":4134,"lege":4135,"Ġimmediately":4136,"Ġâ":4137,"Ġstructures":4138,"su":4139,"ching":4140,"Ġvision":4141,"Ġeasier":4142,"Ġhappen":4143,"Ġphen":4144,"Ġlearned":4145,"Ġcelebr":4146,"Ġpick":4147,"Ġbank":4148,"Ġheavy":4149,"EC":4150,"Ġpresented":4151,"Ġrequirements":4152,"Ġgeneration":4153,"Ġutil":4154,"Ġspring":4155,"cont":4156,"Ġplans":4157,"nes":4158,"Ġtruth":4159,"Ġhighest":4160,"Ġdecades":4161,"ken":4162,"Ġliqu":4163,"Ġclinical":4164,"iance":4165,"ĠCouncil":4166,"90":4167,"char":4168,"ĠJapanese":4169,"ĠUN":4170,"Ġorganizations":4171,"iant":4172,"Ġitems":4173,"ube":4174,"ĠPublic":4175,"Ġexplore":4176,"Ġboard":4177,"ĠLord":4178,"Ġrot":4179,"Ġsave":4180,"ris":4181,"ophy":4182,"Ġjournal":4183,"ĠProgram":4184,"Ġlegis":4185,"Ġhom":4186,"ĠCur":4187,"Ġbecoming":4188,"ĠBra":4189,"Ġreality":4190,"They":4191,"Ġdepression":4192,"ĠMary":4193,"cast":4194,"Ġresource":4195,"Ġspect":4196,"Ġdistribution":4197,"Ġdestroy":4198,"tee":4199,"enth":4200,"Ġurban":4201,"isation":4202,"ĠDavid":4203,"ĠInter":4204,"Ar":4205,"wards":4206,"Ġintroduced":4207,"ĠRev":4208,"Ġconducted":4209,"Ġdyn":4210,"Ġnovel":4211,"ĠLet":4212,"Ġvary":4213,"ĠTur":4214,"Ġapproximately":4215,"Ġbodies":4216,"Ġtopic":4217,"change":4218,"iated":4219,"Ġmer":4220,"zz":4221,"ĠSee":4222,"ares":4223,"ologist":4224,"Ġmo":4225,"Ġslight":4226,"Ġemphas":4227,"ĠDon":4228,"Ġsexual":4229,"Ġves":4230,"ĠWeb":4231,"Ġmoved":4232,"uses":4233,"Ġletter":4234,"Ġdecisions":4235,"Ġintellig":4236,"Ġbone":4237,"ĠMor":4238,"ĠChe":4239,"Ġcand":4240,"ĠVol":4241,"Ġstream":4242,"Ġ2016":4243,"asks":4244,"met":4245,"Ġperformed":4246,"Ġalternative":4247,"Ġgene":4248,"Ġindustrial":4249,"Ġrelease":4250,"Ġactual":4251,"erate":4252,"Ġelectricity":4253,"Ġmedicine":4254,"Ġfig":4255,"ĠJames":4256,"AM":4257,"Ġserve":4258,"Ġfaith":4259,"Ġspeech":4260,"ias":4261,"35":4262,"ĠMat":4263,"ĠDes":4264,"do":4265,"ĠMich":4266,"ĠGreek":4267,"Ġchallenge":4268,"ulum":4269,"Ġfrequently":4270,"Ġconnected":4271,"Ġdisorders":4272,"Ġrecords":4273,"Ġremove":4274,"Ġmetal":4275,"Ġopin":4276,"Ġagg":4277,"ĠSpec":4278,"Ġaspects":4279,"Ġcycle":4280,"ulf":4281,"Ġpresident":4282,"unction":4283,"Ġbed":4284,"ĠAut":4285,"Ġign":4286,"antic":4287,"Ġ2014":4288,"Ġesc":4289,"Ġnotes":4290,"Ġkid":4291,"plications":4292,"Ġcontrast":4293,"ructure":4294,"Ġcompl":4295,"Ġparty":4296,"Ġviolence":4297,"Ġchronic":4298,"Ġhousehold":4299,"Ġreleased":4300,"Ġcombination":4301,"Ġfilm":4302,"Ġtransl":4303,"apers":4304,"Ġ80":4305,"Ph":4306,"Ġmag":4307,"Ġpopulations":4308,"Ġgraph":4309,"Ġwidely":4310,"ĠOver":4311,"Ġ2005":4312,"Ġnutrition":4313,"cular":4314,"Ġclearly":4315,"order":4316,"Ġvitamin":4317,"Ġestimated":4318,"Ġdesp":4319,"ilit":4320,"ĠDec":4321,"ĠRetrieved":4322,"Â°":4323,"edic":4324,"Ġreference":4325,"ida":4326,"Ġstore":4327,"Ġbuildings":4328,"Ġcausing":4329,"Ġfields":4330,"bal":4331,"Ġdiscussion":4332,"ously":4333,"imens":4334,"ĠPlan":4335,"Ġbottom":4336,"Ġhomes":4337,"Ġbuy":4338,"Ġgets":4339,"Ġrecommended":4340,"clus":4341,"Ġdogs":4342,"ĠHuman":4343,"Ġlived":4344,"ĠRepublic":4345,"Ġnuclear":4346,"ĠFound":4347,"rest":4348,"Ġtemperatures":4349,"ĠChildren":4350,"Ġkilled":4351,"Sh":4352,"ĠCollege":4353,"ĠNet":4354,"Ġorganic":4355,"Ġthr":4356,"Ġexperiment":4357,"Ġoperations":4358,"ped":4359,"ĠSpanish":4360,"raw":4361,"Ġindependent":4362,"Ġwanted":4363,"othes":4364,"porary":4365,"Ġdrive":4366,"Ġdoub":4367,"Ġliterature":4368,"Ġhear":4369,"Ġnumerous":4370,"tical":4371,"Ġanyone":4372,"Ġ190":4373,"roph":4374,"Ġoxygen":4375,"Ġstarting":4376,"Ġparticipants":4377,"Ġexpression":4378,"Ġsetting":4379,"Ġgames":4380,"ET":4381,"Ġtrust":4382,"ressive":4383,"icial":4384,"Ġpolicies":4385,"EM":4386,"Ġinternal":4387,"ĠDevelopment":4388,"eared":4389,"ĠRel":4390,"tered":4391,"works":4392,"erved":4393,"roup":4394,"Ġcovered":4395,"Ġtechnique":4396,"Ġpartners":4397,"Ġdri":4398,"Ġprefer":4399,"Ġchanging":4400,"olved":4401,"Ġprepar":4402,"iders":4403,"Ġfailure":4404,"Ġturned":4405,"Ġflood":4406,"rant":4407,"Ġinflamm":4408,"erences":4409,"Ġminor":4410,"Ġsample":4411,"ĠMuseum":4412,"ocal":4413,"hetic":4414,"ager":4415,"raction":4416,"Ġemail":4417,"45":4418,"Ġdivers":4419,"key":4420,"Ġconnection":4421,"Ġcampaign":4422,"Ġbattle":4423,"atically":4424,"ologists":4425,"Ġready":4426,"Ġtrib":4427,"Ġsand":4428,"Ġunivers":4429,"ognitive":4430,"Ġexactly":4431,"Ġterrit":4432,"Ġassessment":4433,"Ġcharacteristics":4434,"Ġresulting":4435,"Ġtrig":4436,"Ġradio":4437,"ii":4438,"iveness":4439,"Ġoutput":4440,"Ġvessel":4441,"Ġdrop":4442,"PS":4443,"OS":4444,"ĠTherefore":4445,"elines":4446,"Ġinitial":4447,"Ġwin":4448,"Ġgenes":4449,"ieces":4450,"Ġrisks":4451,"Ġreferred":4452,"Ġreducing":4453,"Ġisol":4454,"Ġshap":4455,"Ġnoted":4456,"stitution":4457,"ĠGovernment":4458,"ij":4459,"Ġstorage":4460,"olid":4461,"anging":4462,"atform":4463,"Ġburn":4464,"Ġlayer":4465,"ĠSocial":4466,"onds":4467,"Ġcreation":4468,"Ġnor":4469,"ĠAv":4470,"Ġfreedom":4471,"Ġsolutions":4472,"Ġinvolves":4473,"anch":4474,"Ġsav":4475,"Ġdistinct":4476,"ĠUnder":4477,"Ġ#":4478,"ios":4479,"Ġremoved":4480,"ĠFood":4481,"Ġhappens":4482,"Ġtim":4483,"Ġocean":4484,"According":4485,"However":4486,"Ġmessage":4487,"ĠCath":4488,"Ġanxiety":4489,"Ġmostly":4490,"Ġtour":4491,"Ġcounter":4492,"essor":4493,"Ġmentioned":4494,"Ġrelationships":4495,"Ġtrou":4496,"Ġdegrees":4497,"Ġmeeting":4498,"78":4499,"Ġalg":4500,"ception":4501,"Ġcircum":4502,"Ġinjury":4503,"Ġfeeling":4504,"Ġencourage":4505,"Ġfinding":4506,"Ġload":4507,"Ġgod":4508,"Ġconfirm":4509,"Ġ186":4510,"Ġ29":4511,"Ġseeds":4512,"Ġ2017":4513,"ĠGeorge":4514,"ĠCourt":4515,"33":4516,"urance":4517,"Ġproperly":4518,"Ġconv":4519,"nam":4520,"Ġauthors":4521,"Ġisland":4522,"Ġwhom":4523,"Ġdangerous":4524,"Ġreprodu":4525,"Ġstatement":4526,"ĠTex":4527,"Ġarm":4528,"ault":4529,"Ġscen":4530,"rows":4531,"Ġclasses":4532,"Ġthick":4533,"Ġinfections":4534,"Ġseed":4535,"Ġsurgery":4536,"Ġoption":4537,"Ġhorm":4538,"ĠPaul":4539,"Ġbeautiful":4540,"Ġreligion":4541,"lick":4542,"mark":4543,"Ġbackground":4544,"rog":4545,"Ġheard":4546,"Ġunf":4547,"Ġupper":4548,"ressed":4549,"ieties":4550,"Ġtrend":4551,"Ġreplace":4552,"Ġconflict":4553,"Ġgrass":4554,"ĠWork":4555,"Ġrace":4556,"Ġupd":4557,"ĠAir":4558,"ortunately":4559,"Here":4560,"Ġadjust":4561,"with":4562,"Ġmeat":4563,"Ġdram":4564,"Ġplease":4565,"orial":4566,"Ġhelped":4567,"Ġsem":4568,"osystem":4569,"Ġfine":4570,"Ġphysic":4571,"onic":4572,"Ġdetermined":4573,"Ġvul":4574,"Ġarticles":4575,"Ġannual":4576,"ĠDem":4577,"Ġ...":4578,"ĠSam":4579,"Ġcollege":4580,"Ġelimin":4581,"Ġtum":4582,"Ġregarding":4583,"ĠOff":4584,"Ġpages":4585,"rep":4586,"Ġadvanced":4587,"Ġadvantage":4588,"Ġincorpor":4589,"ĠOnce":4590,"ĠProject":4591,"Ġdie":4592,"ĠOb":4593,"och":4594,"Ġexcell":4595,"Ġpromote":4596,"Ġinvolve":4597,"Ġleads":4598,"ishing":4599,"lease":4600,"Ġvolume":4601,"Ġserved":4602,"Ġprinciples":4603,"oyal":4604,"Ġpric":4605,"Ġbelong":4606,"Ġtooth":4607,"Ġexperts":4608,"Ġmist":4609,"ĠIsland":4610,"ĠSun":4611,"ĠOrgan":4612,"uing":4613,"Ġexperienced":4614,"Ġpal":4615,"Ġvolunt":4616,"Ġspot":4617,"Ġdescribe":4618,"Ġrelevant":4619,"road":4620,"ago":4621,"ĠWhy":4622,"riage":4623,"Ġgrant":4624,"Ġpreviously":4625,"Ġcore":4626,"ĠRober":4627,"Ġradiation":4628,"Ġsynt":4629,"ĠInf":4630,"Ġreb":4631,"Ġ90":4632,"Ġinterested":4633,"ĠMount":4634,"uration":4635,"Ġinterpret":4636,"Ġdecided":4637,"ĠTest":4638,"Ġgender":4639,"Ġinh":4640,"Ġclick":4641,"Ġunits":4642,"umn":4643,"Ġcredit":4644,"mp":4645,"ndrome":4646,"Ġkept":4647,"Ġmathemat":4648,"Ġship":4649,"Ġmanufacture":4650,"Ġdepending":4651,"alled":4652,"ĠGra":4653,"Ġsort":4654,"ria":4655,"Ġprofession":4656,"Ġfarmers":4657,"Ġinput":4658,"Ġsolid":4659,"Ġconservation":4660,"Sp":4661,"ĠIts":4662,"cers":4663,"Ġlandsc":4664,"nic":4665,"ux":4666,"riculum":4667,"Ġcalc":4668,"ĠAsia":4669,"Ġlinked":4670,"ĠMal":4671,"Ġwealth":4672,"Ġexposed":4673,"Ġsignal":4674,"Ġjour":4675,"Ġreaction":4676,"mal":4677,"Ġsaying":4678,"Ġmel":4679,"Ġemotional":4680,"ta":4681,"Ġspent":4682,"Ġtransform":4683,"Ġvot":4684,"uted":4685,"Ġhearing":4686,"mat":4687,"Ġ70":4688,"Ġacademic":4689,"Ġround":4690,"Ġeggs":4691,"Ġamounts":4692,"Many":4693,"rum":4694,"Ġmeant":4695,"leg":4696,"Ġprocessing":4697,"ributed":4698,"ĠHen":4699,"ĠMexico":4700,"75":4701,"Ġlung":4702,"Ġnorthern":4703,"ategy":4704,"Ġessay":4705,"Ġengineering":4706,"Ġcomprehens":4707,"ĠFore":4708,"rete":4709,"Con":4710,"Ġcomfort":4711,"Res":4712,"Ġprepared":4713,"36":4714,"ĠMark":4715,"inate":4716,"ping":4717,"ĠJews":4718,"Ġeffectively":4719,"Ġoperation":4720,"za":4721,"Ġobvious":4722,"ya":4723,"AD":4724,"iverse":4725,"Ġconcerns":4726,"Ġhelping":4727,"Ġsquare":4728,"Ġsouthern":4729,"ĠST":4730,"Ġstrategy":4731,"Ġphase":4732,"aughter":4733,"That":4734,"Ġmath":4735,"well":4736,"Ġpret":4737,"Ġsong":4738,"Ġdefic":4739,"wood":4740,"urt":4741,"itz":4742,"Why":4743,"Ġkill":4744,"Ġexpert":4745,"vision":4746,"Ġwest":4747,"Ġcharge":4748,"Ġpip":4749,"Ġhour":4750,"New":4751,"rans":4752,"Ġ2004":4753,"ĠArab":4754,"ĠDi":4755,"ĠBel":4756,"ĠRich":4757,"Ġofficial":4758,"Ġinfluen":4759,"Ġcere":4760,"ifying":4761,"ĠWhite":4762,"Ġconcern":4763,"Ġpollution":4764,"Ġmanage":4765,"ags":4766,"place":4767,"Ġprocedure":4768,"Ġdatab":4769,"ball":4770,"Ġdiss":4771,"Ġmotor":4772,"ules":4773,"Ġowners":4774,"tes":4775,"CC":4776,"ĠLa":4777,"Ġconcepts":4778,"Ġvegetables":4779,"ander":4780,"ded":4781,"ĠPhys":4782,"board":4783,"Ġinvent":4784,"Ġcast":4785,"Ġconsult":4786,"ams":4787,"Ġbud":4788,"ĠMars":4789,"Ġmanner":4790,"Ã¡":4791,"Ġpresc":4792,"Ġvaccine":4793,"ĠStudents":4794,"acing":4795,"Ġfol":4796,"Ġcoal":4797,"Ġconver":4798,"Ġpieces":4799,"Ġreached":4800,"Ġinstitutions":4801,"ĠPort":4802,"Ġgrade":4803,"which":4804,"Ġaid":4805,"Ġatmosphere":4806,"Ġsustainable":4807,"Ġmainly":4808,"ĠSub":4809,"Ġchemicals":4810,"isher":4811,"Ġimproved":4812,"Ġclos":4813,"Now":4814,"Ġcompleted":4815,"bi":4816,"Ġappoint":4817,"Although":4818,"ĠNAS":4819,"Ġimpl":4820,"Ġbrother":4821,"ĠâĢ¦":4822,"Ġdiscover":4823,"Ġsecret":4824,"Ġpun":4825,"onomic":4826,"Ġsupported":4827,"Ġdefinition":4828,"berg":4829,"Ġfrequency":4830,"rates":4831,"ĠEv":4832,"ek":4833,"Ġseek":4834,"Ġdiagnosis":4835,"Ġfinally":4836,"zing":4837,"Our":4838,"standing":4839,"Ġpurposes":4840,"Ġconclud":4841,"Ġauthority":4842,"Ġplatform":4843,"Ġbegins":4844,"Ġhop":4845,"Ġlib":4846,"38":4847,"Ġhospital":4848,"Ġlooks":4849,"Ġproposed":4850,"ĠJe":4851,"ĠSen":4852,"oking":4853,"ĠTexas":4854,"ĠIslam":4855,"Ġawareness":4856,"RO":4857,"Ġnotice":4858,"Ġcorresp":4859,"acific":4860,"Ġyouth":4861,"ĠAD":4862,"Ġdrinking":4863,"ĠService":4864,"Ġsufficient":4865,"Ġefficiency":4866,"Ġintended":4867,"ĠBas":4868,"iling":4869,"eline":4870,"astern":4871,"Ġlic":4872,"ormal":4873,"Ġformation":4874,"Ġstation":4875,"Ġcontinues":4876,"ĠAcad":4877,"ague":4878,"kin":4879,"Ġban":4880,"uable":4881,"Ġyellow":4882,"Ġpractical":4883,"itors":4884,"Ġallowing":4885,"lig":4886,"ĠCentral":4887,"rence":4888,"Ġrecorded":4889,"Ġcomment":4890,"Ġcontribute":4891,"des":4892,"Ġwet":4893,"Ġforced":4894,"Ġfib":4895,"ĠHel":4896,"Ġmotiv":4897,"ĠRem":4898,"rapy":4899,"atric":4900,"akers":4901,"alle":4902,"vis":4903,"ĠHIV":4904,"ĠMr":4905,"ĠJer":4906,"Ġwonder":4907,"AP":4908,"Ġreduction":4909,"aker":4910,"100":4911,"Ġlesson":4912,"Ġtoxic":4913,"CO":4914,"amental":4915,"comes":4916,"osite":4917,"ĠBritain":4918,"Ġlanguages":4919,"Ġmorning":4920,"Ġfort":4921,"Cl":4922,"ĠMiss":4923,"Ġcareer":4924,"Ġoffered":4925,"Ġvulner":4926,"ĠLou":4927,"Ġremained":4928,"clusion":4929,"ĠEvery":4930,"Ġblog":4931,"Ġshared":4932,"Ġelectrical":4933,"Ġmaster":4934,"ĠMet":4935,"Ġtaught":4936,"ears":4937,"Ġsusp":4938,"Ġsituations":4939,"'ll":4940,"ishes":4941,"Ġwaters":4942,"Ġcombined":4943,"ĠThomas":4944,"Ġpul":4945,"roke":4946,"ĠMart":4947,"Ġdro":4948,"ĠBer":4949,"Ġphenomen":4950,"ses":4951,"otic":4952,"Ġstorm":4953,"ĠMac":4954,"Ġ35":4955,"Ġrenew":4956,"Ġhit":4957,"ĠSer":4958,"Ġeast":4959,"From":4960,"ĠVirgin":4961,"Ġprofessor":4962,"ado":4963,"Ġheight":4964,"Ġlov":4965,"Ġarmy":4966,"Ġfacts":4967,"Ġstraight":4968,"Ġjobs":4969,"ample":4970,"Ġideal":4971,"Ġprimarily":4972,"Ġsamples":4973,"Ġcenturies":4974,"Ġnav":4975,"Ġcoord":4976,"ounced":4977,"Ġdiam":4978,"Ġdoll":4979,"ĠBudd":4980,"Ġmort":4981,"acters":4982,"espite":4983,"Ġgrand":4984,"Ġsubjects":4985,"Ġkinds":4986,"Ġtechnical":4987,"Ġmuscles":4988,"Ġliquid":4989,"Ġ2003":4990,"verty":4991,"ĠFranc":4992,"US":4993,"tion":4994,"Ġpark":4995,"Ġindicate":4996,"34":4997,"ĠCivil":4998,"Ġpoverty":4999,"Ġbrief":5000,"rations":5001,"Ġfocused":5002,"ixt":5003,"Ġflex":5004,"rier":5005,"Ġtasks":5006,"Ġwife":5007,"Ġrecy":5008,"eters":5009,"Ġspecifically":5010,"ossible":5011,"ĠClass":5012,"Ġcertainly":5013,"Ab":5014,"gra":5015,"Ġtreatments":5016,"arrow":5017,"Ġidentity":5018,"ĠOld":5019,"Ġbird":5020,"Most":5021,"Ġletters":5022,"Ġfoss":5023,"ĠÃ":5024,"aturally":5025,"Ġexistence":5026,"ĠMedicine":5027,"ht":5028,"ĠArmy":5029,"inger":5030,"oper":5031,"Ġconsequences":5032,"ĠBen":5033,"Ġperman":5034,"Ġnerv":5035,"yright":5036,"Ġdynam":5037,"Ġspend":5038,"Ġsettle":5039,"ulating":5040,"Ġshar":5041,"Ġfelt":5042,"Ġraised":5043,"Ġlargely":5044,"Ġbright":5045,"ĠNASA":5046,"Ġlinks":5047,"ĠBay":5048,"Americ":5049,"Ġflowers":5050,"Ġnit":5051,"Ġtro":5052,"ĠFre":5053,"Ġiniti":5054,"Ġsector":5055,"ache":5056,"Ġstone":5057,"Ġecosystem":5058,"west":5059,"Ġnutrients":5060,"Ġhttps":5061,"oo":5062,"Ġoccurred":5063,"Ġcris":5064,"ĠFurther":5065,"Ġshowing":5066,"ĠEnergy":5067,"ĠLife":5068,"ĠMedical":5069,"rich":5070,"Ġvoice":5071,"Ġextent":5072,"EL":5073,"ework":5074,"istan":5075,"ĠAtl":5076,"othing":5077,"inf":5078,"gl":5079,"Ġnations":5080,"what":5081,"ĠSal":5082,"osen":5083,"99":5084,"Ġadvance":5085,"Ġoperating":5086,"ĠLatin":5087,"Ġkn":5088,"Ġther":5089,"olute":5090,"going":5091,"Ġattacks":5092,"ĠDise":5093,"ĠCle":5094,"Ġdigest":5095,"ĠCommission":5096,"Ġkeeping":5097,"Ġcollected":5098,"osa":5099,"ĠKore":5100,"Ġresist":5101,"Ġproteins":5102,"rian":5103,"nel":5104,"Ġresponsibility":5105,"Ġemergency":5106,"Ġagricultural":5107,"Ġimmig":5108,"ĠNews":5109,"Äģ":5110,"inent":5111,"Ġleader":5112,"ael":5113,"Ġdespite":5114,"oxide":5115,"Ġhelpful":5116,"rastructure":5117,"Ġpros":5118,"Ġcert":5119,"Ġsche":5120,"ĠDirect":5121,"Ġfaster":5122,"Ġsyn":5123,"Ġvital":5124,"Ġbill":5125,"Ġ1990":5126,"Ġimpacts":5127,"Ġmotion":5128,"Ġexcellent":5129,"Ġ2001":5130,"ĠIr":5131,"umin":5132,"col":5133,"ey":5134,"Ġperspective":5135,"Ġvast":5136,"ĠHol":5137,"OT":5138,"Ġsounds":5139,"Ġroll":5140,"Ġrail":5141,"Ġmetab":5142,"Ġrural":5143,"Ġotherwise":5144,"Ġdouble":5145,"Ġaffects":5146,"Ġexplains":5147,"Ġhyper":5148,"ĠDist":5149,"ipped":5150,"No":5151,"Ġfacilities":5152,"Ġadvice":5153,"Ġsend":5154,"Ġquar":5155,"Ġrevolution":5156,"Im":5157,"ĠCam":5158,"Ġabuse":5159,"Ġthoughts":5160,"Pl":5161,"Ġdetailed":5162,"ĠSpace":5163,"Ġgirls":5164,"Ġsurrounding":5165,"field":5166,"ĠQue":5167,"Ġclim":5168,"Ġaren":5169,"Ġcharacters":5170,".;":5171,"Ġrefers":5172,"Ġcomponent":5173,"ĠBC":5174,"unk":5175,"enses":5176,"point":5177,"zy":5178,"Ġpray":5179,"Ġonto":5180,"eria":5181,"Ġparticles":5182,"ĠBoth":5183,"ras":5184,"ĠSecond":5185,"RI":5186,"'ve":5187,"Ġexternal":5188,"pen":5189,"Ġsuggested":5190,"ails":5191,"Ġplayed":5192,"Ġoral":5193,"band":5194,"that":5195,"anges":5196,"ĠDef":5197,"Ġgoods":5198,"ĠTechnology":5199,"Ġsnow":5200,"igenous":5201,"Ġbiological":5202,"ensus":5203,"Ġpersons":5204,"Ġincreasingly":5205,"Ġtrial":5206,"Ġdomestic":5207,"iced":5208,"ĠBur":5209,"48":5210,"Ġsalt":5211,"Ġfamiliar":5212,"name":5213,"oughly":5214,"itness":5215,"Ġexplan":5216,"Ġgreatest":5217,"athy":5218,"Ġplaying":5219,"Ġmere":5220,"Ġmaximum":5221,"Ġstem":5222,"ĠSom":5223,"Ġstars":5224,"Ġfif":5225,"ĠWind":5226,"Ġperiods":5227,"Ġpil":5228,"Ġinterests":5229,"itage":5230,"Ġreturned":5231,"olars":5232,"ĠBible":5233,"li":5234,"Ġcognitive":5235,"Ġtopics":5236,"ĠTwo":5237,"Ġmeasured":5238,"utive":5239,"Ġcrops":5240,"39":5241,"Ġhappened":5242,"Ġdivided":5243,"Ġslightly":5244,"Ġvent":5245,"Ġfluid":5246,"Ġvehicle":5247,"ĠSou":5248,"BC":5249,"ĠMass":5250,"Ġtypical":5251,"Ġexplained":5252,"Ġrequest":5253,"Ġspl":5254,"ĠPacific":5255,"Ġmonitoring":5256,"Ġbow":5257,"Ġthin":5258,"Ġliver":5259,"Ġmoist":5260,"inding":5261,"Ġcontaining":5262,"Ġfloor":5263,"Ġaccurate":5264,"Ġ2018":5265,"win":5266,"Ġimmun":5267,"Ġinterview":5268,"].":5269,"Ġgovernments":5270,"inant":5271,"Ġlik":5272,"ĠElect":5273,"ĠLearning":5274,"Ġtrain":5275,"Ġfollows":5276,"Ġneut":5277,"Ġdepends":5278,"omy":5279,"Ġrecognized":5280,"Ġcontrolled":5281,"ĠMil":5282,"Ġfundamental":5283,"Ġpolice":5284,"Ġsen":5285,"Ġsatis":5286,"rolog":5287,"down":5288,"ship":5289,"lar":5290,"Ġkil":5291,"stood":5292,"Ġsmart":5293,"right":5294,"Ġlooked":5295,"ĠBook":5296,"ĠCatholic":5297,"Ġdisapp":5298,"asure":5299,"eck":5300,"Ġtested":5301,"Ġfiles":5302,"Ġinstrument":5303,"resents":5304,"Ġphone":5305,"atever":5306,"ND":5307,"gal":5308,"Ġju":5309,"37":5310,"ompl":5311,"hi":5312,"cript":5313,"ĠToday":5314,"Ġflat":5315,"ĠTreat":5316,"Ġfirm":5317,"Ġprotected":5318,"ĠFlor":5319,"Ġapparent":5320,"aks":5321,"Ġinstruction":5322,"ION":5323,"Ġconsists":5324,"ÃŃ":5325,"Ġobtained":5326,"ĠFoundation":5327,"ancing":5328,"Ġofficials":5329,"racy":5330,"Ġpotentially":5331,"Ġ2002":5332,"Ġcardi":5333,"ificial":5334,"Ġlose":5335,"Ġstudied":5336,"Ġpaint":5337,"Ġchief":5338,"ĠJud":5339,"Ġfruits":5340,"Ġharvest":5341,"Do":5342,"Ġtitle":5343,"Ġneighbor":5344,"Ġgrown":5345,"oviet":5346,"Ġhundreds":5347,"Ġwestern":5348,"ĠCharles":5349,"Ġroots":5350,"Ġinvestment":5351,"oral":5352,"ĠWomen":5353,"umber":5354,"Ġfeelings":5355,"ingly":5356,"Ġvalid":5357,"roc":5358,"Ġfle":5359,"More":5360,"Ġwel":5361,"Ġproport":5362,"pat":5363,"onomy":5364,"ĠRobert":5365,"ĠInformation":5366,"Ġtried":5367,"Ġcrucial":5368,"Ġsubsequ":5369,"44":5370,"Ġconcerned":5371,"Ġsubstant":5372,"Ġapproaches":5373,"ĠLake":5374,"Ġvisible":5375,"Ġprices":5376,"van":5377,"ĠData":5378,"?âĢĿ":5379,"Ġhaz":5380,"la":5381,"Ġportion":5382,"Ġminimum":5383,"Ġwalls":5384,"ĠSmith":5385,"ĠMont":5386,"Ġhabitat":5387,"Ġwire":5388,"Ġchann":5389,"ĠUsing":5390,"Ġconvent":5391,"Ġdut":5392,"Ġelev":5393,"Ġdepth":5394,"Ġsuffering":5395,"Ġconscious":5396,"ĠCarol":5397,"Ġspiritual":5398,"abil":5399,"Ġseg":5400,"Ġ2020":5401,"Ġtips":5402,"Ġpig":5403,"Ġpaid":5404,"Another":5405,"Ġdu":5406,"Ġclaims":5407,"celer":5408,"Ġappeared":5409,"Ġclosely":5410,"ĠCD":5411,"Ġkm":5412,"fl":5413,"Ġsin":5414,"ĠRights":5415,"ING":5416,"Ġcontinuous":5417,"ĠGoogle":5418,"Ġrepresents":5419,"Ġrapidly":5420,"state":5421,"Ġprocedures":5422,"inations":5423,"ascular":5424,"active":5425,"Ġcurriculum":5426,"ĠRussian":5427,"ellect":5428,"ĠLand":5429,"Ġcrisis":5430,"Ġpu":5431,"ĠMem":5432,"ĠSea":5433,"Ġprison":5434,"Ġalt":5435,"ĠJose":5436,"Ġconcentration":5437,"Ġknew":5438,"ĠMiddle":5439,"ĠOut":5440,"ville":5441,"ĠStand":5442,"Ġmedium":5443,"ĠAnother":5444,"Ġdiscussed":5445,"Ġ2019":5446,"Ġextract":5447,"anes":5448,"MS":5449,"Ġaccompl":5450,"Ġpregnancy":5451,"65":5452,"Ġdistingu":5453,"cest":5454,"Ġhorse":5455,"ĠNor":5456,"oster":5457,"Ġlatest":5458,"osc":5459,"TS":5460,"ooth":5461,"Ġsides":5462,"Ġrand":5463,"Ġagriculture":5464,"95":5465,"olester":5466,"ĠHenry":5467,"Ġformat":5468,"Ġviews":5469,"isp":5470,"Ġstated":5471,"Ġappearance":5472,"ario":5473,"Ġcolors":5474,"Ġgar":5475,"Ġoutcomes":5476,"Ġvaluable":5477,"Ġmedications":5478,"32":5479,"chers":5480,"Ġadding":5481,"Ġinflammation":5482,"Ġdiscovery":5483,"Ġexpensive":5484,"Ġpump":5485,"Ġinternet":5486,"Ġselected":5487,"Ġdeliver":5488,"Ġjustice":5489,"Ġmovements":5490,"Ġleaving":5491,"Ġages":5492,"Ġband":5493,"ĠMicro":5494,"Ġcorrespond":5495,"âĢĻ.":5496,"anguage":5497,"Ġrandom":5498,"Ġnaturally":5499,"iled":5500,"icks":5501,"Ġcontem":5502,"lers":5503,"Ġcouple":5504,"Ġdecrease":5505,"ĠFam":5506,"Ġ188":5507,"ĠMake":5508,"Ġresidents":5509,"Ġcircumst":5510,"ĠControl":5511,"Ġdirector":5512,"Ġmobile":5513,"Ġweap":5514,"ĠEngine":5515,"Ġdeaths":5516,"ĠInstead":5517,"Ġinfrastructure":5518,"ocratic":5519,"ĠRussia":5520,"Ġargument":5521,"ĠSupp":5522,"ĠEmp":5523,"burg":5524,"Ġregularly":5525,"Ind":5526,"Ġgun":5527,"Ġrecognize":5528,"olesterol":5529,"Ġcoff":5530,"Ġdial":5531,"Ġreform":5532,"tenance":5533,"ĠSoviet":5534,"Ġstret":5535,"ulin":5536,"bing":5537,"ĠLike":5538,"Ġwear":5539,"alse":5540,"Ġmillions":5541,"De":5542,"free":5543,"Ġhunt":5544,"Ġsed":5545,"BN":5546,"Ġprinciple":5547,"Ġsyndrome":5548,"Ġbusinesses":5549,"Ġdiversity":5550,"ĠUp":5551,"ĠLibrary":5552,"Ġlessons":5553,"Ġmoral":5554,"alian":5555,"Ġsets":5556,"ĠSte":5557,"ĠHam":5558,"ĠDel":5559,"Ġdocuments":5560,"DF":5561,"Ġrein":5562,"olf":5563,"Ġsatell":5564,"Ġinches":5565,"Ġfrag":5566,"Ġod":5567,"Ġsubstance":5568,"mas":5569,"Ġsan":5570,"ĠDisc":5571,"ĠRef":5572,"Ġsick":5573,"Ġfunding":5574,"Ġ<":5575,"indu":5576,"Ġstock":5577,"Ġ45":5578,"ĠStudies":5579,"teries":5580,"Ġfacilit":5581,"ĠTem":5582,"ĠSuch":5583,"198":5584,"Ġshel":5585,"Ġdriving":5586,"Gen":5587,"ĠCompany":5588,"fall":5589,"Ġingred":5590,"ĠFederal":5591,"Ġsuffer":5592,"Ġparties":5593,"Ġneuro":5594,"Ġ*":5595,"liam":5596,"Ġsecure":5597,"Ġsoldiers":5598,"ĠPsych":5599,"Ġtalking":5600,"stream":5601,"Ġraise":5602,"ĠHistor":5603,"uke":5604,"Ġcapable":5605,"Ġadequ":5606,"Ġinfected":5607,"ĠPC":5608,"Ġadvoc":5609,"ĠWell":5610,"Ġrub":5611,"ĠBat":5612,"ĠNature":5613,"Ġinterf":5614,"ĠWild":5615,"Ġbrown":5616,"Ġrecovery":5617,"cling":5618,"Ġpure":5619,"Ġaccomp":5620,"During":5621,"ĠPost":5622,"roid":5623,"Ġprevention":5624,"ĠLouis":5625,"rants":5626,"ava":5627,"Ġenhance":5628,"rem":5629,"....":5630,"ada":5631,"othe":5632,"mbly":5633,"Ġpictures":5634,"Ġmyth":5635,"Ġentirely":5636,"Ġintelligence":5637,"Ġnormally":5638,"Ġclosed":5639,"plicated":5640,"Sc":5641,"dden":5642,"ĠOx":5643,"exp":5644,"ĠConstitution":5645,"Ġble":5646,"ĠNav":5647,"Ġhouses":5648,"esity":5649,"Ġunlike":5650,"rid":5651,"Te":5652,"bert":5653,"Ġparam":5654,"Ġinject":5655,"Ġtrad":5656,"Ġexchange":5657,"76":5658,"long":5659,"ĠPower":5660,"reed":5661,"Ġemployees":5662,"inet":5663,"Ġallerg":5664,"Ġdescribes":5665,"iology":5666,"Dr":5667,"ĠWil":5668,"ato":5669,"HO":5670,"Ġnarr":5671,"Ġfertil":5672,"Other":5673,"Ġapart":5674,"Ġprecise":5675,"Ġsensitive":5676,"olve":5677,"Ġgall":5678,"Ġintroduction":5679,"Ġaccepted":5680,"ĠBet":5681,"Ġimpossible":5682,"ola":5683,"Ġnarrow":5684,"organ":5685,"ca":5686,"idden":5687,"ĠSaf":5688,"Ġformal":5689,"Ġmit":5690,"Ġspeaking":5691,"Ġstored":5692,"Ġabsolute":5693,"omach":5694,"ĠGroup":5695,"Ġproducing":5696,"Ġrecip":5697,"osal":5698,"Ġopinion":5699,"Ġcreative":5700,"uilding":5701,".|":5702,"Ġincl":5703,"ypes":5704,"comp":5705,"Ġlifest":5706,"Ġoriginally":5707,"Ġpref":5708,"pping":5709,"Ġstages":5710,"ĠEnvironmental":5711,"Ġvillage":5712,"Ġtraffic":5713,"Ġcorpor":5714,"Ġlibrary":5715,"Ġwarming":5716,"ota":5717,"Ġleadership":5718,"Go":5719,"Ġmassive":5720,"Ġopened":5721,"Ġtouch":5722,"CS":5723,"Ġgenerate":5724,"Ġera":5725,"Ġtun":5726,"Ġcomputers":5727,"31":5728,"liament":5729,"ka":5730,"spec":5731,"ĠAp":5732,"Ġpoet":5733,"Ġmoon":5734,"Ġmamm":5735,"Ġbehaviour":5736,"Ġflight":5737,"ĠVirginia":5738,"Ġdiscrim":5739,"ĠTer":5740,"Ġpossibly":5741,"Ġaw":5742,"Ġcalls":5743,"Ġchapter":5744,"hemical":5745,"ĠKnow":5746,"ibilities":5747,"Ġsuc":5748,"imer":5749,"Ġsudden":5750,"Ġdream":5751,"Ġadopted":5752,"ditionally":5753,"Ġfigures":5754,"500":5755,"Ġlabel":5756,"oto":5757,"Ġunderstood":5758,"being":5759,"Ġlisted":5760,"Ġadministration":5761,"ĠTHE":5762,"ĠBro":5763,"ctic":5764,"Ġsecondary":5765,"Ġarms":5766,"Ġphr":5767,"Ġchain":5768,"Ġsurvival":5769,"ĠSum":5770,"Ġrecon":5771,"Ġbattery":5772,"ye":5773,"46":5774,"Ġdatabase":5775,"Ġindex":5776,"Ġprotocol":5777,"orith":5778,"agers":5779,"Ġdistrict":5780,"Ġimproving":5781,"ĠMo":5782,"Ġmarriage":5783,"agues":5784,"obe":5785,"ifies":5786,"Ġpossess":5787,"My":5788,"Ġregional":5789,"Ġnurs":5790,"ĠManagement":5791,"ua":5792,"Ġrevealed":5793,"Ġbones":5794,"Ġnetworks":5795,"abits":5796,"Ġpretty":5797,"Ġ1999":5798,"Ġstick":5799,"Ġfab":5800,"Ġmedication":5801,"Ġwave":5802,"Ġunless":5803,"ĠCanadian":5804,"Ġrepeated":5805,"Ġdecline":5806,"asp":5807,"Ġapprec":5808,"Ġacts":5809,"ĠColumb":5810,"Ġstarts":5811,"Ġmur":5812,"Ġwindow":5813,"LE":5814,"Ġpossibility":5815,"Ġagencies":5816,"Ġreaders":5817,"Ġsuitable":5818,"cules":5819,"war":5820,"Ġworldwide":5821,"hist":5822,"ocracy":5823,"Ġexperiments":5824,"Ġvehicles":5825,"Ġbudget":5826,"Ġprem":5827,"Us":5828,"Ġdiverse":5829,"Ġrestrict":5830,"Ġhappy":5831,"Ġfill":5832,"Ġancest":5833,"ĠDiv":5834,"Ġ185":5835,"Ġsupplement":5836,"Ġworse":5837,"Ġlatter":5838,"Ġplate":5839,"flow":5840,"Ġtal":5841,"Ġdedic":5842,"aser":5843,"ki":5844,"hips":5845,"ĠCommit":5846,"ĠÎ":5847,"Ġtoler":5848,"ĠScient":5849,"Ġcandid":5850,"Ġdental":5851,"ropical":5852,"ona":5853,"Ġleaf":5854,"Ġprepare":5855,"Ġextensive":5856,"add":5857,"Ġwildlife":5858,"Ġsweet":5859,"Ġcultiv":5860,"Ġanswers":5861,"osm":5862,"erals":5863,"lements":5864,"Ġdepos":5865,"ĠMa":5866,"ĠNations":5867,"oted":5868,"anged":5869,"Re":5870,".âĢĻ":5871,"Ġcars":5872,"Ġremaining":5873,"Ġsurvive":5874,"ĠFlorida":5875,"Ġgather":5876,"Ġachieved":5877,"Ġ31":5878,"Ġselection":5879,"Ġamb":5880,"Ġuniverse":5881,"Ġmountain":5882,"ĠProv":5883,"no":5884,"Ġaircraft":5885,"Ġroutine":5886,"Ġtow":5887,"Ġmanufacturing":5888,"ĠPers":5889,"ston":5890,"Ġcomprehensive":5891,"osph":5892,"ĠKen":5893,"Ġfell":5894,"Ġdust":5895,"Ġlandscape":5896,"Ġsequence":5897,"ini":5898,"Ġsell":5899,"Ġmarine":5900,"Ġharmful":5901,"Ġcreates":5902,"apping":5903,"ĠOffice":5904,"See":5905,"Ġmuseum":5906,"Ġindeed":5907,"ĠGood":5908,"Ġhealthcare":5909,"Ġtroops":5910,"Ġcloud":5911,"ĠLeg":5912,"Ġguidelines":5913,"inn":5914,"ĠTor":5915,"vironments":5916,"normal":5917,"Ġengage":5918,"Ġminim":5919,"Ġwants":5920,"Ġexpressed":5921,"ĠReview":5922,"Ġelectronic":5923,"Ġcopy":5924,"rors":5925,"anda":5926,"ĠLabor":5927,"47":5928,"Ġabund":5929,"Ġforests":5930,"aria":5931,"ĠCommon":5932,"Ġassistance":5933,"Ġcourses":5934,"Ġantibiot":5935,"Ġplays":5936,"Ġprofessionals":5937,"Ġdoor":5938,"CT":5939,"ĠAlex":5940,"Ġsurf":5941,"ivalent":5942,"Ġbeneficial":5943,"Ġvolunte":5944,"acts":5945,"Ġagreement":5946,"Ġtwice":5947,"struct":5948,"ĠId":5949,"Ġintellect":5950,"erent":5951,"Ġgenerated":5952,"Ġintake":5953,"Ġ1980":5954,"ĠAtt":5955,"gent":5956,"alysis":5957,"Ġfailed":5958,"Ġdoctors":5959,"Se":5960,"ĠAny":5961,"orrow":5962,"Ġaccounts":5963,"Ġsolve":5964,"49":5965,"Ġobtain":5966,"Ġimper":5967,"Ġtiny":5968,"ĠOF":5969,"ĠAnn":5970,"Ġfilled":5971,"UR":5972,"born":5973,"Cont":5974,"Ġinjuries":5975,"Ġtransition":5976,"ĠCare":5977,"Read":5978,"hma":5979,"Ġslowly":5980,"mary":5981,"Ġextended":5982,"Ġchoices":5983,"Ġaqu":5984,"ashion":5985,"Ġseeing":5986,"ĠAbout":5987,"Ġbroken":5988,"Ġtells":5989,"last":5990,"ansion":5991,"asive":5992,"Ġedge":5993,"ceived":5994,"Ġtail":5995,"Ġaudience":5996,"Ġshell":5997,"Ġopening":5998,"ĠFe":5999,"Ġaf":6000,"Ġchart":6001,"Ġjourney":6002,"Ġremote":6003,"orter":6004,"Ġafford":6005,"Ġwid":6006,"Ġwaves":6007,"luding":6008,"Ġflav":6009,"Ġlands":6010,"tage":6011,"Ġproduces":6012,"Ġcorn":6013,"Ġswitch":6014,"ĠRome":6015,"ĠVict":6016,"Ġacceler":6017,"Ġfoundation":6018,"Ġconsistent":6019,"Ġdiscipl":6020,"Ġcholesterol":6021,"Ġstudying":6022,"ett":6023,"Ġreject":6024,"ester":6025,"Ġsignals":6026,"Ġtruly":6027,"using":6028,"ait":6029,"Ġscholars":6030,"iform":6031,"Ġsports":6032,"Ġdecade":6033,"Ġframework":6034,"ĠThose":6035,"Ġunknown":6036,"zen":6037,"ml":6038,"Ġerror":6039,"icide":6040,"Ġnan":6041,"Ġcatch":6042,"ĠIll":6043,"Ġcircumstances":6044,"but":6045,"ogue":6046,"Ġbio":6047,"Ġtransmission":6048,"77":6049,"ums":6050,"Ġwww":6051,"inating":6052,"Ġax":6053,"Ġstruggle":6054,"Ġchildhood":6055,"inder":6056,"Ġmaintenance":6057,"ny":6058,"icians":6059,"Ġgreatly":6060,"ĠPeter":6061,"Ġ500":6062,"Ġaer":6063,"Stud":6064,"Ġpull":6065,"Ġlots":6066,"ĠDan":6067,"Ġmulti":6068,"body":6069,"Ġthor":6070,"Ġstomach":6071,"Ġlocations":6072,"Ġfly":6073,"Ġgrav":6074,"Ġ1998":6075,"Ġpermanent":6076,"Ġdecide":6077,"Ġopposite":6078,"igation":6079,"ĠUSA":6080,"Ġsteel":6081,"ĠOnly":6082,"Ġreplaced":6083,"ĠProfessor":6084,"Ġhus":6085,"ĠSl":6086,"Ġderived":6087,"inity":6088,"Ġimplementation":6089,"Ġcoffee":6090,"Ã¼":6091,"orses":6092,"Ġenable":6093,"ĠExpl":6094,"Ġwish":6095,"Ġdin":6096,"ĠGold":6097,"ĠISBN":6098,"under":6099,"Ġ>":6100,"Ġdescription":6101,"ĠDesign":6102,"Ġoutl":6103,"ĠStreet":6104,"Ġskill":6105,"ĠYet":6106,"Ġuns":6107,"Ġfixed":6108,"Ġconstitution":6109,"wing":6110,"Ġtraum":6111,"from":6112,"ĠJoseph":6113,"Ġbear":6114,"ushing":6115,"Ġdoubt":6116,"ĠDisease":6117,"Ġethnic":6118,"Ġmanaged":6119,"arant":6120,"Ġmechanism":6121,"ĠGlobal":6122,"Ġindicates":6123,"ĠThrough":6124,"reland":6125,"ĠAustralian":6126,"Ġintervention":6127,"Ġinsects":6128,"inction":6129,"throp":6130,"Ġsuccessfully":6131,"opy":6132,"ĠParis":6133,"ĠLong":6134,"Not":6135,"Ġnewsp":6136,"Ġcalcium":6137,"Ġsharing":6138,"Ġalgorith":6139,"gans":6140,"wo":6141,"Ġfossil":6142,"Ġlaboratory":6143,"ĠFrank":6144,"itt":6145,"âĢĻ,":6146,"ĠChic":6147,"IL":6148,"Ġsod":6149,"ifications":6150,"usal":6151,"Ġenvironments":6152,"Can":6153,"Ġsky":6154,"Ġmarked":6155,"Ġcircuit":6156,"ĠLab":6157,"ribed":6158,"Ġgal":6159,"Ġ189":6160,"Ġresponses":6161,"gu":6162,"Ġ300":6163,"Ġvessels":6164,"Ġcritic":6165,"Ġraw":6166,"Ġrepresented":6167,"Ġboost":6168,"ĠAI":6169,"Ġauthorities":6170,"itan":6171,"Ġdifficulty":6172,"Ġthousand":6173,"Since":6174,"Ġconsumers":6175,"Ġoptim":6176,"Ġlaun":6177,"Ġdaughter":6178,"Ġorganized":6179,"edu":6180,"lets":6181,"Ġregist":6182,"Ġacids":6183,"riting":6184,"Ġmolecules":6185,"Ġcompr":6186,"Ġ1970":6187,"Ġsentence":6188,"ĠRad":6189,"ena":6190,"Ġarrived":6191,"phone":6192,"eper":6193,"then":6194,"zil":6195,"EP":6196,"Ġnine":6197,"Ġprincip":6198,"Ġcarefully":6199,"ĠIN":6200,"isters":6201,"ĠReport":6202,"ĠBre":6203,"Ġnerve":6204,"âĢĺ":6205,"Ġwitness":6206,"Ġsight":6207,"inking":6208,"Ġcomposition":6209,"level":6210,"Ġunp":6211,"kes":6212,"Ġmac":6213,"ront":6214,"Ġultimately":6215,"Ġfiber":6216,"agon":6217,"Ġdestroyed":6218,"ĠSouthern":6219,"Ġcolour":6220,"ivery":6221,"Ġcultures":6222,"Ġinner":6223,"Ġcart":6224,"Ġinstitution":6225,"Ġsimpl":6226,"American":6227,"tra":6228,"En":6229,"ctive":6230,"elled":6231,"Ġunable":6232,"Ġlimits":6233,"ĠCa":6234,"fish":6235,"rine":6236,"ĠSk":6237,"Ġphilosophy":6238,"ĠMad":6239,"Ġyounger":6240,"Ġdesire":6241,"Ġdensity":6242,"ĠKh":6243,"ĠCommittee":6244,"Ġdedicated":6245,"aped":6246,"tic":6247,"Ġdebate":6248,"ĠStep":6249,"ita":6250,"itative":6251,"Ġmarried":6252,"Ġelectron":6253,"Ġinteraction":6254,"Ġgone":6255,"Ġshift":6256,"55":6257,"Ġfounded":6258,"ĠCult":6259,"Ġnecessarily":6260,"Ġfasc":6261,"Ġwalking":6262,"Bl":6263,"Ġlifestyle":6264,"rus":6265,"Ġmixed":6266,"Ġbrand":6267,"ĠHaw":6268,"ĠNatural":6269,"ints":6270,"rd":6271,"word":6272,"Ġpurchase":6273,"ĠIreland":6274,"ocy":6275,"Ġhandle":6276,"Ġyield":6277,"Ġcloser":6278,"Ġregul":6279,"Ġregulations":6280,"stein":6281,"Pe":6282,"cel":6283,"ictionary":6284,"Ġmild":6285,"umes":6286,"Ġends":6287,"Ġimmediate":6288,"Ġattend":6289,"Ġourselves":6290,"ipping":6291,"Ġdownload":6292,"Ġroof":6293,"Ġparalle":6294,"Ġgluc":6295,"Ġconventional":6296,"Ġacknow":6297,"Ġagency":6298,"Ġreader":6299,"Ġhydrogen":6300,"Ġratio":6301,"ctor":6302,"iration":6303,"ĠHall":6304,"ĠBank":6305,"ĠStat":6306,"stone":6307,"Ġpreval":6308,"Ġfewer":6309,"Ġfeeding":6310,"Ġpurs":6311,"Ġemotions":6312,"ĠExp":6313,"Ġamaz":6314,"ĠIP":6315,"Ġchosen":6316,"Ġfabric":6317,"Ġaccum":6318,"ĠCamp":6319,"Ġcomments":6320,"izer":6321,"ĠStudy":6322,"Ġhabits":6323,"Ġclust":6324,"Ġremark":6325,"Ġcutting":6326,"Ġsucceed":6327,"Ġphotograph":6328,"fortunately":6329,"Ġstanding":6330,"irty":6331,"ĠCat":6332,"Ġcomparison":6333,"itudes":6334,"hand":6335,"Ġhighlight":6336,"Ġbreathing":6337,"ribe":6338,"Ġattached":6339,"Ġalle":6340,"Ġjoin":6341,"Ġpersist":6342,"Ġstands":6343,"Ġships":6344,"Ġinstructions":6345,"Ġveter":6346,"Ġlisten":6347,"Ġbiggest":6348,"kins":6349,"Ġcolleagues":6350,"ĠItaly":6351,"Ġfalse":6352,"Ġsupporting":6353,"called":6354,"ĠPub":6355,"Ġpup":6356,"Ġterritory":6357,"Ġarchitecture":6358,"Ġeld":6359,"Ġsupports":6360,"rating":6361,"Ġconcrete":6362,"ĠHome":6363,"Ġoverl":6364,"ĠDet":6365,"Ġreserv":6366,"Ġtwenty":6367,"ĠMag":6368,"Ġcommunicate":6369,"ĠAdminist":6370,"Ġsupplies":6371,"Ġmechanisms":6372,"bridge":6373,"Ġmice":6374,"ĠValley":6375,"Ġinhib":6376,"heast":6377,"Ġfighting":6378,"Ġwriter":6379,"ĠRevolution":6380,"ĠGet":6381,"Ġunus":6382,"Ġdioxide":6383,"hop":6384,"Ġtransportation":6385,"ĠClin":6386,"Ġcontained":6387,"Ġunderlying":6388,"Ġgrew":6389,"tering":6390,"yles":6391,"Ġrelax":6392,"cher":6393,"Ġwhatever":6394,"ĠFort":6395,"Ġoccasion":6396,"Ġtank":6397,"cycl":6398,"ĠCarolina":6399,"IP":6400,"ĠOcean":6401,"Ġserver":6402,"Ġpercentage":6403,"ĠCancer":6404,"bour":6405,"Ġknows":6406,"orous":6407,"Ùİ":6408,"Ġhero":6409,"ora":6410,"Ġevaluation":6411,"Figure":6412,"sey":6413,"Ġneck":6414,"zed":6415,"ĠForm":6416,"Ġmachines":6417,"Ġcats":6418,"Ġexists":6419,"Ġvoc":6420,"uts":6421,"Ġwilling":6422,"Ġvote":6423,"Ġtaste":6424,"Ġtea":6425,"ĠNorthern":6426,"Ġorganisms":6427,"top":6428,"ĠExper":6429,"anta":6430,"Ġdebt":6431,"ĠEth":6432,"ĠVis":6433,"ĠGal":6434,"Ġfunctional":6435,"OC":6436,"Ġpowers":6437,"stract":6438,"Ġstroke":6439,"Ġturns":6440,"Ġuniversity":6441,"omic":6442,"Ġcontamin":6443,"Ġcompounds":6444,"Ġsubs":6445,"Ġbread":6446,"ĠAcademy":6447,"Ġparticipate":6448,"irt":6449,"Ġzone":6450,"riers":6451,"ĠColor":6452,"ĠEmpire":6453,"05":6454,"Ġlies":6455,"irds":6456,"Ġmembr":6457,"earchers":6458,"Ġlaunch":6459,"ella":6460,"ĠExt":6461,"Ġhousing":6462,"such":6463,"Ġhoriz":6464,"ĠPan":6465,"Ġaccident":6466,"Ġadministr":6467,"Ġath":6468,"Ġresolution":6469,"Ġjoined":6470,"iratory":6471,"ĠRoyal":6472,"Ġ1960":6473,"LA":6474,"Let":6475,"Ġdent":6476,"Ġcrow":6477,"ĠRichard":6478,"Ġobesity":6479,"Ġchrom":6480,"Ġbehaviors":6481,"Ġgreenhouse":6482,"Ġdrawing":6483,"Ġrising":6484,"Ġwhereas":6485,"Ġeastern":6486,"aud":6487,"Ġbeliefs":6488,"ĠAdd":6489,"isk":6490,"ĠSol":6491,"Ġastr":6492,"Ġtrained":6493,"ĠTime":6494,"Ġmagnetic":6495,"Ġpron":6496,"hether":6497,"utch":6498,"Ġkit":6499,"Ġborder":6500,"Ġcustomers":6501,"rovers":6502,"Ġvulnerable":6503,"Ġfeedback":6504,"while":6505,"Ġru":6506,"Ġpresentation":6507,"ione":6508,"Ġsmoking":6509,"ĠOh":6510,"Ġrecognition":6511,"Int":6512,"ĠSpain":6513,"Ġpool":6514,"ditional":6515,"Ġimprovement":6516,"cture":6517,"Ġresulted":6518,"ĠBoard":6519,"uh":6520,"ĠSciences":6521,"Ġequivalent":6522,"Ġrefuge":6523,"ĠEnd":6524,"onia":6525,"Ġartificial":6526,"roduction":6527,"Ġ1997":6528,"ifest":6529,"66":6530,"comm":6531,"42":6532,"Ġhem":6533,"hav":6534,"Ġconfidence":6535,"sts":6536,"ih":6537,"ĠNative":6538,"ĠRob":6539,"Ġinstruments":6540,"ĠIndians":6541,"Ġlegs":6542,"Ġment":6543,"Ġfrequent":6544,"Ġdemonstrated":6545,"struction":6546,"ĠPenn":6547,"Ġmand":6548,"ĠAS":6549,"Ġfunds":6550,"Ġsupposed":6551,"Ġrhy":6552,"ĠAgricult":6553,"esis":6554,"pet":6555,"79":6556,"Ġguarant":6557,"Ġflag":6558,"Ġvariable":6559,"BS":6560,"een":6561,"Ġobservations":6562,"Ġprove":6563,"aph":6564,"43":6565,"Ġexplo":6566,"Ġshot":6567,"ittle":6568,"Ġcarb":6569,"Ġprogramming":6570,"Ġpsychological":6571,"Ã³":6572,"Ġtrials":6573,"Ġconnections":6574,"01":6575,"Ġcrime":6576,"Ġissued":6577,"Ġcamera":6578,"Ġepid":6579,"________":6580,"Ġpra":6581,"Ġfu":6582,"icious":6583,"Ġreactions":6584,"Le":6585,"Ġstable":6586,"weight":6587,"Ġtall":6588,"ediatric":6589,"Ġteen":6590,"etime":6591,"Ġdistur":6592,"ĠWood":6593,"teen":6594,"Ġrecept":6595,"ĠMill":6596,"uter":6597,"Ġprev":6598,"Ġcompetition":6599,"CD":6600,"Ġmeth":6601,"ults":6602,"Ġpair":6603,"Ġshut":6604,"Ġshop":6605,"Ġnearby":6606,"Ġnoise":6607,"anches":6608,"icon":6609,"Ġexamine":6610,"nect":6611,"Ġahead":6612,"Ġlayers":6613,"Ġconclusion":6614,"Ġentry":6615,"ĠBrown":6616,"88":6617,"Ġbot":6618,"Ġdepartment":6619,"Ġemployment":6620,"ĠChicago":6621,"Ġdefe":6622,"Ġdemonstrate":6623,"ups":6624,"irus":6625,"Ġcapture":6626,"Ġpartner":6627,"inally":6628,"andon":6629,"ĠWik":6630,"ĠPract":6631,"plant":6632,"ĠâĢ¢":6633,"Ġdelay":6634,"Ġneur":6635,"Ġchick":6636,"Ġgenerations":6637,"ugh":6638,"ĠMichael":6639,"ĠCap":6640,"Ġspending":6641,"Ġsubstances":6642,"Ġhypothes":6643,"Ġinsurance":6644,"Ġwasn":6645,"Ġbridge":6646,"ritis":6647,"Ġpolitics":6648,"Ġrelation":6649,"Ġmaps":6650,"Ġobjective":6651,"hesis":6652,"Ġestimates":6653,"erior":6654,"Ġflo":6655,"Â·":6656,"Ġsacr":6657,"Ġdiagnosed":6658,"ĠHoly":6659,"Ġpositions":6660,"ĠTimes":6661,"Ġmatters":6662,"oding":6663,"usiness":6664,"Ġdefine":6665,"Ġscript":6666,"Ġring":6667,"ĠBrazil":6668,"Qu":6669,"Ġrow":6670,"Ġpainting":6671,"igned":6672,"ĠClimate":6673,"ĠEss":6674,"IG":6675,"Ġindependence":6676,"ĠScot":6677,"aked":6678,"DP":6679,"xts":6680,"raining":6681,"Ġusage":6682,"Ġlegislation":6683,"ĠScott":6684,"Your":6685,"ether":6686,"iah":6687,"hered":6688,"First":6689,"itely":6690,"eless":6691,"aine":6692,"cons":6693,"Lear":6694,"Ġelectro":6695,"Ġrank":6696,"ala":6697,"Ġtrip":6698,"how":6699,"etics":6700,"Ġagreed":6701,"Ġarrange":6702,"Ġtissues":6703,"Rec":6704,"arn":6705,"Ġconsumer":6706,"Ã¶":6707,"everal":6708,"Ġdelivery":6709,"Ġreven":6710,"pread":6711,"Ġsections":6712,"Ġmarkets":6713,"ĠGard":6714,"ĠKeep":6715,"ĠFree":6716,"Ġprompt":6717,"Ġzero":6718,"Ġnest":6719,"ĠVictor":6720,"Ġ36":6721,"eenth":6722,"earing":6723,"Ġfever":6724,"ML":6725,"Ġ75":6726,"Ġhur":6727,"abul":6728,"Ġsole":6729,"scale":6730,"asters":6731,"Ġoperate":6732,"Ġsurve":6733,"Ġinteractions":6734,"Ġvoltage":6735,"Ġinsulin":6736,"Of":6737,"Ġputting":6738,"ĠDiff":6739,"abled":6740,"idespread":6741,"ourage":6742,"Ġplayers":6743,"Ġswim":6744,"Ġthy":6745,"Ġcovers":6746,"Ġpassage":6747,"Ġpoison":6748,"Ġinvolving":6749,"Ġstring":6750,"Ġscan":6751,"ishment":6752,"bra":6753,"Ġexplanation":6754,"Ġcm":6755,"fit":6756,"ĠGeorg":6757,"ĠIII":6758,"Ġcategories":6759,"ĠParty":6760,"Ġfract":6761,"Ġparticipation":6762,"Ġhorses":6763,"Ġundert":6764,"occ":6765,"Ġvirtual":6766,"urrent":6767,"Ġroute":6768,"Ġaccessible":6769,"peror":6770,"ĠGuide":6771,"Ġblocks":6772,"dule":6773,"ocation":6774,"Ġlaunched":6775,"ĠBab":6776,"Ġforget":6777,"Ġmode":6778,"Ġadequate":6779,"ĠItalian":6780,"ĠWhere":6781,"itter":6782,"Ġspok":6783,"Ġcentre":6784,"gov":6785,"Ġframe":6786,"Ġoblig":6787,"Ġcryst":6788,"Ġsmoke":6789,"Ġ1996":6790,"Ġmos":6791,"Ġscene":6792,"Ġdanger":6793,"Ġeveryday":6794,"Ġassociation":6795,"Ġdivision":6796,"Ġgap":6797,"Ġbanks":6798,"Ġorgans":6799,"Ġcards":6800,"Ġcontrols":6801,"Ġlegisl":6802,"ighter":6803,"Over":6804,"umps":6805,"Ġforth":6806,"Ġnob":6807,"ĠStr":6808,"Ġboy":6809,"Ġdepart":6810,"Ġsettings":6811,"41":6812,"Ġnone":6813,"Ġended":6814,"RC":6815,"Ġemployed":6816,"ployment":6817,"ĠCreat":6818,"ading":6819,"Ġpapers":6820,"ymph":6821,"Ġmaintaining":6822,"Ġindicated":6823,"Ġmanip":6824,"rite":6825,"Ġmatch":6826,"Ġvs":6827,"ureau":6828,"Ġcup":6829,"Ġfashion":6830,"Ġille":6831,"osion":6832,"Ġconstructed":6833,"Ġcounty":6834,"Ġoutbre":6835,"Ġindustries":6836,"Ġruns":6837,"Ġbrings":6838,"Ġexpansion":6839,"Ġmeal":6840,"Ġreliable":6841,"Ġchallenging":6842,"sis":6843,"Ġblow":6844,"Ġholds":6845,"itivity":6846,"Ġ150":6847,"Ġnegot":6848,"Ġholding":6849,"ĠBul":6850,"yth":6851,"Ġcolumn":6852,"Ġsmooth":6853,"IM":6854,"icit":6855,"oven":6856,"ĠDig":6857,"Ġstimul":6858,"Ġhistoric":6859,"%)":6860,"ulty":6861,"Ġrelief":6862,"ĠHave":6863,"Ġinstalled":6864,"car":6865,"Ġelection":6866,"Ġstreet":6867,"ented":6868,"Ġmeters":6869,"ĠEastern":6870,"Ġcommitted":6871,"Ġtrouble":6872,"Ġrepair":6873,"azine":6874,"Ġhonor":6875,"Ġmissing":6876,"Ġexercises":6877,"Ġsheet":6878,"Ġdrawn":6879,"Ġtight":6880,"Ġphysics":6881,"Ġintegrated":6882,"Ġkidney":6883,"Ġearn":6884,"Ġintellectual":6885,"Ġdestruction":6886,"Ġongoing":6887,"Ġbond":6888,"Ġenemy":6889,"Ġcalories":6890,"Ġske":6891,"Ġrig":6892,"Ġ1995":6893,"Ġdamaged":6894,"Don":6895,"ĠSing":6896,"Ġminerals":6897,"she":6898,"ĠLanguage":6899,"Ġgram":6900,"Ġnervous":6901,"ĠBig":6902,"Ġbutter":6903,"Ġhole":6904,"RA":6905,"Ġneither":6906,"Ġrice":6907,"Ġaward":6908,"Ġphoto":6909,"ĠMer":6910,"ĠKingdom":6911,"Ġbiod":6912,"oples":6913,"Ġconven":6914,"Ġreceiving":6915,"making":6916,"opic":6917,"Ġtons":6918,"Ġloved":6919,"Ġdeclared":6920,"Ġmold":6921,"Ġburning":6922,"Ġ32":6923,"Ġmm":6924,"ĠIrish":6925,"Ġvictims":6926,"Ġhun":6927,"Ġasking":6928,"pan":6929,"Ġdomain":6930,"Ġpreparation":6931,"idity":6932,"mes":6933,"Ġshif":6934,"Once":6935,"Ġholid":6936,"Ġapproved":6937,"orph":6938,"gers":6939,"85":6940,"Ġsomewhat":6941,"Ġwithd":6942,"Ġentered":6943,"Ġboys":6944,"Ġwidespread":6945,"ĠCop":6946,"Ġdoi":6947,"Ġearthqu":6948,"Ġfold":6949,"ushed":6950,"Ġspaces":6951,"Ġworry":6952,"Ġfulf":6953,"Ġrivers":6954,"Ġreduces":6955,"ĠDar":6956,"rial":6957,"Ġvac":6958,"Ġstrongly":6959,"Ġglucose":6960,"idential":6961,"utrition":6962,"Ġtexts":6963,"VID":6964,"Ġabandon":6965,"ĠServices":6966,"Ġcomposed":6967,"Ġblind":6968,"ĠAccess":6969,"ĠEarly":6970,"Ġdollars":6971,"alm":6972,"Ġislands":6973,"ĠPM":6974,"ĠZeal":6975,"IA":6976,"pes":6977,"inson":6978,"Ġbreath":6979,"Ġturning":6980,"Ġpharm":6981,"igan":6982,"Ġhusband":6983,"herent":6984,"Ġdesigns":6985,"Ġwait":6986,"Ġcontrovers":6987,"ĠMartin":6988,"Ġfurn":6989,"Ġpublication":6990,"reek":6991,"Ġcategory":6992,"Ġparallel":6993,"Ġestimate":6994,"ĠFace":6995,"Ġkne":6996,"cyclop":6997,"Ġfacility":6998,"Ġtransp":6999,"Ġcav":7000,"Ġmood":7001,"Ġseemed":7002,"Ġrealize":7003,"Ġmeasurements":7004,"amins":7005,"estion":7006,"Ġintense":7007,"ĠCre":7008,"opes":7009,"arsh":7010,"Ġmechanical":7011,"Ġtub":7012,"Ġvolcan":7013,"Ġconstantly":7014,"Ġorient":7015,"Ġstre":7016,"Ġmoisture":7017,"Ġfemales":7018,"ĠTV":7019,"ĠTake":7020,"Ġviruses":7021,"Ġcrim":7022,"OL":7023,"gical":7024,"alls":7025,"Even":7026,"Ġdistributed":7027,"iability":7028,"htt":7029,"elesc":7030,"Ġarrest":7031,"ĠEqu":7032,"ĠCy":7033,"ibl":7034,"Ġtheories":7035,"Ġfavorite":7036,"Ġbabies":7037,"Ġconversation":7038,"ĠAge":7039,"rey":7040,"ĠAtlantic":7041,"Ġartists":7042,"Ġcoastal":7043,"Ġroles":7044,"Ġtract":7045,"Ġexamination":7046,"Ġarchae":7047,"Ġrely":7048,"ĠEU":7049,"Ġoffering":7050,"Ġmeasurement":7051,"Ġrecommendations":7052,"ĠFamily":7053,"yal":7054,"operation":7055,"hent":7056,"Ġmerely":7057,"Ġfer":7058,"ĠSup":7059,"Ġstrict":7060,"ĠZealand":7061,"Ġplus":7062,"gs":7063,"Me":7064,"Ġcompare":7065,"Ġproportion":7066,"ĠRom":7067,"Ġannounced":7068,"Ġsignificance":7069,"Ġadvert":7070,"rane":7071,"Ġclothing":7072,"orders":7073,"Ġrenewable":7074,"ĠProp":7075,"Ġbath":7076,"aded":7077,"Ġrid":7078,"ĠYear":7079,"rooms":7080,"Ġthanks":7081,"Ġcriteria":7082,"asty":7083,"ady":7084,"Ġvariables":7085,"Ġofficers":7086,"Ġfacing":7087,"Ġagents":7088,"ĠâĨ":7089,"Ġforg":7090,"sen":7091,"ano":7092,"Ġmales":7093,"Ġseeking":7094,"Ġmining":7095,"ortion":7096,"ĠSil":7097,"health":7098,"heimer":7099,"Ġevaluate":7100,"SS":7101,"Ġrespectively":7102,"Ġbeauty":7103,"abulary":7104,"rary":7105,"Ġescape":7106,"itamin":7107,"va":7108,"ĠBefore":7109,"Ġsought":7110,"ĠAcc":7111,"osh":7112,"UT":7113,"Ġintest":7114,"Ġoutcome":7115,"otton":7116,"Ġsurfaces":7117,"Because":7118,"Ġfro":7119,"ĠSat":7120,"Ġengaged":7121,"ĠForest":7122,"Ġbeings":7123,"ĠHill":7124,"Ġdys":7125,"ĠResources":7126,"apse":7127,"UN":7128,"Ġtheme":7129,"ĠAP":7130,"ipedia":7131,"Ġcenters":7132,"ivered":7133,"Ġinfect":7134,"Ġpounds":7135,"iox":7136,"Ġplenty":7137,"Ġconsidering":7138,"Ġfarming":7139,"Ġprohib":7140,"Ġcircle":7141,"isdom":7142,"Ġwound":7143,"quit":7144,"Ġped":7145,"ĠAsian":7146,"Med":7147,"Ġacute":7148,"Ġmolecular":7149,"Ġdependent":7150,"net":7151,"Ġproof":7152,"esides":7153,"Ġincred":7154,"71":7155,"ĠOxford":7156,"ani":7157,"%.":7158,"Ġowner":7159,"ĠPlant":7160,"iological":7161,"Ġcomplicated":7162,"Ġpreventing":7163,"ĠMoreover":7164,"Ġmetabol":7165,"Ġ65":7166,"agram":7167,"forcement":7168,"Ġuncertain":7169,"Every":7170,"Ġmoves":7171,"Ġparas":7172,"Ġcollaboration":7173,"Ġmaintained":7174,"airy":7175,"example":7176,"ĠNaz":7177,"ventions":7178,"Ġrarely":7179,"ĠAgency":7180,"ĠViet":7181,"thritis":7182,"Ġinn":7183,"Ġdesired":7184,"Ġcontemporary":7185,"Ġsession":7186,"Ġconfirmed":7187,"ĠTeac":7188,"ĠSometimes":7189,"Ġid":7190,"iral":7191,"ĠSpecial":7192,"Ġmessages":7193,"Ġadvantages":7194,"adder":7195,"Ġbreeding":7196,"rene":7197,"ĠLib":7198,"Ġtheore":7199,"Ġtemple":7200,"Ġattempts":7201,"Ġdose":7202,"Ġaccuracy":7203,"Ġshock":7204,"Ġopposed":7205,"Ġpregnant":7206,"ĠSecurity":7207,"Ġphenomenon":7208,"Ġfourth":7209,"rowing":7210,"oln":7211,"Ġsatellite":7212,"Ġingredients":7213,"ĠEp":7214,"Ġguidance":7215,"Ġrocks":7216,"Ġdefense":7217,"acco":7218,"Ġinfluenced":7219,"Ġsoul":7220,"Ġtube":7221,"Ġclaimed":7222,"ĠEffect":7223,"ĠJac":7224,"ĠCheck":7225,"ĠPop":7226,"ĠChange":7227,"ĠList":7228,"ĠWindows":7229,"Ġcarrying":7230,"Ġdischar":7231,"Ġfairly":7232,"Ġsigned":7233,"Ġmortality":7234,"rency":7235,"Ġdetection":7236,"ĠMel":7237,"Ġbringing":7238,"Ġserving":7239,"ĠThough":7240,"Ġpanel":7241,"ixture":7242,"Ġabsence":7243,"aired":7244,"Ġinher":7245,"Ġempt":7246,"Ġscore":7247,"ĠYoung":7248,"Ġarts":7249,"Ġpassing":7250,"hyd":7251,"Ġclar":7252,"oom":7253,"Ġartist":7254,"ĠAdv":7255,"ollowing":7256,"Ġjump":7257,"ohyd":7258,"ĠMuslim":7259,"Ġbees":7260,"Ġimplemented":7261,"ĠPolic":7262,"Ġproven":7263,"medi":7264,"bar":7265,"Ġseconds":7266,"Today":7267,"Ġcommission":7268,"'m":7269,"vard":7270,"Ġirrit":7271,"Ġnose":7272,"ĠSecret":7273,"Ġbiology":7274,"73":7275,"ĠDistrict":7276,"Ġinterpre":7277,"ĠWord":7278,"Ġdrain":7279,"Ġcompound":7280,"Ġessentially":7281,"ĠPo":7282,"Ġabnormal":7283,"Ġcaptured":7284,"72":7285,"Ġencouraged":7286,"Ġweapons":7287,"ogether":7288,"Ġphotos":7289,"trans":7290,"Ġscreening":7291,"eness":7292,"eren":7293,"oric":7294,"Ġnitrogen":7295,"Ġdiscrimination":7296,"Ø§":7297,"Am":7298,"Ġgradually":7299,"Ġwriters":7300,"Ġchest":7301,"Ġsail":7302,"Ġremoval":7303,"Ġ1950":7304,"IDS":7305,"ĠVen":7306,"Ġinsert":7307,"Ġcombat":7308,"oir":7309,"Ġshapes":7310,"Ġknowing":7311,"emia":7312,"ĠAND":7313,"Ġaims":7314,"Ġpush":7315,"otes":7316,"Ġcriminal":7317,"ĠFurthermore":7318,"ĠPet":7319,"Ġfilter":7320,"Ġprincipal":7321,"Ġlake":7322,"AA":7323,"ĠOpen":7324,"ĠSwed":7325,"ovascular":7326,"Ġnewly":7327,"Ġmineral":7328,"Ġtelevision":7329,"Ġimplications":7330,"Ġturb":7331,"ommod":7332,"Ġsubsequent":7333,"Ġasthma":7334,"ĠChristmas":7335,"Ġpresents":7336,"itals":7337,"Ġrespiratory":7338,"Or":7339,"Ġeffectiveness":7340,"Ġvisitors":7341,"Ġcrew":7342,"Ġevil":7343,"Ġsurprising":7344,"Ġsilver":7345,"Ġimagine":7346,"aning":7347,"Ġcareful":7348,"Ġcleaning":7349,"ĠGrand":7350,"Ġangle":7351,"Ġdelivered":7352,"Ġconsiderable":7353,"Ġworship":7354,"ĠCentre":7355,"Ġfung":7356,"outs":7357,"68":7358,"Ġassume":7359,"including":7360,"roat":7361,"class":7362,"Ġanalys":7363,"Ġinterpretation":7364,"ĠHy":7365,"olving":7366,"Ġoverw":7367,"Ġdefect":7368,"oga":7369,"Ġteams":7370,"theless":7371,"ĠWho":7372,"Ġsla":7373,"Ġdifficulties":7374,"Ã¢":7375,"Ġtreating":7376,"Ġexclus":7377,"Ġbranches":7378,"aska":7379,"Ġexperimental":7380,"Ġlie":7381,"Ġracial":7382,"Ġheating":7383,"IR":7384,"Ġexcessive":7385,"Ġcooking":7386,"Ġminute":7387,"rous":7388,"sm":7389,"ooking":7390,"ĠBill":7391,"ĠCommunity":7392,"Ġ400":7393,"ĠDoes":7394,"Ġproved":7395,"74":7396,"Ġitem":7397,"Ġdisaster":7398,"ĠAmong":7399,"ĠAngel":7400,"Ġmathematics":7401,"heric":7402,"Ġroughly":7403,"ĠPlease":7404,"ĠWorks":7405,"Ġ1994":7406,"Ġinfant":7407,"Ġtargets":7408,"Ġchlor":7409,"olesc":7410,"Ġproceed":7411,"Ġcomfortable":7412,"ĠMS":7413,"Ġstronger":7414,"ĠAdministration":7415,"Ġedition":7416,"Ġinformed":7417,"ĠColumbia":7418,"Ġjudge":7419,"Ġelected":7420,"amine":7421,"Ġplanned":7422,"Ġdealing":7423,"Ġmicrosc":7424,"Ġmicrob":7425,"tles":7426,"Ġremind":7427,"Ġbranch":7428,"Ġgut":7429,"Ġpeak":7430,"Ġunusual":7431,"Ġtut":7432,"Ġguard":7433,"Ġfocuses":7434,"Ġplane":7435,"ĠHeb":7436,"Ġouter":7437,"Ġreward":7438,"Ġdefend":7439,"ĠDen":7440,"iana":7441,"Ġslavery":7442,"Su":7443,"Ġhealing":7444,"df":7445,"incoln":7446,"ruption":7447,"Ġvarieties":7448,"Ġfed":7449,"Ġflower":7450,"Ġstatistics":7451,"aming":7452,"Ġlaid":7453,"ishop":7454,"Ġuniversal":7455,"Ġmodified":7456,"ĠDirector":7457,"Ġgained":7458,"Ġdecor":7459,"Ġfinished":7460,"Ġhormone":7461,"otype":7462,"Ġformula":7463,"Ġhoney":7464,"Ġye":7465,"amination":7466,"produ":7467,"Ġequally":7468,"Ġmarks":7469,"rav":7470,"Ġclient":7471,"ilation":7472,"ĠFinally":7473,"Ġconcerning":7474,"Ġmic":7475,"ĠDespite":7476,"ograp":7477,"Ġordered":7478,"Ġcosm":7479,"ounce":7480,"Ġassigned":7481,"ĠLow":7482,"Ġwine":7483,"ĠResp":7484,"unicip":7485,"reated":7486,"ĠMD":7487,"Ġstead":7488,"ĠNon":7489,"Ġeliminate":7490,"Ġprinted":7491,"98":7492,"Ġusual":7493,"Ġroads":7494,"oids":7495,"eli":7496,"ĠLar":7497,"Ġprominent":7498,"Ġdeeper":7499,"riend":7500,"essions":7501,"zheimer":7502,"Ġdates":7503,"Ġbreed":7504,"Ġbigger":7505,"rance":7506,"Ġphysician":7507,"agraph":7508,"Ġrab":7509,"Ġhappening":7510,"ĠNetwork":7511,"ĠPrinc":7512,"Ġinvestigation":7513,"Ġphosph":7514,"itual":7515,"print":7516,"ptions":7517,"ĠFour":7518,"oston":7519,"Ġstructural":7520,"Ġserves":7521,"uality":7522,"Ġcharacterized":7523,"Ġsatisf":7524,"ĠMen":7525,"illa":7526,"Ġmaybe":7527,"Ġpestic":7528,"Ġradical":7529,"rox":7530,"ĠCoast":7531,"Ġinitially":7532,"Ġneighborhood":7533,"Ġencoun":7534,"Ġfalls":7535,"NS":7536,"Ġexamined":7537,"ĠIss":7538,"Ġbiom":7539,"lishing":7540,"06":7541,"HD":7542,"ĠIndust":7543,"arents":7544,"Ġstatements":7545,"ĠRock":7546,"oured":7547,"Ġcaught":7548,"ĠSund":7549,"Ġcash":7550,"ĠCast":7551,"action":7552,"Ġgalax":7553,"Ġremed":7554,"ĠWall":7555,"ĠFund":7556,"Ġcham":7557,"Ġ38":7558,"Comm":7559,"asm":7560,"akistan":7561,"Ġamazing":7562,"orted":7563,"Ġholes":7564,"Ġobserve":7565,"Ġsuffered":7566,"ĠAdditionally":7567,"Ġrose":7568,"Ġregulation":7569,"Ġtraditions":7570,"ĠEr":7571,"riz":7572,"Ġunw":7573,"Ġcorner":7574,"vin":7575,"Comp":7576,"eut":7577,"Ġerrors":7578,"OM":7579,"Ġtranslation":7580,"Ġgro":7581,"CE":7582,"Ġorbit":7583,"ricts":7584,"Ġexception":7585,"Ġconqu":7586,"Ġsharp":7587,"Ġinnovation":7588,"Ġstuff":7589,"effect":7590,"iary":7591,"coming":7592,"Ġstores":7593,"Ġcopper":7594,"isco":7595,"Ġcorrel":7596,"Ġterror":7597,"ersonal":7598,"Ġdemands":7599,"Ġexceed":7600,"Ġintent":7601,"ogs":7602,"icted":7603,"Ġfaced":7604,"istical":7605,"Note":7606,"bles":7607,"atively":7608,"Ġeditor":7609,"Ġcompens":7610,"Ġkilomet":7611,"Ġtropical":7612,"elfare":7613,"itarian":7614,"Ġflour":7615,"Ġmusical":7616,"onym":7617,"ude":7618,"ĠFather":7619,"Ġconsume":7620,"Ġlearners":7621,"ĠThree":7622,"ĠJul":7623,"Ġconfig":7624,"Ġaccompan":7625,"Ġspin":7626,"ĠSuper":7627,"Ġearliest":7628,"haust":7629,"Ġsubstantial":7630,"night":7631,"ĠSupreme":7632,"Ġstations":7633,"sell":7634,"Ġcab":7635,"Ġidentification":7636,"ioxid":7637,"Ġplayer":7638,"Ġliteracy":7639,"ĠMethod":7640,"igue":7641,"Ġscientist":7642,"Ġspectrum":7643,"Ġgranted":7644,"Ġdiameter":7645,"Ġsenior":7646,"Ġpoem":7647,"ĠOrganization":7648,"Ġanywhere":7649,"ĠJeff":7650,"Ġwarning":7651,"Ġthreats":7652,"Ġgrain":7653,"asant":7654,"ĠSign":7655,"Ġsplit":7656,"Ed":7657,"ĠSar":7658,"ested":7659,"Ġscar":7660,"Ġindigenous":7661,"Ġcort":7662,"ultane":7663,"Ġconsideration":7664,"Ġceremon":7665,"Ġcong":7666,"Ġhazard":7667,"rot":7668,"Ġdriven":7669,"iat":7670,"Ġtrigger":7671,"Ġschedule":7672,"abeth":7673,"CH":7674,"ucky":7675,"pling":7676,"ocial":7677,"Ġvideos":7678,"Ġslaves":7679,"ĠArticle":7680,"Ġbomb":7681,"ĠVer":7682,"Ġcoc":7683,"ĠCell":7684,"ĠChristians":7685,"chen":7686,"Ġsitting":7687,"Ġampl":7688,"Ġfest":7689,"isted":7690,"Ġevolved":7691,"Ġheavily":7692,"Ġprocessed":7693,"ansas":7694,"ĠÐ":7695,"Ġrecover":7696,"ĠSir":7697,"ustain":7698,"vania":7699,"Ġsales":7700,"fts":7701,"icate":7702,"Ġcomplications":7703,"Ġdecreased":7704,"Ġsport":7705,"64":7706,"ima":7707,"mers":7708,"onal":7709,"Ġ48":7710,"Ġov":7711,"Ġmanifest":7712,"ba":7713,"thm":7714,"People":7715,"ĠAM":7716,"Ġtrends":7717,"Ġwindows":7718,"Ġprovider":7719,"ostic":7720,"Ġmeasuring":7721,"Per":7722,"Ġalter":7723,"Ġlistening":7724,"Ġconcluded":7725,"Ġlights":7726,"Ġplot":7727,"Ġrepresentation":7728,"Ġcattle":7729,"icing":7730,"gment":7731,"just":7732,"ENT":7733,"ĠCP":7734,"Ġcounsel":7735,"ogenic":7736,"Ġisolated":7737,"requ":7738,"Ġadm":7739,"otherapy":7740,"ontal":7741,"ĠDev":7742,"Ġfishing":7743,"Ġinspired":7744,"ĠPen":7745,"Ġadds":7746,"Ġvariation":7747,"ĠJohnson":7748,"Ġperception":7749,"Ġflows":7750,"Ġdemocracy":7751,"Ġdetected":7752,"She":7753,"Ġmg":7754,"Ġdrought":7755,"ĠDou":7756,"App":7757,"ĠTim":7758,"ĠKorea":7759,"Ġenorm":7760,"Ġsubt":7761,"Ġimaging":7762,"Ġreveal":7763,"?\"":7764,"ercury":7765,"atial":7766,"syl":7767,"CA":7768,"Ġsup":7769,"Ġaccommod":7770,"gence":7771,"Ġoccurring":7772,"Ġbrows":7773,"otal":7774,"08":7775,"Ġperm":7776,"ĠNever":7777,"ura":7778,"Ġalph":7779,"Ġdriver":7780,"ĠSafety":7781,"Ġautomatically":7782,"ĠIV":7783,"Ġconj":7784,"rat":7785,"enger":7786,"Ġcorrectly":7787,"Col":7788,"ĠEngineering":7789,"Ġarray":7790,"ĠType":7791,"Ġovercome":7792,"Ġstrengthen":7793,"ieval":7794,"ĠAlzheimer":7795,"ĠKar":7796,"Ġengineers":7797,"ĠSimilar":7798,"03":7799,"Ġwheel":7800,"Ġfinds":7801,"ette":7802,"ĠPot":7803,"ĠFacebook":7804,"Ġconference":7805,"soft":7806,"Ġmountains":7807,"ĠIran":7808,"ĠLiter":7809,"Ġrect":7810,"Ġdirected":7811,"Ġsuperior":7812,"Ġsunlight":7813,"Ġgiant":7814,"mm":7815,"Ġhence":7816,"ĠEst":7817,"html":7818,"Ġplanets":7819,"Ġagent":7820,"Ġprinting":7821,"allow":7822,"Ear":7823,"Ġpit":7824,"Ġobjectives":7825,"Ġextend":7826,"ĠĊ":7827,"Ġgrows":7828,"69":7829,"Ġdisrupt":7830,"Ġhosp":7831,"Ġobservation":7832,"iture":7833,"ĠStar":7834,"def":7835,"real":7836,"Ġidentifying":7837,"Ġworkshe":7838,"Ġnice":7839,"asses":7840,"Ġsettlement":7841,"Ġpeoples":7842,"ĠMult":7843,"aws":7844,"Ġunion":7845,"rays":7846,"Ġ33":7847,"ĠMinister":7848,"ĠUt":7849,"ĠMoon":7850,"ali":7851,"Ġgrid":7852,"Ġheads":7853,"Ġbag":7854,"About":7855,"ĠTre":7856,"ildren":7857,"etary":7858,"ĠCOVID":7859,"Ġregardless":7860,"ĠUr":7861,"ruit":7862,"Ġpin":7863,"Ġviewed":7864,"Ġvitamins":7865,"Ġstability":7866,"Ġchannel":7867,"Ġabilities":7868,"esh":7869,"ĠProtection":7870,"Ġ1993":7871,"Ġvictim":7872,"urolog":7873,"ĠLead":7874,"Ġbacterial":7875,"Ġgirl":7876,"Ġemphasis":7877,"Ġ1992":7878,"Ġepis":7879,"Ġathlet":7880,"ĠFigure":7881,"Ġbless":7882,"Ġinhabit":7883,"Ġexperiencing":7884,"Ġrelie":7885,"Ġaged":7886,"ĠIns":7887,"Ġacres":7888,"erman":7889,"Ġworst":7890,"ĠAmaz":7891,"Ġstrain":7892,"ĠLo":7893,"Ġintensity":7894,"ĠSand":7895,"Ġasc":7896,"ĠOhio":7897,"ĠLincoln":7898,"Ġadverse":7899,"Ġfunctioning":7900,"Ġdynamic":7901,"Ġcontributed":7902,"Ġcommitment":7903,"Ġfatty":7904,"Ġpla":7905,"Ġduty":7906,"ĠConservation":7907,"Ġdesert":7908,"Ġweakness":7909,"plete":7910,"Ġvisited":7911,"icular":7912,"Ġargue":7913,"Ġdietary":7914,"igate":7915,"Ġwrites":7916,"usalem":7917,"brid":7918,"Ġmeals":7919,"quar":7920,"Ġinterface":7921,"Ġsuscept":7922,"Ġreaching":7923,"ĠLearn":7924,"Ġles":7925,"rection":7926,"Part":7927,"ila":7928,"acent":7929,"58":7930,"Ġritual":7931,"rolled":7932,"Ġrational":7933,"Ġautism":7934,"Ġcord":7935,"Ġantibiotics":7936,"Ġregarded":7937,"Ġoldest":7938,"Ġvan":7939,"Ġwheat":7940,"Ġacquired":7941,"Ġinnovative":7942,"quir":7943,"ĠPakistan":7944,"ĠCross":7945,"Ġprotecting":7946,"ĠOper":7947,"Ġcontribution":7948,"',":7949,"lete":7950,"ĠJo":7951,"Ġcalling":7952,"century":7953,"Ġmoderate":7954,"Ġslave":7955,"ĠQueen":7956,"Ġembry":7957,"ographical":7958,"Ġvel":7959,"icy":7960,"Ġgases":7961,"Ġaddressed":7962,"Ġprogramme":7963,"Ġmir":7964,"door":7965,"raq":7966,"izabeth":7967,"angered":7968,"ĠForce":7969,"Ġuniform":7970,"Ġcovering":7971,"ĠNote":7972,"ĠPalest":7973,"ĠHebrew":7974,"itory":7975,"sylvania":7976,"ĠMah":7977,"Ġcooling":7978,"forest":7979,"Ġsmell":7980,"endment":7981,"erty":7982,"Ġpermission":7983,"ĠDom":7984,"Ġresid":7985,"Ġhidden":7986,"Ġappointed":7987,"oli":7988,"ĠCurrent":7989,"Ġtaxes":7990,"ĠBoston":7991,"Ġhardware":7992,"09":7993,"Ġprofit":7994,"yer":7995,"Ġstake":7996,"04":7997,"Ġquarter":7998,"Ġversions":7999,"Ġdisabilities":8000,"Ġlip":8001,"Ġmanufacturers":8002,"Ġ)":8003,"Ġvaccines":8004,"Ġmathematical":8005,"Ġlaser":8006,"Ġmixture":8007,"Ġconserv":8008,"Ġtowns":8009,"],":8010,"Ġseparated":8011,"AB":8012,"Ġvocabulary":8013,"ourse":8014,"angle":8015,"Ġeducators":8016,"urches":8017,"ĠGeorgia":8018,"ĠLight":8019,"Ġillegal":8020,"holders":8021,"Ġran":8022,"una":8023,"Ġalive":8024,"Ġelder":8025,"athered":8026,"Also":8027,"ĠFire":8028,"Ġproviders":8029,"Ġpreced":8030,"Get":8031,"Ġrac":8032,"02":8033,"Ġpolar":8034,"Ġoverwhel":8035,"CP":8036,"ĠNov":8037,"ĠHospital":8038,"Ġsizes":8039,"Ġforming":8040,"atal":8041,"ĠLee":8042,"Ġauthent":8043,"Ġthereby":8044,"----":8045,"dr":8046,"Ġassets":8047,"Pr":8048,"Ġphrase":8049,"ĠReading":8050,"irms":8051,"Ġtribes":8052,"ĠOnline":8053,"ĠWithout":8054,"ĠBattle":8055,"Car":8056,"Ġtong":8057,"ĠCambridge":8058,"asts":8059,"archy":8060,"ĠHeart":8061,"ĠColl":8062,"Ġquantity":8063,"hea":8064,"Ġquiet":8065,"Ġfarms":8066,"amples":8067,"ĠAT":8068,"eping":8069,"Ġinterventions":8070,"May":8071,"lines":8072,"Step":8073,"ĠSurvey":8074,"ĠLy":8075,"ĠRoad":8076,"iop":8077,"uten":8078,"ĠHor":8079,"ega":8080,"ipher":8081,"Ġadvent":8082,"Ġven":8083,"Ġcharged":8084,"Ġopposition":8085,"ĠAuthor":8086,"Ġinsight":8087,"Pre":8088,"ĠPolicy":8089,"Ġpreserve":8090,"Ġheritage":8091,"antly":8092,"Ġfalling":8093,"ĠHand":8094,"Ġtables":8095,"ĠGr":8096,"ailable":8097,"Ġ55":8098,"ĠHim":8099,"Ġaffecting":8100,"Ġsimultane":8101,"Ġlists":8102,"Ġexhaust":8103,"ĠPrevention":8104,"Ġcoverage":8105,"ĠDivision":8106,"Ġtumor":8107,"ĠMichigan":8108,"cyclopedia":8109,"EE":8110,"Ġdescript":8111,"Ġreporting":8112,"adel":8113,"Com":8114,"Ã¤":8115,"Ġinequ":8116,"Ġbatteries":8117,"Ġkilling":8118,"ĠScotland":8119,"Ġconcentrations":8120,".).":8121,"ĠJerusalem":8122,"Ġflying":8123,"ĠChapter":8124,"neys":8125,"Ġdecay":8126,"Ġstones":8127,"Ġinteractive":8128,"Ġsupplements":8129,"Ġmyst":8130,"anger":8131,"uther":8132,"rical":8133,"ĠUnfortunately":8134,"aren":8135,"Ġcomprom":8136,"Ġroyal":8137,"ĠLess":8138,"Ġnom":8139,"ĠStart":8140,"Ġimprovements":8141,"MP":8142,"Ġmouse":8143,"Ġprotective":8144,"ĠTable":8145,"iments":8146,"Ġseat":8147,"Ġattach":8148,"uset":8149,"Ġenables":8150,"Ġintroduce":8151,"ĠSpirit":8152,"Ġsurge":8153,"ulpt":8154,"ĠPolit":8155,"Last":8156,"ĠpH":8157,"Ġplain":8158,"Ġavailability":8159,"Ġpanels":8160,"Ġom":8161,"ĠFind":8162,"mentation":8163,"ĠDutch":8164,"Ġpointed":8165,"Ġorders":8166,"Ġparameters":8167,"ĠSet":8168,"67":8169,"Ġwisdom":8170,"ĠTom":8171,"Ġvertical":8172,"Ġfinger":8173,"ĠPur":8174,"Ġupdated":8175,"ĠAL":8176,"Ġchemistry":8177,"Ġstopped":8178,"ĠTop":8179,"Ġbelieves":8180,"ĠModern":8181,"Ġsensors":8182,"Ġflash":8183,"Ġtrauma":8184,"Ġsubstit":8185,"Ġcarbohyd":8186,"Ġaimed":8187,"Ġfuels":8188,"Ġconsumed":8189,"irth":8190,"Ġdeficiency":8191,"Ġmosquit":8192,"Ġpand":8193,"Ġlymph":8194,"Where":8195,"Ġcontainer":8196,"ĠEdward":8197,"Ġsteam":8198,"ĠColorado":8199,"ĠRh":8200,"ao":8201,"Ġresearcher":8202,"Ġshoot":8203,"Ġexped":8204,"Ġton":8205,"Ġharder":8206,"achuset":8207,"Ġscores":8208,"Ġcharacteristic":8209,"Ġthermal":8210,"achusetts":8211,"Ġburied":8212,"uting":8213,"apor":8214,"Ġlogic":8215,"Ġlens":8216,"urning":8217,"ecess":8218,"mann":8219,"Ġrobot":8220,"Ġ1930":8221,"zym":8222,")|":8223,"ĠTO":8224,"Ġpropag":8225,"ĠMath":8226,"Ġmothers":8227,"eting":8228,"hus":8229,"Ġarguments":8230,"asy":8231,"Ġlungs":8232,"Ġnutrient":8233,"mented":8234,"Ġcalculated":8235,"ema":8236,"ugg":8237,"Ġneutral":8238,"agen":8239,"Ġantioxid":8240,"ĠCho":8241,"Ġconsciousness":8242,"ptic":8243,"Ġordinary":8244,"ricted":8245,"mod":8246,"Ġ1991":8247,"Ġhunting":8248,"Ġaudio":8249,"uits":8250,"Ġmine":8251,"ĠTry":8252,"Ġlosses":8253,"gien":8254,"Ġspray":8255,"Ġcustomer":8256,"Ġdramatic":8257,"Ġowned":8258,"Ġphysically":8259,"kind":8260,"iti":8261,"opher":8262,"Ġliterary":8263,"Ġsensitivity":8264,"Ġthreatened":8265,"Ġcreatures":8266,"Ġfats":8267,"Ġcopyright":8268,"Ġwonderful":8269,"Ġexpanded":8270,"http":8271,"hire":8272,"Ġherb":8273,"eor":8274,"ĠOl":8275,"Ġofficer":8276,"alities":8277,"Ġtechnological":8278,"ĠPlay":8279,"Ġcolonial":8280,"ĠBusiness":8281,"har":8282,"Ġdegrad":8283,"zer":8284,"ĠDC":8285,"Ġjur":8286,"Ġtransmit":8287,"eries":8288,"Ġcommunications":8289,"Ġcotton":8290,"ependent":8291,"Ġargued":8292,"EF":8293,"Ġinitiative":8294,"ĠCorn":8295,"ĠWay":8296,"Ġcompost":8297,"ĠPennsylvania":8298,"IF":8299,"Ġevening":8300,"Hist":8301,"Ġkeeps":8302,"ĠChristianity":8303,"ĠParliament":8304,"Ġgeomet":8305,"Ġfra":8306,"ptom":8307,"HS":8308,"Ġparagraph":8309,"Ġdance":8310,"pled":8311,"advant":8312,"iva":8313,"Ġcas":8314,"Ġdrivers":8315,"disc":8316,"ols":8317,"omer":8318,"utation":8319,"raham":8320,"Ġvariations":8321,"Ġexciting":8322,"Ġproductivity":8323,"07":8324,"Art":8325,"Ġpersonality":8326,"Ġwaiting":8327,"uan":8328,"Ġachievement":8329,"Ġengines":8330,"Ġcommittee":8331,"ĠBooks":8332,"Ġcure":8333,"Ġnarrative":8334,"Ġplanting":8335,"Ġelsewhere":8336,"ĠAssess":8337,".'":8338,"lims":8339,"Ġadvis":8340,"ĠIraq":8341,"59":8342,"Ġfellow":8343,"Ġtor":8344,"Ġdimens":8345,"Ġchances":8346,"Ġreasonable":8347,"Ġmigration":8348,"Ġmembrane":8349,"Ġease":8350,"Ġequation":8351,"Ġsched":8352,"Ġadolesc":8353,"Under":8354,"Ġspr":8355,"Ġsocieties":8356,"ĠSpring":8357,"ivest":8358,"Ġchap":8359,"Ġfaces":8360,"Ġcardiovascular":8361,"Ġboundaries":8362,"Ġlinear":8363,"oul":8364,"adow":8365,"Ġorb":8366,"John":8367,"63":8368,"Ġurine":8369,"89":8370,"Ġhumanity":8371,"ĠHarvard":8372,"Ġdominant":8373,"ĠCard":8374,"Ġclock":8375,"Ġcourts":8376,"ket":8377,"Ġeru":8378,"Ġdress":8379,"ĠHead":8380,"Ġdirections":8381,"Ġanalyze":8382,"Ġdim":8383,"Ġestablishment":8384,"ami":8385,"HA":8386,"Ġcolonies":8387,"bell":8388,"ĠPhilipp":8389,"Ġstyles":8390,"Ġ;":8391,"Ġbehavioral":8392,"Ġfought":8393,"Ġemerging":8394,"apes":8395,"Ġguess":8396,"Ġpilot":8397,"gener":8398,"Ġmanaging":8399,"through":8400,"Ġextension":8401,"Ġbiodiversity":8402,"BT":8403,"Ġstreets":8404,"Ġtemporary":8405,"Ġflexible":8406,"ĠFar":8407,"ician":8408,"Ġspoken":8409,"iations":8410,"aints":8411,"berry":8412,"orig":8413,"zyme":8414,"Ġirrig":8415,"ĠLittle":8416,"mentia":8417,"elve":8418,"Ġmetals":8419,"Ġcyber":8420,"Ġsevent":8421,"rix":8422,"Ġparad":8423,"regation":8424,"idal":8425,"ĠFrancisco":8426,"box":8427,"Ġtob":8428,"Ġperforming":8429,"ĠSS":8430,"Ġexecutive":8431,"Ġengaging":8432,"ĠIslands":8433,"ĠIslamic":8434,"ĠModel":8435,"Ġentertain":8436,"Ġcancers":8437,"bean":8438,"Ġgrounds":8439,"you":8440,"Ġecological":8441,"Ġwatching":8442,"jo":8443,"endar":8444,"Ġexpectations":8445,"Ġexhibit":8446,"Before":8447,"DS":8448,"asma":8449,"rize":8450,"iger":8451,"%,":8452,"Ġscope":8453,"Ġrecycling":8454,"ĠIT":8455,"ĠMassachusetts":8456,"Ġclassified":8457,"Ġfocusing":8458,"Ġgent":8459,"Ġembra":8460,"Ġinvestigate":8461,"Ġdisability":8462,"bec":8463,"Are":8464,"Pub":8465,"ocolate":8466,"Ġgast":8467,"Ġreverse":8468,"aret":8469,"Ġconverted":8470,"ĠImm":8471,"ĠConfed":8472,"Ġattitude":8473,"Ġhouseholds":8474,"Ġwebsites":8475,"Ġdies":8476,"ĠGulf":8477,"Sim":8478,"Ġ39":8479,"bel":8480,"ĠArctic":8481,"ĠAgain":8482,"Ġquantum":8483,"Ġpriority":8484,"ifice":8485,"ranean":8486,"Ġsummary":8487,"ĠJustice":8488,"ĠElizabeth":8489,"Ġgravity":8490,"wan":8491,"Ġbutton":8492,"Ġtelling":8493,"Ġcorresponding":8494,"CR":8495,"Ġgrains":8496,"Ġgenome":8497,"Ġenormous":8498,"Ġastronom":8499,"Ġdeeply":8500,"Ġfing":8501,"Ġsettled":8502,"actions":8503,"Ġincident":8504,"Ġboat":8505,"Ġtempor":8506,"Ġdefinitely":8507,"ipe":8508,"Ġclassical":8509,"Ġlowest":8510,"Ġcann":8511,"ĠSystems":8512,"Cons":8513,"Ġmovie":8514,"ivestock":8515,"Ne":8516,"Ġnewspaper":8517,"ĠBu":8518,"Ġensuring":8519,"Ġassumed":8520,"Ġprobability":8521,"Ġhall":8522,"Ġexploration":8523,"Ġdrag":8524,"Ġcapabilities":8525,"Ġ95":8526,"ĠImp":8527,"ĠDown":8528,"Ġsad":8529,"Ġethical":8530,"Ġecosystems":8531,"Ġcontributions":8532,"thod":8533,"Ġequality":8534,"Ġremoving":8535,"Ġlibr":8536,"ĠObs":8537,"Ġprovince":8538,"Ġsaved":8539,"ĠIdent":8540,"ashes":8541,"Sm":8542,"Ġdism":8543,"Ġinterior":8544,"Ġfatigue":8545,"Ġempty":8546,"fulness":8547,"Ġbeat":8548,"Ġtens":8549,"Ġevident":8550,"Ġfeels":8551,"Ġsodium":8552,"Ġuniversities":8553,"Ġengagement":8554,"olt":8555,"Ġdetermining":8556,"ĠOtt":8557,"ĠBack":8558,"Ġperceived":8559,"anted":8560,"uum":8561,"Ġclothes":8562,"Ġoxid":8563,"Ġentering":8564,"ĠMot":8565,"ĠHawai":8566,"Ġtick":8567,"Ġvegetation":8568,"Co":8569,"ĠLast":8570,"Ġpreferred":8571,"Ġduration":8572,"Ġcomputing":8573,"Ġaccord":8574,"Ġtobacco":8575,"ĠLin":8576,"Ġabstract":8577,"Ġminds":8578,"Ġdistricts":8579,"Ġrequirement":8580,"foot":8581,"Ġwider":8582,"ĠDO":8583,"ĠWal":8584,"ati":8585,"Ġmyself":8586,"Ġfo":8587,"Ġfur":8588,"istant":8589,"Ġtargeted":8590,"Ġclients":8591,"ĠAnalysis":8592,"Ġdifferently":8593,"Ġresc":8594,"Ġlifetime":8595,"Ġstrike":8596,"lymp":8597,"Ġheaven":8598,"Ġmarketing":8599,"Ġ37":8600,"Ġattribut":8601,"Ġpy":8602,"agan":8603,"Ġsentences":8604,"ĠÂ£":8605,"Ġpsychology":8606,"Ġdense":8607,"Ġspinal":8608,"Ġfet":8609,"Ġemotion":8610,")||":8611,"Ġexplicit":8612,"Ġfacilitate":8613,"ogy":8614,"Ġlabour":8615,"Ġasp":8616,"Ġtip":8617,"Ġweigh":8618,"pass":8619,"words":8620,"Ġviolent":8621,"ĠConference":8622,"Ġthread":8623,"Ġappeal":8624,"enced":8625,"Ġsensor":8626,"Ref":8627,"Ġcontinuing":8628,"borne":8629,"ĠOrig":8630,"ĠBal":8631,"Ġpassion":8632,"Ġhormones":8633,"Ġremarkable":8634,"imm":8635,"Ġspots":8636,"Ġadapted":8637,"hemistry":8638,"Ġpromoting":8639,"Ġpoetry":8640,"Ġaccompanied":8641,"ĠMur":8642,"kl":8643,"Ġpainful":8644,"Ġloose":8645,"ĠBiology":8646,"Ġcolony":8647,"Ġacting":8648,"EG":8649,"Ġconclus":8650,"Ġpromise":8651,"'.":8652,"Ġaddiction":8653,"world":8654,"Ġcow":8655,"Ġprey":8656,"Ġ2021":8657,"cking":8658,"made":8659,"sor":8660,"Ġsustainability":8661,"Ġgods":8662,"Ġlosing":8663,"books":8664,"play":8665,"Ġreferences":8666,"zo":8667,"56":8668,"ĠStan":8669,"Ġentit":8670,"Each":8671,"Ġinfants":8672,"ensed":8673,"fast":8674,"ĠAgriculture":8675,"ĠSunday":8676,"Ġoccas":8677,"ĠBang":8678,"ĠEPA":8679,"Ġshaped":8680,"Ġapplying":8681,"Ġbeans":8682,"Ġranging":8683,"Ġmanager":8684,"Ġenterpr":8685,"Ġchromos":8686,"Ġbare":8687,"ĠEconomic":8688,"Ġlighting":8689,"Ġwouldn":8690,"ĠLaboratory":8691,"Ġphotographs":8692,"Ġkingdom":8693,"ĠSenate":8694,"ĠFil":8695,"ĠBa":8696,"Ġsculpt":8697,"Ġnotion":8698,"ailed":8699,"Ġtransmitted":8700,"ĠSaint":8701,"ĠClick":8702,"Ġbegun":8703,"Ġsafely":8704,"Ġlock":8705,"Ġcelebrated":8706,"aka":8707,"rh":8708,"Using":8709,"was":8710,"ĠFact":8711,"Ġexisted":8712,"Ġassert":8713,"Ġconstra":8714,"imp":8715,"umer":8716,"ĠGreece":8717,"Ġdiffer":8718,"Ġwithdraw":8719,"ĠIndeed":8720,"Just":8721,"Ġraising":8722,"Ġmarg":8723,"ĠCr":8724,"Ġimmigrants":8725,"Ġfisher":8726,"Ġtack":8727,"MA":8728,"ĠPoint":8729,"53":8730,"ĠSolar":8731,"Ġtransc":8732,"ĠNavy":8733,"eutic":8734,"Ġbee":8735,"Ġcraft":8736,"lights":8737,"ĠLos":8738,"Ġ^":8739,"Ġfires":8740,"Ġclassic":8741,"Ġsulf":8742,"elescope":8743,"Ġstood":8744,"ĠAsse":8745,"Ġwelfare":8746,"Ġchose":8747,"inois":8748,"ologically":8749,"52":8750,"Â®":8751,"erts":8752,"Ġscheme":8753,"this":8754,"ĠCode":8755,"Then":8756,"section":8757,"Ġwearing":8758,"Ġchair":8759,"Ġintention":8760,"Ġmature":8761,"CL":8762,"Ġvirtually":8763,"ga":8764,"Ġdevast":8765,"Ġsongs":8766,"ouds":8767,"Ġbuff":8768,"OP":8769,"Ġclub":8770,"Ġconvert":8771,"ĠWildlife":8772,"Ġseriously":8773,"Ġhabitats":8774,"Ġ34":8775,"Ġintegration":8776,"ref":8777,"Ġsymbols":8778,"Ġpersonnel":8779,"ĠDrug":8780,"Ġmunicip":8781,"Ġresil":8782,"Ġpill":8783,"Ġhal":8784,"Ġcollective":8785,"usive":8786,"Ġrepresentative":8787,"chain":8788,"Ġversus":8789,"Who":8790,"Ġconvey":8791,"ceans":8792,"Ġviral":8793,"ĠSection":8794,"Ġaging":8795,"Ġholiday":8796,"encing":8797,"Ġdrinks":8798,"ĠWikipedia":8799,"Ġunn":8800,"Ġcooperation":8801,"Ġvictory":8802,"fe":8803,"Ġprofile":8804,"Ġreturns":8805,"operative":8806,"Ġhat":8807,"ĠBlue":8808,"roud":8809,"text":8810,"61":8811,"Ġwat":8812,"Ġdairy":8813,"Ġliterally":8814,"Ġlimitations":8815,"Ġaggressive":8816,"Ġnutritional":8817,"mail":8818,"Ġprayer":8819,"ĠProcess":8820,"Ġdiarr":8821,"obile":8822,"Ġcub":8823,"Ġfriendly":8824,"'d":8825,"Ġsessions":8826,"Eng":8827,"Ġassembly":8828,"ĠMuslims":8829,"Ġbarriers":8830,"ĠMach":8831,"Ġapparently":8832,"ĠPass":8833,"ĠOlymp":8834,"!!":8835,"specific":8836,"dep":8837,"ĠCirc":8838,"Ġrestore":8839,"ĠContin":8840,"Ġsuit":8841,"iner":8842,"Ġpione":8843,"Ġhypothesis":8844,"Despite":8845,"Ġsaving":8846,"OW":8847,"Ġanticip":8848,"ĠAmazon":8849,"amil":8850,"unning":8851,"ĠCub":8852,"uscript":8853,"Ġprivile":8854,"ĠPu":8855,"Ġoccupied":8856,"ĠTestament":8857,"Ġactively":8858,"Ġemerged":8859,"Ġdil":8860,"Ġobst":8861,"Ġfunded":8862,"Ġacknowled":8863,"Ġprevalence":8864,"Ġpurchased":8865,"itting":8866,"Ġgum":8867,"Ġ1920":8868,"Ġcomplexity":8869,"Sec":8870,"ĠHa":8871,"Ġmanual":8872,"Ġ?":8873,"ocity":8874,"Ġarmed":8875,"Like":8876,"ĠAsk":8877,"62":8878,"Ġtrem":8879,"Ġdevelops":8880,"2010":8881,"Ġopinions":8882,"assium":8883,"ĠHT":8884,"Ġnoticed":8885,"Ġgrades":8886,"Ġreaches":8887,"Ġreadily":8888,"Ġglac":8889,"Ġshore":8890,"awn":8891,"Ġcouldn":8892,"ĠConsider":8893,"stant":8894,"Ġhaven":8895,"Ġwars":8896,"thew":8897,"ĠMax":8898,"Ġshed":8899,"Ġcul":8900,"Ġrealized":8901,"Ġgly":8902,"ĠFred":8903,"Ġneurons":8904,"Ġintegr":8905,"Ġbleeding":8906,"Ġrecre":8907,"Ġbarrier":8908,"Ġbalanced":8909,"estions":8910,"TH":8911,"Ġspecified":8912,"ĠMoses":8913,"Ġbreaking":8914,"Ġtact":8915,"ĠSP":8916,"feed":8917,"ĠCE":8918,"havior":8919,"Ġ1989":8920,"ĠJacob":8921,"ĠSecretary":8922,"aware":8923,"Source":8924,"Ġcouncil":8925,"ĠGall":8926,"adelph":8927,"ico":8928,"Ġdiscussions":8929,"Ġfrust":8930,"Ġears":8931,"OD":8932,"ĠID":8933,"Ġgathered":8934,"ython":8935,"Ġorigins":8936,"Ġsavings":8937,"opl":8938,"Ġrefused":8939,"ĠAvoid":8940,"ĠAlexander":8941,"Ġalign":8942,"Ġpupils":8943,"claim":8944,"Ġspan":8945,"Ġcelebrate":8946,"Ġrecording":8947,"Ġatoms":8948,"Ġjuice":8949,"Ġtill":8950,"Ġreplacement":8951,"Ġannually":8952,"friend":8953,"Ġunlikely":8954,"after":8955,"Ġsolving":8956,"ĠSeveral":8957,"Ġsacred":8958,"Ġcontrolling":8959,"Ġscenario":8960,"Ġgif":8961,"Ġ120":8962,"Ġinvolvement":8963,"Ġexpertise":8964,"Ġvegetable":8965,"Ġtension":8966,"Ġspoke":8967,"Ġcoat":8968,"Ġhandling":8969,"Ġstrategic":8970,"Ġ1940":8971,"Ġchurches":8972,"Ġcheap":8973,"Ġresistant":8974,"Ġtort":8975,"Ġjoints":8976,"Ġcontents":8977,"ilst":8978,"Ġuncle":8979,"icking":8980,"Two":8981,"Ġtone":8982,"Ġtongue":8983,"ĠChief":8984,"Ġcreativity":8985,"Ġspecialized":8986,"Ġpairs":8987,"ĠKey":8988,"Ġsoph":8989,"Use":8990,"Ġprox":8991,"Ġjoy":8992,"oded":8993,"plo":8994,"SP":8995,"Ġsees":8996,"Ġshorter":8997,"oons":8998,"ifier":8999,"swe":9000,"agnetic":9001,"ĠPerhaps":9002,"Ġchoosing":9003,"Ġcough":9004,"Ġdefault":9005,"Ġdropped":9006,"ĠMexican":9007,"Ġassemb":9008,"Ġassociate":9009,"power":9010,"cule":9011,"ĠDaniel":9012,"ĠMove":9013,"Ġplanted":9014,"Ġdisplayed":9015,"Rep":9016,"Ġpaying":9017,"ĠMess":9018,"unc":9019,"Ġdigestive":9020,"Ġverb":9021,"Ġtap":9022,"ĠPortug":9023,"zymes":9024,"Ġtraits":9025,"ĠLim":9026,"2012":9027,"Ġcirculation":9028,"Ġpermit":9029,"ĠDigital":9030,"also":9031,"Ġabsorb":9032,"Ġmeaningful":9033,"Ġgraduate":9034,"Rel":9035,"ĠGar":9036,"Ġprime":9037,"ĠTreatment":9038,"Ġsale":9039,"Ġposts":9040,"Ġorange":9041,"ĠIce":9042,"ackson":9043,"awa":9044,"Ġsister":9045,"ĠTemple":9046,"ĠArts":9047,"Ġaddresses":9048,"ĠUV":9049,"Ġpeer":9050,"Ġcrown":9051,"Ġrestoration":9052,"neum":9053,"Ġpractition":9054,"rin":9055,"Ġoutbreak":9056,"ĠInvest":9057,"Ġscat":9058,"ĠRam":9059,"iterranean":9060,"ĠRNA":9061,"izers":9062,"Ġeverywhere":9063,"Ġdipl":9064,"ĠAR":9065,"Ġoils":9066,"Ġrestaur":9067,"raine":9068,"Ġenthus":9069,"adelphia":9070,"Ġalarm":9071,"ĠNob":9072,"ĠDictionary":9073,"Ġclay":9074,"Ġcurrency":9075,"ĠEgyptian":9076,"Ġtab":9077,"ĠFarm":9078,"ĠHistorical":9079,"ji":9080,"Ġreign":9081,"ĠBureau":9082,"lected":9083,"Ġpenet":9084,"rue":9085,"oves":9086,"Ġcurve":9087,"Ġmedicines":9088,"Ġindirect":9089,"Ġadopt":9090,"ĠIncre":9091,"ĠPage":9092,"isd":9093,"Ġvaried":9094,"Ġprescribed":9095,"Tra":9096,"ĠRail":9097,"reprene":9098,"ĠConvention":9099,"Ġvolunteers":9100,":||":9101,"Ġsciences":9102,"Ġrepresenting":9103,"Ġpets":9104,"cho":9105,"Ġteens":9106,"ĠLater":9107,"press":9108,"ĠKids":9109,"Ġdraft":9110,"Ġregistered":9111,"2011":9112,"ĠCapt":9113,"onents":9114,"ĠPhot":9115,"Ġbasically":9116,"ĠCentury":9117,"Ġreveals":9118,"uber":9119,"Ġmammals":9120,"Ġvaries":9121,"ĠHeritage":9122,"Ġburden":9123,"Ġpowder":9124,"onday":9125,"shaped":9126,"!âĢĿ":9127,"Ġqualities":9128,"Ġcoron":9129,"ĠIllinois":9130,"icts":9131,"Ġcompetitive":9132,"Ġevolutionary":9133,"ĠHelp":9134,"Ġwing":9135,"ĠHindu":9136,"Ġhappiness":9137,"ĠImpro":9138,"Ġsons":9139,"Ġsleeping":9140,"Ġhydro":9141,"ĠFrid":9142,"ĠTurk":9143,"Ġutility":9144,"54":9145,"Ġchicken":9146,"reens":9147,"ĠNeed":9148,"Ġpel":9149,"Ġreflected":9150,"ÙĦ":9151,"Ġalgorithm":9152,"ĠBuilding":9153,"ĠVietnam":9154,"Ġhospitals":9155,"ĠAndrew":9156,"mia":9157,"GE":9158,"mental":9159,"2013":9160,"Ġgardens":9161,"86":9162,"Ġdeploy":9163,"Ġaccomplish":9164,"function":9165,"Ġoste":9166,"Ġownership":9167,"ĠMid":9168,"UL":9169,"Ġash":9170,"cin":9171,"ĠBeing":9172,"Ġdict":9173,"Ġdisadvant":9174,"Ġarise":9175,"aya":9176,"Ġexploring":9177,"emb":9178,"uity":9179,"Ġcited":9180,"Ġgift":9181,"Ġlegit":9182,"Ġtransferred":9183,"Ġthroat":9184,"Ġtrace":9185,"ĠSon":9186,"Ġauto":9187,"cut":9188,"iro":9189,"ĠTown":9190,"Ġbene":9191,"Ġconversion":9192,"Ġpasses":9193,"Ġpreserved":9194,"ĠRight":9195,"Ġstreams":9196,"ospel":9197,"iano":9198,"Gl":9199,"Ġpuzz":9200,"ĠMusic":9201,"Ġlivestock":9202,"ocated":9203,"outheast":9204,"Ġenjoyed":9205,"Ġincent":9206,"atus":9207,"urable":9208,"Ġpandemic":9209,"Ġrooms":9210,"ĠVe":9211,"chnology":9212,"ĠVan":9213,"Ġdescend":9214,"Ġbreaks":9215,"ĠMedia":9216,"Ġcellular":9217,"olk":9218,"Ġbears":9219,"ĠMA":9220,"Ġdiscipline":9221,"erally":9222,"Ġrod":9223,"Ġproductive":9224,"Ġcalculate":9225,"Ġtom":9226,"thur":9227,"Ġherself":9228,"ĠAntar":9229,"Ġglobe":9230,"Ġspacecraft":9231,"Ġdevelopments":9232,"Ġminimal":9233,"Ġdivine":9234,"Ġestate":9235,"green":9236,"ĠCreek":9237,"BM":9238,"Ġadvances":9239,"ifer":9240,"Ġion":9241,"ĠAbraham":9242,"ais":9243,"Ġidentical":9244,"Ġol":9245,"Ġsurprise":9246,"Ġsug":9247,"Ġbuying":9248,"ĠCommons":9249,"Ġinfluences":9250,"Ġillnesses":9251,"bris":9252,"ĠBlood":9253,"Ġmeetings":9254,"ogens":9255,"Ġreef":9256,"Ġprofound":9257,"Ġsoils":9258,"Ġattitudes":9259,"izz":9260,"Ġamino":9261,"Ð°":9262,"rip":9263,"Ġsuspect":9264,"Ġprecip":9265,"Ã±":9266,"Ġtends":9267,"olves":9268,"Please":9269,"Ġforecast":9270,"Ġlogical":9271,"irable":9272,"Ġscr":9273,"Ġearthquake":9274,"giene":9275,"ois":9276,"oked":9277,"Ġrequiring":9278,"ĠDesc":9279,"Ġworker":9280,"Ġdementia":9281,"issipp":9282,"Ġmerch":9283,"Ġft":9284,"Ġtomat":9285,"mble":9286,"Ġvisits":9287,"oler":9288,"ĠKent":9289,"Ġperfectly":9290,"Ġsuddenly":9291,"worth":9292,"Ġreserved":9293,"Ġminority":9294,"Ġanger":9295,"Ġmetabolism":9296,"Ġbeneath":9297,"mond":9298,"Ġpace":9299,"aternal":9300,"Ġsubsc":9301,"Ġpaintings":9302,"93":9303,"Ġputs":9304,"ĠAst":9305,"Ġoverview":9306,"ĠStandard":9307,"Ġinsights":9308,"Ġstrange":9309,"Ġanalyzed":9310,"Ġregime":9311,"issance":9312,"Ġspecialist":9313,"inth":9314,"Ġcitizen":9315,"esium":9316,"Ġbought":9317,"51":9318,"rowth":9319,"ĠColon":9320,"Ġfaculty":9321,"Ġmagnitude":9322,"Ġborrow":9323,"sex":9324,"acles":9325,"rait":9326,"ĠSmall":9327,"Ġinvasion":9328,"Ġquantities":9329,"Ġprivacy":9330,"Ġdistinguish":9331,"Ġsurgical":9332,"Ġsuicide":9333,"ĠVitamin":9334,"ysical":9335,"inces":9336,"2009":9337,"ught":9338,"apped":9339,"Ġattempted":9340,"abb":9341,"Ġimpair":9342,"ĠLi":9343,"Ġelections":9344,"ĠIndones":9345,"ĠSym":9346,"Ġcompass":9347,"Ġpert":9348,"Ġincidence":9349,"Mar":9350,"Ġinstances":9351,"Ġdating":9352,"amps":9353,"Ġpreparing":9354,"ĠTrust":9355,"ĠAff":9356,"Ġ42":9357,"uis":9358,"ĠCrit":9359,"ĠLevel":9360,"Ġencl":9361,"Ġdocumented":9362,"bury":9363,"sub":9364,"enter":9365,"Ġcopies":9366,"ĠWhich":9367,"ictions":9368,"Ġshr":9369,"Ġsheep":9370,"97":9371,"pring":9372,"vation":9373,"Ġaccurately":9374,"Post":9375,"ĠNext":9376,"Ġultimate":9377,"92":9378,"Ġsending":9379,"57":9380,"Ġruled":9381,"Ġfinish":9382,"ĠMediterranean":9383,"aterials":9384,"Ġpartnership":9385,"Ġwal":9386,"Ġmaxim":9387,"Ġembed":9388,"regon":9389,"Ġvarying":9390,"ĠHum":9391,"Ġpredicted":9392,"Ġworkplace":9393,"Ġparticle":9394,"Ġham":9395,"à¥":9396,"Ġprovision":9397,"ador":9398,"Ġpossibilities":9399,"ĠMajor":9400,"ceive":9401,"oca":9402,"Ġaddressing":9403,"Ġmorph":9404,"ghan":9405,"Ġalumin":9406,"Ġoptical":9407,"Ġcrypt":9408,"uled":9409,"Ġapplies":9410,"Ġassignment":9411,"rose":9412,"Ĥ¬":9413,"otypes":9414,"aneous":9415,"Ġphones":9416,"Ġacceptable":9417,"Ġdesignated":9418,"Ġrestrictions":9419,"Ġseverity":9420,"ĠDie":9421,"ĠHence":9422,"Ġspatial":9423,"Ġunderground":9424,"pre":9425,"Ð¾":9426,"Ġvibr":9427,"ritten":9428,"Ġlecture":9429,"Ġconflicts":9430,"plate":9431,"Ġwash":9432,"ricks":9433,"ĠMinistry":9434,"Ġwise":9435,"ĠEncyclopedia":9436,"Ġconsent":9437,"Ġtotally":9438,"ĠCA":9439,"Ge":9440,"Ġinitiatives":9441,"Ġjudgment":9442,"ĠOffic":9443,"EA":9444,"Ġtransplant":9445,"Ġcontributing":9446,"ĠHard":9447,"Ġdevelopmental":9448,"Ġ(âĢľ":9449,"Ġlakes":9450,"ĠSqu":9451,"ologic":9452,"Learn":9453,"Ġvig":9454,"Ġdimensions":9455,"Ġmotivation":9456,"emies":9457,"science":9458,"Ġcalm":9459,"Ġzones":9460,"Ġthemes":9461,"Ġconsequence":9462,"ĠCost":9463,"Ġseparation":9464,"elly":9465,"ĠFair":9466,"Ġinev":9467,"Ġrevers":9468,"Ġabandoned":9469,"Ġpackage":9470,"Ġcompos":9471,"Ġfifth":9472,"Scient":9473,"ouri":9474,"ĠAction":9475,"Ġwooden":9476,"ĠWhether":9477,"DL":9478,"about":9479,"ĠEmer":9480,"Ġinhabitants":9481,"Ps":9482,"quality":9483,"Fig":9484,"rypt":9485,"Ġvillages":9486,"Ġtranslated":9487,"western":9488,"lav":9489,"ĠTH":9490,"ĠPhiladelphia":9491,"2008":9492,"rub":9493,"ĠField":9494,"iblical":9495,"Ġmodule":9496,"Ġswelling":9497,"Ġhonest":9498,"itic":9499,"ĠHit":9500,"Ġnuts":9501,"Ġelectrons":9502,"pdf":9503,"Ġ(\"":9504,"Os":9505,"Ġdimin":9506,"Ġpayment":9507,"Ġinvention":9508,"ĠCT":9509,"ĠFed":9510,"Ġcaps":9511,"igious":9512,"erving":9513,"Ġdisag":9514,"Ġneurolog":9515,"ideo":9516,"Ġsusceptible":9517,"Sub":9518,"Ġchannels":9519,"ĠEll":9520,"Ġsurrounded":9521,"ĠObama":9522,"Ġtherm":9523,"Ġinch":9524,"aven":9525,"isations":9526,"terior":9527,"eras":9528,"Ġoutdoor":9529,"han":9530,"ĠView":9531,"di":9532,"ori":9533,"redit":9534,"ĠArea":9535,"Ġtheoretical":9536,"ĠWeek":9537,"Ġsimultaneously":9538,"Ġrestricted":9539,"96":9540,"Ġestablishing":9541,"Ġdemocratic":9542,"Ġbias":9543,"issippi":9544,"ĠÂ©":9545,"Ġalert":9546,"rizona":9547,"ĠProble":9548,"astics":9549,"\")":9550,"Ġregulate":9551,"Ġincorporated":9552,"Ġancestors":9553,"Ġrough":9554,"pectives":9555,"Ġsatisfact":9556,"ĠFriday":9557,"page":9558,"Ġchocolate":9559,"ĠMarine":9560,"Ġfavour":9561,"isting":9562,"bow":9563,"Ġ250":9564,"ĠLew":9565,"ĠNorm":9566,"sk":9567,"Ġcycles":9568,"Ġgate":9569,"Ġcandidate":9570,"Ġminimize":9571,"ĠWriting":9572,"Ġ×":9573,"Ġcable":9574,"ateral":9575,"orters":9576,"Ġdramatically":9577,"ustainable":9578,"Ġho":9579,"Ġinherent":9580,"Ġdiets":9581,"Ġfascinating":9582,"Ġperpet":9583,"Ġprosper":9584,"Ġhybrid":9585,"Ġoptimal":9586,"Ġrib":9587,"Ġwings":9588,"ĠJackson":9589,"Ġbull":9590,"Ġhier":9591,"Ġrevenue":9592,"Ġaside":9593,"Ġmemor":9594,"ĠSanta":9595,"Ġabsolutely":9596,"ĠPoly":9597,"ĠMic":9598,"2006":9599,"Ġdeposits":9600,"Ġenforcement":9601,"ivities":9602,"Ġdish":9603,"orus":9604,"Ġpersu":9605,"Ġduties":9606,"regular":9607,"Ġlob":9608,"Table":9609,"sur":9610,"ethe":9611,"Ġvisiting":9612,"atoes":9613,"Ġcuts":9614,"ometer":9615,"Ġblank":9616,"Ġentitled":9617,"Ġbroke":9618,"Ġrelate":9619,"anwhile":9620,"Ġproposal":9621,"stru":9622,"Ġdistant":9623,"Ġ2022":9624,"Ke":9625,"lock":9626,"zone":9627,"Ġminister":9628,"ATION":9629,"Ġanalyses":9630,"Ġoperated":9631,"Students":9632,".||":9633,"Ġhopes":9634,"quiry":9635,"ĠMicrosoft":9636,"oline":9637,"Ġalternatives":9638,"Ġarrival":9639,"Ġdisturb":9640,"ĠConnect":9641,"Ġdried":9642,"Ġattributed":9643,"Ġprecisely":9644,"ĠDiet":9645,"Ġgerm":9646,"ĠKorean":9647,"Ġtrail":9648,"Ġempire":9649,"ĠLat":9650,"ĠLine":9651,"Ġscales":9652,".:":9653,"ĠThanks":9654,"Ġengineer":9655,"amic":9656,"Ġbrains":9657,"Ġattractive":9658,"ĠOften":9659,".),":9660,"ĠOnt":9661,"Ġsubsid":9662,"Ġ1000":9663,"Ġefficiently":9664,"Ġinvasive":9665,"Man":9666,"Ġphilosoph":9667,"Reg":9668,"Ġrhythm":9669,"ĠMain":9670,"ĠMaster":9671,"Ġencounter":9672,"Ġbeach":9673,"ivation":9674,"Ġdeer":9675,"profit":9676,"Ġcream":9677,"eling":9678,"Ġmanagers":9679,"Ġconfusion":9680,"National":9681,"Ġdistinction":9682,"Ġdebris":9683,"Ġelementary":9684,"urse":9685,"Ġreflection":9686,"Ġcontinent":9687,"Ġstatistical":9688,"Ġstere":9689,"ĠAngeles":9690,"Ġoccasionally":9691,"Ġarthritis":9692,"Ġspeaker":9693,"Ġfraction":9694,"ouses":9695,"Ġlegend":9696,"Ġthirty":9697,"Ġisolation":9698,"Ġabundance":9699,"Ġcamps":9700,"ĠâĨĳ":9701,"Ġamongst":9702,"Ġpopularity":9703,"efficient":9704,"Ġprol":9705,"Ġmanuscript":9706,"ĠPlace":9707,"Ġrobust":9708,"Ġranges":9709,"host":9710,"Ġregister":9711,"Ġcombine":9712,"da":9713,"duction":9714,"ĠJr":9715,"Ġreproductive":9716,"eem":9717,"Ġreh":9718,"Ġster":9719,"ĠAdam":9720,"Ġtumors":9721,"Ġ1988":9722,"Ġsummar":9723,"Ġpainted":9724,"Ġknee":9725,"abling":9726,"III":9727,"ĠHaving":9728,"ĠRemember":9729,"rust":9730,"Health":9731,"ĠDam":9732,"ropol":9733,"Ġdisk":9734,"found":9735,"ĠStation":9736,"Ġbonds":9737,"2007":9738,"ĠPain":9739,"Ġflexibility":9740,"sters":9741,"Ġdiagram":9742,"Ġcomplement":9743,"ĠDue":9744,"Ġlingu":9745,"ĠFDA":9746,"Ġeleph":9747,"Ġsensory":9748,"Ġelevated":9749,"87":9750,"ĠPL":9751,"enda":9752,"Ġexclud":9753,"ĠRest":9754,"Ġinstallation":9755,"Ġelderly":9756,"ĠNutrition":9757,"ĠBased":9758,"ĠUk":9759,"rible":9760,"Ġmetabolic":9761,"Ġpipe":9762,"Ġcontainers":9763,"Ġmurder":9764,"Ġregulatory":9765,"Ġ44":9766,"Ġscholar":9767,"Ġwhenever":9768,"Ġsurveys":9769,"Researchers":9770,"300":9771,"even":9772,"Ġresemb":9773,"ools":9774,"Ġdoses":9775,"Ġsediment":9776,"Ġneighb":9777,"Ġmedieval":9778,"ĠAssembly":9779,"Ġending":9780,"ugs":9781,"Ġthank":9782,"Ġsemi":9783,"Ġcorporate":9784,"Ġnoun":9785,"Ġdischarge":9786,"Ġrepeat":9787,"Ġerect":9788,"ĠBM":9789,"Ġneural":9790,"Ġmistakes":9791,"vi":9792,"Ġglob":9793,"Ġsequences":9794,"Ġenzymes":9795,"Ġintra":9796,"economic":9797,"Ġdoors":9798,"Ġunem":9799,"otion":9800,"Ġinvented":9801,"Ġbron":9802,"Ġfilms":9803,"Ġplates":9804,"ĠNeg":9805,"ceptions":9806,"Ġfan":9807,"Ġpartly":9808,"ĠUnivers":9809,"Ġpredom":9810,"Ġfant":9811,"Ġpesticides":9812,"Aut":9813,"Ġcrack":9814,"ocument":9815,"wa":9816,"Ġencouraging":9817,"Ġceleb":9818,"Ġswimming":9819,"Ġirrigation":9820,"ĠOregon":9821,"Ġtendency":9822,"acle":9823,"ĠLuc":9824,"Ġsuggesting":9825,"ĠBuddh":9826,"ĠFish":9827,"Google":9828,"Ġcollections":9829,"Ġenzyme":9830,"Ġcivilization":9831,"ĠPhysical":9832,"Ġul":9833,"Ġthyroid":9834,"Ġcandidates":9835,"Ġexcav":9836,"Ġrainfall":9837,"Rem":9838,"BI":9839,"Ðµ":9840,"Ġrays":9841,"ĠAlaska":9842,"etically":9843,"Ġwage":9844,"Ġbags":9845,"Ġhurt":9846,"Ġsoy":9847,"Ġcontaminated":9848,"Ġendangered":9849,"Ġstabil":9850,"ĠPDF":9851,"Ġrelating":9852,"Ġsurvived":9853,"Ġalongside":9854,"rics":9855,"Ġallergies":9856,"Ġimagination":9857,"ĠOp":9858,"Ġgest":9859,"Ġprevents":9860,"ĠTurkey":9861,"Ġtrading":9862,"ĠBern":9863,"Click":9864,"Ġtransformation":9865,"ĠLuther":9866,"isons":9867,"Ġadministrative":9868,"Ġcig":9869,"Ġspreading":9870,"Ġpenal":9871,"Ġhealthier":9872,"Ġcrimes":9873,"Ġadoption":9874,"Ġpeers":9875,"Ġhung":9876,"urd":9877,"Ġcontamination":9878,"Ġabsorption":9879,"Ġclassification":9880,"Ġvelocity":9881,"rons":9882,"ĠGarden":9883,"Ġcodes":9884,"omed":9885,"fly":9886,"Ġexpanding":9887,"Ġdivide":9888,"ubble":9889,"oving":9890,"olph":9891,"Ġsymptom":9892,"who":9893,"Ġsynthetic":9894,"Ġcertific":9895,"date":9896,"ĠLook":9897,"ĠNO":9898,"Ġachieving":9899,"nia":9900,"Ġincorporate":9901,"ĠMississippi":9902,"rium":9903,"erb":9904,"ications":9905,"Ġbrothers":9906,"ika":9907,"Ġpleasure":9908,"Ġburned":9909,"expected":9910,"best":9911,"Ġdynamics":9912,"Ġreflects":9913,"Ġperf":9914,"itus":9915,"osaur":9916,"Ġvalve":9917,"ĠProduct":9918,"Any":9919,"elihood":9920,"Ġrh":9921,"ĠPope":9922,"Ġvaccination":9923,"Ġstrains":9924,"Ġproducers":9925,"Ġextens":9926,"Ġoceans":9927,"Ġsystematic":9928,"ĠPhilos":9929,"Ġerosion":9930,"Ġgrammar":9931,"QL":9932,"itches":9933,"Ġeconomics":9934,"ĠCDC":9935,"Ġbell":9936,"ĠSupport":9937,"Ġtherapeutic":9938,"engers":9939,"Ġsectors":9940,"Ġmagazine":9941,"Ġclouds":9942,"Ġspons":9943,"Up":9944,"ffe":9945,"Ġcalendar":9946,"Ġsurviv":9947,"ometimes":9948,"egin":9949,"ĠMind":9950,"Ġextraord":9951,"ĠSus":9952,"Ġvalley":9953,"Ġdescribing":9954,"Ġabundant":9955,"ricane":9956,"Ġvom":9957,"Ġorganism":9958,"Ġapproval":9959,"ĠPhD":9960,"á¹":9961,"Ġ600":9962,"Ġcollapse":9963,"Ġtag":9964,"Ġsovere":9965,"arks":9966,"ĠBrain":9967,"Ġwidth":9968,"Ġweaken":9969,"Ġtreaty":9970,"Ġguarantee":9971,"Ġlanding":9972,"ĠCorpor":9973,"Ġreceives":9974,"Ġpartial":9975,"Ġbottle":9976,"Ġsalmon":9977,"ĠSav":9978,"Ġmask":9979,"Ġreasoning":9980,"Ġaffairs":9981,"Ġjurisd":9982,"ĠPaper":9983,"ĠNic":9984,"Ġtwelve":9985,"ĠArizona":9986,"ĠBush":9987,"anz":9988,"ĠKn":9989,"Ġow":9990,"ĠUnlike":9991,"ker":9992,"Ġenhanced":9993,"Ġsuggestions":9994,"Ġrecall":9995,"Ġwinds":9996,"ighth":9997,"Ġ978":9998,"ĠPeace":9999,"PR":10000,"TA":10001,"worm":10002,"inates":10003,"isition":10004,"Ġoffices":10005,"Ġmyster":10006,"Will":10007,"Ġhorizontal":10008,"Ġholy":10009,"Ġrepet":10010,"Ġbinding":10011,"ĠAsh":10012,"Ġmemories":10013,"lectric":10014,"Ġgrad":10015,"Ġselling":10016,"Ġmutations":10017,"Ġofficially":10018,"reshold":10019,"Ġdevelopers":10020,"ĠWilliams":10021,"Ġtough":10022,"isticated":10023,"they":10024,"Ġresponsibilities":10025,"Ġpunishment":10026,"Ġdefinitions":10027,"ĠSchools":10028,"owered":10029,"Ġeaten":10030,"Ġsocio":10031,"Ġallergic":10032,"ĠMountain":10033,"Ġflavor":10034,"Ġpale":10035,"Ġkilometers":10036,"Ġconclusions":10037,"iac":10038,"ĠRather":10039,"PV":10040,"esthetic":10041,"lear":10042,"ĠBerlin":10043,"eller":10044,"Ġschem":10045,"ĠPoland":10046,"Ġexhibition":10047,"Ġlicense":10048,"ĠPut":10049,"Ġloud":10050,"ĠAssessment":10051,"utical":10052,"Finally":10053,"Ġmile":10054,"ãģ":10055,"ependence":10056,"itate":10057,"ctors":10058,"ĠOcc":10059,"Ġreputation":10060,"Ġchamber":10061,"Ġmolecule":10062,"Ġsubmit":10063,"ĠAC":10064,"ĠVar":10065,"Ġfibers":10066,"ĠTheory":10067,"Ġmuc":10068,"athan":10069,"ĠMrs":10070,"94":10071,"Ġlun":10072,"Ġconfident":10073,"author":10074,"Ġconsisting":10075,"imensional":10076,"itzer":10077,"ĠOthers":10078,"Ġcollecting":10079,"Ġwireless":10080,"ĠØ":10081,"Ġcave":10082,"Ġcanal":10083,"Ġdying":10084,"omal":10085,"ayer":10086,"ĠLog":10087,"Ġabol":10088,"raid":10089,"oa":10090,"Ġhol":10091,"Ġshoes":10092,"Ġsacrifice":10093,"list":10094,"ĠTwitter":10095,"ĠMissouri":10096,"Ġconsistently":10097,"Ġtower":10098,"Ġabsorbed":10099,"ĠIde":10100,"ĠAncient":10101,"Che":10102,"Ġrent":10103,"Ġfactory":10104,"Ġstruck":10105,"dess":10106,"ĠIndigenous":10107,"Ġmail":10108,"ĠWed":10109,"Ġadolescents":10110,"ĠEmperor":10111,"Ġcyl":10112,"Ġaccounting":10113,"Ġemployee":10114,"Ġfatal":10115,"Ġphenomena":10116,"ĠStandards":10117,"ĠPractice":10118,"ĠCH":10119,"83":10120,"Ġentrance":10121,"Ġconsuming":10122,"Ġ85":10123,"Ġdiagnostic":10124,"Ġfingers":10125,"nesota":10126,"Ġequipped":10127,"enti":10128,"law":10129,"angel":10130,"develop":10131,"ĠJones":10132,"step":10133,"Ġprolong":10134,"ĠBetween":10135,"Ġpink":10136,"ĠGermans":10137,"Ġinjured":10138,"Ġanthrop":10139,"Ġplatforms":10140,"Ac":10141,"Ġstriking":10142,"TP":10143,"imen":10144,"Ġbusy":10145,"Ġthrow":10146,"Ġfiction":10147,"Ġgrams":10148,"cor":10149,"cled":10150,"Ġ1945":10151,"duate":10152,"ivate":10153,"Ġutilized":10154,"Ġpotassium":10155,"Ġbroadcast":10156,"Ġprisoners":10157,"original":10158,"Ġsheets":10159,"ĠApple":10160,"ĠHem":10161,"Ġlikelihood":10162,"Ġatmospheric":10163,"Ġverte":10164,"Ġappreciate":10165,"Ġretail":10166,"ĠComputer":10167,"Yes":10168,"Ġarc":10169,"Ġattacked":10170,"ylon":10171,"Ġnursing":10172,"ashed":10173,"Ġposted":10174,"ĠFer":10175,"inator":10176,"plex":10177,"Ġbroader":10178,"2005":10179,"grade":10180,"pert":10181,"cal":10182,"illance":10183,"2000":10184,"ĠRen":10185,"Ġevaluated":10186,"Ġbrush":10187,"ĠPrince":10188,"ĠGuard":10189,"Ġsew":10190,"Ġplasma":10191,"Ġwelcome":10192,"Ġes":10193,"ĠNether":10194,"Ġimproves":10195,"ĠShould":10196,"Ġphysicians":10197,"ĠProm":10198,"Ġ1986":10199,"healthy":10200,"Ġpose":10201,"ĠOS":10202,"Ġsomewhere":10203,"Ġstraw":10204,"nea":10205,"Ġpond":10206,"Ġentreprene":10207,"Ġretain":10208,"Ġmalaria":10209,"84":10210,"ĠJava":10211,"Ġattended":10212,"Ġinfectious":10213,"Ġpartially":10214,"Ġinfluenza":10215,"Ġcharges":10216,"Ġprovisions":10217,"Ġalgorithms":10218,"ĠSelf":10219,"adequ":10220,"ĠWilson":10221,"Ġdentist":10222,"ĠIsa":10223,"91":10224,"Ġattributes":10225,"ques":10226,"Ġ1987":10227,"Ġboundary":10228,"ĠHitler":10229,"Ġrefugees":10230,"Mod":10231,"Ġkitchen":10232,"Ġfinance":10233,"Ġappointment":10234,"Ġseal":10235,"Ġborders":10236,"obic":10237,"Ã¨":10238,"enh":10239,"Ġninet":10240,"inch":10241,"ĠMother":10242,"ntil":10243,"Ġpediatric":10244,"ĠNOT":10245,"Ġexport":10246,"itle":10247,"Ġ64":10248,"Ġwake":10249,"Ġdepr":10250,"Ġsurprised":10251,"ĪĴ":10252,"ipation":10253,"Ġnumer":10254,"View":10255,"ĠMaryland":10256,"ĠWales":10257,"Ġliberal":10258,"Ġpine":10259,"Ġdisplays":10260,"AF":10261,"Ġrepresentatives":10262,"cts":10263,"Ġintegrity":10264,"inery":10265,"Ġhack":10266,"akespe":10267,"Ġadjacent":10268,"arios":10269,"Ġbullying":10270,"Ġgran":10271,"Ġbeet":10272,"Ġcluster":10273,"Ġfles":10274,"Ġpassword":10275,"ĠCulture":10276,"Cop":10277,"Ġfluor":10278,"ĠJack":10279,"Ġfreely":10280,"aylor":10281,"Ġargues":10282,"ĠBell":10283,"ĠBest":10284,"aping":10285,"umns":10286,"Ġhygiene":10287,"Ġimpr":10288,"PL":10289,"ĠClinical":10290,"ooked":10291,"ĠThird":10292,"ĠYes":10293,"ctu":10294,"ĠDyn":10295,"Ġconvenient":10296,"Ġsubsequently":10297,"Ġproud":10298,"Ġblo":10299,"Ġpredators":10300,"ĠLocal":10301,"Ġfitness":10302,"thodox":10303,"Ġshares":10304,"Ġpollut":10305,"Ġgentle":10306,"Ġthesis":10307,"ela":10308,"akespeare":10309,"Ġshelter":10310,"Ġinflation":10311,"Ġimplementing":10312,"gebra":10313,"Ġintr":10314,"Ġstretch":10315,"Ġlibraries":10316,"Ġ~":10317,"ĠOrder":10318,"Cal":10319,"ĠStory":10320,"Ġcommod":10321,"Ġ43":10322,"Ġ1900":10323,"Ġresidential":10324,"ĠCall":10325,"Ġathletes":10326,"Ġtanks":10327,"oting":10328,"ĠPrim":10329,"ĠAllah":10330,"Ġcloth":10331,"Ġcoral":10332,"ĠSimilarly":10333,"Ġshade":10334,"Ġseasonal":10335,"anol":10336,"Ġcontrad":10337,"Ġaccidents":10338,"Ġaltered":10339,"Ġassessments":10340,"ĠCharl":10341,"Ġaster":10342,"Ġspine":10343,"yes":10344,"Ġmissions":10345,"ĠAk":10346,"ĠTar":10347,"ĠNY":10348,"Ġrings":10349,"UC":10350,"Ġradi":10351,"ĠSud":10352,"ĠWalk":10353,"ĠBon":10354,"ecessary":10355,"ĠCorps":10356,"Ġawarded":10357,"Ġloan":10358,"ĠIssue":10359,"Ġprevented":10360,"Ġassistant":10361,"thood":10362,"there":10363,"Ġbite":10364,"Research":10365,"afe":10366,"Ġmeditation":10367,"ĠOntario":10368,"Ġonset":10369,"ĠFig":10370,"iances":10371,"Ġhomework":10372,"Ġdrives":10373,"ĠTurn":10374,"Ġseiz":10375,"Ġpriest":10376,"istically":10377,"aceutical":10378,"Ġtribe":10379,"Ġsettlers":10380,"burn":10381,"Ġspeakers":10382,"Ġforever":10383,"Ġpursue":10384,"Ġrender":10385,"ypically":10386,"Ġfertilizer":10387,"Ġkg":10388,"arten":10389,"Ġreturning":10390,"Trans":10391,"ĠGDP":10392,"ĠDemocratic":10393,"Through":10394,"ĠWithin":10395,"Ġworkshop":10396,"Ġvice":10397,"ĠPrint":10398,"jud":10399,"Ġloop":10400,"ĠHo":10401,"Ġplacing":10402,"uv":10403,"ĠGovernor":10404,"Ġdeliber":10405,"Ġdesk":10406,"Ġreviewed":10407,"General":10408,"ulates":10409,"Ġorientation":10410,"akh":10411,"reement":10412,"Ġcheese":10413,"ĠLeague":10414,"Ġtracking":10415,"ĠLED":10416,"Ġweekly":10417,"81":10418,"vae":10419,"Ġpanc":10420,"generation":10421,"Ġpromising":10422,"Ġpod":10423,"ĠGM":10424,"Ġvag":10425,"Ġpock":10426,"Ġdesigning":10427,"DR":10428,"ĠStill":10429,"formed":10430,"Ġparticipating":10431,"ĠScholar":10432,"Ġapps":10433,"ĠTenn":10434,"Ġprogressive":10435,"Ġavoiding":10436,"Ġsophisticated":10437,"Christ":10438,"ĠDarwin":10439,"abilitation":10440,"Ġconfused":10441,"Ġadaptation":10442,"Ġtolerance":10443,"BA":10444,"ĠTraining":10445,"effective":10446,"orer":10447,"ĠMonday":10448,"Ġoperational":10449,"Ġarrive":10450,"Ġtoile":10451,"Ġrefrig":10452,"olds":10453,"Ġdevoted":10454,"Ġelabor":10455,"Back":10456,"Ġworn":10457,"Ġcourage":10458,"ulture":10459,"Ġeducated":10460,"Ġacquire":10461,"Ġdiarrhea":10462,"early":10463,",âĢĻ":10464,"Ġgray":10465,"arded":10466,"Ġedges":10467,"ĠCarib":10468,"acon":10469,"Ġfault":10470,"ĠMap":10471,"Ġcircular":10472,"ĠHyd":10473,"Ġmonthly":10474,"Ġinjection":10475,"Ġmirror":10476,"ĠES":10477,"Ġoccupation":10478,"ĠStephen":10479,"type":10480,"Ġnodes":10481,"otten":10482,"Ass":10483,"atching":10484,"ĠHig":10485,"ĠScript":10486,"quarters":10487,"Ġindependently":10488,"ĠMinnesota":10489,"Ġanat":10490,"eterm":10491,"ĠShort":10492,"Ġintelligent":10493,"Ġvector":10494,"Ġinvestments":10495,"ĠAfghan":10496,"bul":10497,"Ġpneum":10498,"gged":10499,"Ġhumidity":10500,"berries":10501,"Ġconnecting":10502,"Ġcampus":10503,"Ġheal":10504,"800":10505,"Ġartistic":10506,"plan":10507,"Ġconstitutional":10508,"ĠWorking":10509,"ĠFac":10510,"ĠON":10511,"Ġelig":10512,"forced":10513,"Ġassessed":10514,"orious":10515,"ĠAud":10516,"Ġprescription":10517,"ĠClub":10518,"Ġdispers":10519,"Ġcontrary":10520,"fire":10521,"ican":10522,"Ġstems":10523,"Gu":10524,"ĠMarsh":10525,"Ġintermedi":10526,"onin":10527,"only":10528,"Ġcarries":10529,"ĠNetherlands":10530,"ositive":10531,"Ġearned":10532,"uster":10533,"Ġbladder":10534,"Ġhistorians":10535,"bage":10536,"Ġpatent":10537,"ermat":10538,"Ġextinction":10539,"Ġindicating":10540,"Ġhazards":10541,"Ġfemin":10542,"ĠNG":10543,"ĠReserve":10544,"ĠApplic":10545,"Ġspeeds":10546,"Ġfrog":10547,"Ġassault":10548,"ĠMarc":10549,"CI":10550,"ĠCS":10551,"Ġinfin":10552,"Ġthoroughly":10553,"Ġteaches":10554,"Ġdrops":10555,"velength":10556,"ĠScientific":10557,"ĠTeachers":10558,"ĠNeuro":10559,"uns":10560,"reatment":10561,"Ġparliament":10562,"ĠBh":10563,"Ġvine":10564,"Ġcompletion":10565,"iy":10566,"ĠHarr":10567,"Ġmisc":10568,"acher":10569,"friendly":10570,"Ġcolored":10571,"ĠText":10572,"ĠJersey":10573,"Ġrom":10574,"atile":10575,"Ġpermitted":10576,"Ġbind":10577,"case":10578,"Ġpest":10579,"ĠBol":10580,"ĠTrade":10581,"Ġstruggling":10582,"ĠMatthew":10583,"emor":10584,"Ġimpressive":10585,"Ġmini":10586,"Def":10587,"Ġ`":10588,"Ġaxis":10589,"ĠInteg":10590,"Ġadministered":10591,"Ġdistribut":10592,"Ġaccomplished":10593,"HT":10594,"onsin":10595,"Ġafraid":10596,"Ġalgae":10597,"atories":10598,"psy":10599,"Ġavoided":10600,"ĠJefferson":10601,"ĠHan":10602,"Ġresolve":10603,"ropriate":10604,"anche":10605,"Ġdistinguished":10606,"Ġalk":10607,"Ġpreservation":10608,"vy":10609,"igm":10610,"ĠNation":10611,"Ð¸":10612,"uclear":10613,"Ġhide":10614,"isconsin":10615,"ĠVolume":10616,"uesday":10617,"Ġlasting":10618,"iatric":10619,"Ġthreshold":10620,"arians":10621,"Ġessays":10622,"ĠMcC":10623,"Ġmapping":10624,"Ġshallow":10625,"Ġunexpected":10626,"Ġmanufacturer":10627,"dis":10628,"Ġexch":10629,"Ġ41":10630,"Ġmilit":10631,"vol":10632,"Ġimportantly":10633,"Ġhardly":10634,"ammad":10635,"Ġupdate":10636,"Ġarranged":10637,"Ġexcited":10638,"Ġnerves":10639,"ĠCR":10640,"Ġboxes":10641,"ĠResearchers":10642,"iosity":10643,"**":10644,"Ġgrace":10645,"Ġjew":10646,"ĠIntroduction":10647,"ĠClean":10648,"Ġdiscom":10649,"Ġconcentrated":10650,"ĠProtest":10651,"ĠCarl":10652,"nals":10653,"Ġkeys":10654,"ĠRomans":10655,"stic":10656,"ursday":10657,"Ġhill":10658,"Ġprotest":10659,"emet":10660,"income":10661,"Ġtoxins":10662,"Ġparks":10663,"anium":10664,"Ġobviously":10665,"Ġfounder":10666,"istent":10667,"ĠGre":10668,"ĠOs":10669,"Ġantibodies":10670,"Ġmobility":10671,"estone":10672,"Ġdiver":10673,"ĠExamples":10674,"Ġyes":10675,"ĠNa":10676,"iph":10677,"Ġreviews":10678,"ĠFuture":10679,"Ġbills":10680,"Ġbrowser":10681,"Ġcameras":10682,"Ġtied":10683,"Ġprone":10684,"Ġnort":10685,"insula":10686,"Ġ800":10687,"commun":10688,"Ġsampling":10689,"Ġexpressions":10690,"Ġassociations":10691,"Ġdistract":10692,"Ġdecreases":10693,"Ġgaps":10694,"sequently":10695,"Ġportray":10696,"fold":10697,"aying":10698,"Ġsle":10699,"ĠAh":10700,"ĠSTEM":10701,"ogram":10702,"phal":10703,"teenth":10704,"Ġspark":10705,"ĠKansas":10706,"Ġgear":10707,"Ġsubmitted":10708,"Ġregen":10709,"Ġshoulder":10710,"Ġmira":10711,"Ġsucceeded":10712,"ĠEnt":10713,"Ġinspiration":10714,"TER":10715,"Ġwed":10716,"âĢĿ)":10717,"Ġrejected":10718,"ĠThink":10719,"Ġimmigration":10720,"Ġtherapies":10721,"dd":10722,"Ġpathways":10723,"Ġemit":10724,"ĠDeath":10725,"agle":10726,"Ġdoctrine":10727,"Ġtraditionally":10728,"Children":10729,"Ġbits":10730,"Ġindoor":10731,"Ġroutes":10732,"Ġauthentic":10733,"inance":10734,"Ġharsh":10735,"Ġtremend":10736,"ĠSem":10737,"ĠJim":10738,"Ġappet":10739,"Ġnotable":10740,"ĠBio":10741,"Ġundergo":10742,"Ġbearing":10743,"burgh":10744,"ĠFull":10745,"Ġber":10746,"ĠArm":10747,"Ġfallen":10748,"Ġcarbohydrates":10749,"Ġdeadly":10750,"High":10751,"ibet":10752,"Ġaffordable":10753,"Ġessence":10754,"Ġbeam":10755,"ĠHung":10756,"Ġrend":10757,"thal":10758,"high":10759,"Ġrelatives":10760,"Ġcelebration":10761,"Ġpor":10762,"ĠFollowing":10763,"ĠFrancis":10764,"ĠQuestions":10765,"ĠReal":10766,"Ġwashing":10767,"Ġtraveling":10768,"Ġqualified":10769,"aver":10770,"Ġattain":10771,"iler":10772,"ĠJun":10773,"sized":10774,"Ġmeteor":10775,"Ġimplies":10776,"Ġdialogue":10777,"Ġsynthesis":10778,"BD":10779,"ĠJon":10780,"Ġheter":10781,"azz":10782,"ĠMes":10783,"Ġrecommends":10784,"Have":10785,"Ġflooding":10786,"Ġhypert":10787,"ĠRisk":10788,"ja":10789,"Ġtrick":10790,"ĠDid":10791,"Ġspir":10792,"2004":10793,"Ġpublications":10794,"ĠHom":10795,"ĠHot":10796,"Ġpests":10797,"ĠHop":10798,"Ġconducting":10799,"Ġenlar":10800,"ĠMuch":10801,"ĠDifferent":10802,"Ġloyal":10803,"iotic":10804,"Ġpubl":10805,"Ġmonument":10806,"ĠStudent":10807,"ĠDiabetes":10808,"ĠRedu":10809,"Dep":10810,"ĠCenters":10811,"Further":10812,"inian":10813,"Ġsteady":10814,"ĠScientists":10815,"ĠQur":10816,"Ġtalks":10817,"Ġallergy":10818,"nesday":10819,"Ġembedded":10820,"Ġtransformed":10821,"Ġhighlights":10822,"82":10823,"Ġsubstr":10824,"role":10825,"Ġgovernor":10826,"ĠInterest":10827,"inflamm":10828,"Ġdistances":10829,"Ġfirms":10830,"Ġcapability":10831,"Ġtape":10832,"ĠIndex":10833,"Ġpries":10834,"aze":10835,"uine":10836,"rophic":10837,"Ġconfiguration":10838,"bro":10839,"Ġbuck":10840,"ercise":10841,"Find":10842,"ĠDavis":10843,"imals":10844,"ĠFa":10845,"ressing":10846,"Ġcontroversial":10847,"dominal":10848,"Ġpou":10849,"Ġfluids":10850,"400":10851,"yard":10852,"Ġcycl":10853,"urated":10854,"Ġdefines":10855,"Ġoverwhelming":10856,"Water":10857,"Ġprogression":10858,"arium":10859,"Ġtracks":10860,"Ġmultip":10861,"Ġhunger":10862,"Ġatomic":10863,"Ġhistorian":10864,"Ġreserves":10865,"inea":10866,"ĠFront":10867,"Ġasks":10868,"ĠWW":10869,"Ġpushed":10870,"emetery":10871,"ĠAnimal":10872,"spring":10873,"nedy":10874,"ĠBuddha":10875,"ĠWars":10876,"Ġcomparing":10877,"Ġpersistent":10878,"Ġdefeat":10879,"Ġcolumns":10880,"Ġirregular":10881,"ĠHon":10882,"Ġaccordance":10883,"Ġdiscl":10884,"ĠTeaching":10885,"Ġ1985":10886,"Ġfeatured":10887,"Ġpromotes":10888,"ĠArabic":10889,"Ġexpedition":10890,"ĠEconom":10891,"rels":10892,"ĠSweden":10893,"iking":10894,"hedral":10895,"Ġartif":10896,"Ġdemonstrates":10897,"ĠDaily":10898,"Ġenabled":10899,"Ġmodeling":10900,"LS":10901,"Ġchron":10902,"ĠImport":10903,"anas":10904,"umbers":10905,"ussion":10906,"Ġmistake":10907,"Ġcompliance":10908,"chron":10909,"Ġimmunity":10910,"Ġdiscomfort":10911,"Ġcerv":10912,"Ġunto":10913,"ĠSamuel":10914,"ĠNazi":10915,"Ġdefects":10916,"Ġride":10917,"ĠNep":10918,"leton":10919,"ĠPhysics":10920,"Ġsearching":10921,"nings":10922,"ĠProper":10923,"Ġprospect":10924,"Ġtorn":10925,"Ġgenus":10926,"Ġemployers":10927,"dated":10928,"Ġought":10929,"Ġbark":10930,"Ġutilize":10931,"Ġnic":10932,"agger":10933,"Ġlift":10934,"Ġelectronics":10935,"ceeds":10936,"Ġnamely":10937,"icides":10938,"Ġillustrated":10939,"Ġrubber":10940,"ĠCN":10941,"school":10942,"Ġ1979":10943,"Ġgenetics":10944,"ĠCaribbean":10945,"Ġobser":10946,"Ġscenarios":10947,"Ġexplored":10948,"ĠSn":10949,"Ġsustained":10950,"Ġaccompany":10951,"omatic":10952,"Ġmeter":10953,"Ġcontinuously":10954,"Ġ1984":10955,"Cs":10956,"Ġalike":10957,"ĠShakespeare":10958,"Ġmercury":10959,"ĠName":10960,"Ġencourages":10961,"ĠAltern":10962,"yan":10963,"oved":10964,"aft":10965,"yt":10966,"ĠTro":10967,"Ġoccurrence":10968,"Ġlunch":10969,"Ġfeather":10970,"Ġequations":10971,"Ġdestination":10972,"security":10973,"Ġfate":10974,"Ġindicators":10975,"uble":10976,"ĠCore":10977,"ocent":10978,"Ġinstant":10979,"Ġsel":10980,"Ġlabels":10981,"pson":10982,"Ġlegacy":10983,"riction":10984,"ulsion":10985,"ĠHur":10986,"Ġcalculations":10987,"Ġpoorly":10988,"Ġsubtle":10989,"Ġreservoir":10990,"Ġgathering":10991,"swered":10992,"onymous":10993,"idae":10994,"Ġstakeholders":10995,"Ġoutline":10996,"ĠSource":10997,"ronaut":10998,"Ġguns":10999,"ĠWisconsin":11000,"Ġenact":11001,"Ġpatri":11002,"Ġ46":11003,"Ġconfront":11004,"Ġcardiac":11005,"ĠNevertheless":11006,"Ant":11007,"ĠVictoria":11008,"Ġsituated":11009,"Ġliberty":11010,"RNA":11011,"RS":11012,"Ġinvited":11013,"Ġcriticism":11014,"Ġjaw":11015,".]":11016,"doors":11017,"alo":11018,"storm":11019,"asse":11020,"Ġpotatoes":11021,"Ġmasses":11022,"Ã§":11023,"Ġwritings":11024,"verages":11025,"Ġrats":11026,"auc":11027,"Ġmes":11028,"Ġsperm":11029,"front":11030,"ĠAz":11031,"Ġ%":11032,"Ġinadequ":11033,"ĠAmendment":11034,"Ġleak":11035,"PDF":11036,"Ġthrive":11037,"ĠCit":11038,"Ġgains":11039,"Ġethics":11040,"ĠExec":11041,"opathy":11042,"Ġverse":11043,"ĠBalt":11044,"Ġenemies":11045,"Ġhang":11046,"Ġ47":11047,"Ġorganisation":11048,"Ġgolden":11049,"Ġcensus":11050,"ĠTree":11051,"Ġcounterpart":11052,"Ġgenerating":11053,"actic":11054,"flies":11055,"upiter":11056,"Ġsolely":11057,"inition":11058,"phones":11059,"Ġshouldn":11060,"Ġdominated":11061,"Ġtiming":11062,"His":11063,"ĠÙ":11064,"Ġreplic":11065,"Ġdistinctive":11066,"Ġacceptance":11067,"2017":11068,"ĠMonth":11069,"lings":11070,"Ġperipher":11071,"Ġimperial":11072,"ĠCond":11073,"ĠHu":11074,"Ġmystery":11075,"run":11076,"ĠPath":11077,"arter":11078,"Spec":11079,"Ġhorn":11080,"Ġcounties":11081,"Ġdrainage":11082,"bet":11083,"ĠIndividual":11084,"hard":11085,"ĠHay":11086,"Both":11087,"Ġdinner":11088,"Ġoriginated":11089,"ĠMP":11090,"Ġswallow":11091,"Ġsenses":11092,"Î±":11093,"Ġappe":11094,"doi":11095,"Ġbrid":11096,"Well":11097,"Ġphon":11098,",'":11099,"arer":11100,"ĠNE":11101,"Ġsafer":11102,"Ġintegral":11103,"ĠLewis":11104,"Ġopens":11105,"Ġorganisations":11106,"Ġthorough":11107,"Ġreferring":11108,"Ġfertility":11109,"Ġextraordinary":11110,"Ġrobots":11111,"Ġvomiting":11112,"UM":11113,"ĠMathemat":11114,"ĠNumber":11115,"Ġhazardous":11116,"ĠAN":11117,"ĠDuke":11118,"avirus":11119,"Ġfilters":11120,"2014":11121,"Ġrear":11122,"Ġaluminum":11123,"Ġhip":11124,"Ġspelling":11125,"don":11126,"Ġintensive":11127,"Ġtourism":11128,"gered":11129,"Ġsurre":11130,"Ġwages":11131,"orney":11132,"asal":11133,"ternoon":11134,"Ġcorrelation":11135,"PD":11136,"heastern":11137,"Ġexecuted":11138,"Ġrocket":11139,"atre":11140,"ergarten":11141,"ĠChall":11142,"entieth":11143,"Ag":11144,"Ġworksheets":11145,"ĠAIDS":11146,"velt":11147,"neg":11148,"Ġpackaging":11149,"ountered":11150,"ĠFlow":11151,"Ġmethane":11152,"Ġfrozen":11153,"Ġdollar":11154,"ĠSac":11155,"Ġrestored":11156,"Ġreproduction":11157,"ĠScottish":11158,"Ġwavelength":11159,"Ġreserve":11160,"Ġemerge":11161,"Ġrotation":11162,"Ġnecessity":11163,"govern":11164,"ĠPap":11165,"IST":11166,"Ġmi":11167,"Ġmart":11168,"ĠWatch":11169,"Ġhills":11170,"ĠPython":11171,"Ġbowel":11172,"range":11173,"iversary":11174,"Ġcontributes":11175,"Ġweapon":11176,"Ġuncertainty":11177,"iors":11178,"Ġcope":11179,"Ġconsensus":11180,"ĠSher":11181,"Ġinequality":11182,"ikes":11183,"Ġdeleg":11184,"Ġexecution":11185,"oil":11186,"owners":11187,"dimensional":11188,"Ġseverely":11189,"Ġnurse":11190,"Ġadvertising":11191,"Ġexclusively":11192,"Ġassumptions":11193,"Ġempower":11194,"Ġpoliticians":11195,"grim":11196,"Ġtermin":11197,"Ġinvestigated":11198,"Ġdow":11199,"ĠRose":11200,"Ġlocally":11201,"ĠIntellig":11202,"ĠUnit":11203,"Ġskull":11204,"ĠMovement":11205,"asures":11206,"Ġinsu":11207,"hr":11208,"Ġreson":11209,"Ġquote":11210,"Ġruling":11211,"ez":11212,"essional":11213,"Ġarrangement":11214,"Ġtelephone":11215,"Ġsuspected":11216,"vals":11217,"icked":11218,"Ġdeterior":11219,"Ġtransf":11220,"Ġlarvae":11221,"ĠZh":11222,"GS":11223,"stration":11224,"onomous":11225,"olit":11226,"Ġdetermination":11227,"onent":11228,"2015":11229,"Ġattracted":11230,"lem":11231,"ĠLinux":11232,"Ġbulk":11233,"ĠBuddhist":11234,"ĠTalk":11235,"owa":11236,"Ġdisappear":11237,"enders":11238,"Ġvolumes":11239,"Ġinflammatory":11240,"xic":11241,"Ġvacuum":11242,"ĠMand":11243,"Ġstops":11244,"Ġyard":11245,"Ġpap":11246,"Ġseasons":11247,"Ġdangers":11248,"father":11249,"Ġexpend":11250,"Ġmatrix":11251,"Ġoverweight":11252,"Ġencountered":11253,"Ġloans":11254,"Ġcategor":11255,"supp":11256,"fare":11257,"ĠOil":11258,"!)":11259,"nected":11260,"Ġincredible":11261,"âĦ":11262,"Ġ1800":11263,"Ġinfluential":11264,"ognition":11265,"Ġtransactions":11266,"rying":11267,"Ġcommands":11268,"Ġdiscoveries":11269,"ĠEvent":11270,"aturday":11271,"Ġnewspapers":11272,"omon":11273,"Ġirre":11274,"eav":11275,"Ġpresum":11276,"Ġclassrooms":11277,"Ġprecision":11278,"rared":11279,"Ġprotects":11280,"Ġextrem":11281,"Ġcrust":11282,"Ġthinks":11283,"Ġcondem":11284,"ĠDun":11285,"human":11286,"efits":11287,"Ġfrequencies":11288,"Ġperspectives":11289,"Ġvoting":11290,"ĠStatistics":11291,"osevelt":11292,"ĠCase":11293,"ĠÂ·":11294,"Ġsupplied":11295,"ĠKim":11296,"Ġvon":11297,"Ġpayments":11298,"Ġstorms":11299,"Ġemission":11300,"Ġcoinc":11301,"Ġacknowledge":11302,"Ġanswered":11303,"Ġspecimens":11304,"Ġtoys":11305,"ĠSleep":11306,"Ġsegment":11307,"Ġrepeatedly":11308,"some":11309,"Â©":11310,"Ġencomp":11311,"Ġexpenses":11312,"Ġlying":11313,"ĠCold":11314,".-":11315,"Ġcircles":11316,"Jan":11317,"ĠKennedy":11318,"Ġassumption":11319,"Ġrecycled":11320,"attle":11321,"first":11322,"Ġterritories":11323,"World":11324,"ĠDu":11325,"yo":11326,"Ġcareg":11327,"orient":11328,"ĠYears":11329,"Ġbin":11330,"Ġapplicable":11331,"non":11332,"Ġinver":11333,"ĠSyria":11334,"ĠLeon":11335,"ĠADHD":11336,"Ġdiscussing":11337,"Ġstimulate":11338,"Ġtubes":11339,"Ġdegradation":11340,"ĠGiven":11341,"Ġignore":11342,"good":11343,"Ġdiagnose":11344,"ĠAnne":11345,"ochond":11346,"ĠUlt":11347,"conf":11348,"Ġenabling":11349,"Ġanalog":11350,"oning":11351,"Ġcasual":11352,"Ġepidemic":11353,"rell":11354,"Ġracism":11355,"Ġrealistic":11356,"lyn":11357,"Ġbrill":11358,"Ġtexture":11359,"emed":11360,"Ġgeographic":11361,"Scientists":11362,"arest":11363,"erness":11364,"ĠPA":11365,"Ġmarkers":11366,"ĠTransport":11367,"Ġmagnesium":11368,"Prof":11369,"Ġpicked":11370,"Ġthickness":11371,"Ġnick":11372,"Ġeconomies":11373,"Ġtired":11374,"rac":11375,"âĤ¬":11376,"Ġpowered":11377,"ĠGuid":11378,"Ġbands":11379,"iki":11380,"ĠBehavior":11381,"ĠGh":11382,"Ġfilling":11383,"ĠHas":11384,"Ġbugs":11385,"Ġdepartments":11386,"coin":11387,"Ġphrases":11388,"igration":11389,"Ġdeclined":11390,"isible":11391,"Ġgau":11392,"Ġyields":11393,"ĠNS":11394,"ĠPsychology":11395,"Ġlect":11396,"Ġscal":11397,"Ġmultipl":11398,"Ġincredibly":11399,"ĠUtah":11400,"Ġconsiderably":11401,"ĠRab":11402,"ĠRepublican":11403,"Ġscenes":11404,"ĠGrade":11405,"Ġgenuine":11406,"ĠPrime":11407,"ko":11408,"Ġignored":11409,"Ġincorrect":11410,"EST":11411,"ĠTaylor":11412,"Ġcoordination":11413,"ĠSa":11414,"Ġanch":11415,"Ġillustrate":11416,"alog":11417,"Ġviable":11418,"arts":11419,"asa":11420,"Ġlith":11421,"Ġinclusion":11422,"igma":11423,"Ġgenetically":11424,"ĠSymptoms":11425,"Ġchip":11426,"ĠEthiop":11427,"Ġmud":11428,"Ġprevalent":11429,"Ġadmitted":11430,"Ġchapters":11431,"ĠIndonesia":11432,"icting":11433,"Ġgroundwater":11434,"ĠTibet":11435,"Ġfifty":11436,"ĠWHO":11437,"Ġinspect":11438,"Ġmetap":11439,"Ġflesh":11440,"Hz":11441,"Ġblacks":11442,"Ġmarginal":11443,"ĠAvailable":11444,"ĠLt":11445,"Ġmoments":11446,"Ġcooked":11447,"ĠLiving":11448,"Ġquad":11449,"seud":11450,"Ġvow":11451,"Ġfolk":11452,"Ġboards":11453,"ĠEssay":11454,"Though":11455,"osaurs":11456,"Ġfacial":11457,"Ġinvestors":11458,"Ġrelieve":11459,"kh":11460,"ĠChemical":11461,"Ġma":11462,"Ġanten":11463,"Ġ49":11464,"stud":11465,"Ġhepat":11466,"Ġabroad":11467,"Ġreceptors":11468,"Ġwhilst":11469,"Ġkings":11470,"ĠYellow":11471,"Ġpathogens":11472,"!\"":11473,"rup":11474,"ĠHispan":11475,"Ġcompat":11476,"uty":11477,"ivals":11478,"Ġstrand":11479,"ĠImper":11480,"Ġprotocols":11481,"ĠQuality":11482,"ĠMental":11483,"Ġphases":11484,"Ġorganize":11485,"Ġportions":11486,"Ġfoster":11487,"Ġepit":11488,"Take":11489,"Ġdetermines":11490,"Ġmounted":11491,"ĠUnderstanding":11492,"ĠGir":11493,"Ġshipping":11494,"Ã³n":11495,"Ġconversations":11496,"onto":11497,"2003":11498,"Ġfootball":11499,"ĠCape":11500,"screen":11501,"Ġeducate":11502,"Ġinstitutional":11503,"ĠTherapy":11504,"illy":11505,"Ġmarch":11506,"mic":11507,"Ġdamaging":11508,"hops":11509,"ĠBelg":11510,"Ġstiff":11511,"Ġimpression":11512,"Ġcompassion":11513,"uilt":11514,"RL":11515,"Ġpreschool":11516,"ĠSix":11517,"Ġchains":11518,"Ġdismiss":11519,"Ġcrash":11520,"Ġic":11521,"Ġsimulation":11522,"ĠBridge":11523,"God":11524,"Ġmakers":11525,"ĠTen":11526,"Ġwealthy":11527,"ĠRog":11528,"ĠDepression":11529,"ĠBarb":11530,"Ġrevolutionary":11531,"Ġ99":11532,"ĠObject":11533,"Based":11534,"Ġpitch":11535,"Ġgums":11536,"ogl":11537,"ĠSpe":11538,"ĠSpecies":11539,"Ġrepublic":11540,"Ġwax":11541,"Ġforb":11542,"Ġstressed":11543,"Ġyeast":11544,"Ġbehalf":11545,"ĠTreaty":11546,"El":11547,"hour":11548,"pur":11549,"Ġdehyd":11550,"Ġzinc":11551,"ĠRay":11552,"Ġcombust":11553,"Ġpupp":11554,"uz":11555,"iating":11556,"oths":11557,"olly":11558,"Ġwhales":11559,"Ġprecious":11560,"ishers":11561,"Ġcha":11562,"Ġpipes":11563,"Ġinherited":11564,"anth":11565,"Ġshield":11566,"ĠMountains":11567,"Ġlicensed":11568,"Ġoverse":11569,"ĠSep":11570,"Ġpassive":11571,"Ġheadaches":11572,"ĠConc":11573,"Ġseeks":11574,"osphere":11575,"makers":11576,"Ġextraction":11577,"ĠMoh":11578,"ĠJean":11579,"Ġdigit":11580,"osity":11581,"Bel":11582,"ĠPear":11583,"Ġatom":11584,"Ġcompact":11585,"Ġantibiotic":11586,"Ġalien":11587,"ĠMos":11588,"ĠFlu":11589,"ĠIron":11590,"ĠRub":11591,"Ġmeets":11592,"Ġexpense":11593,"Ġlimiting":11594,"ĠÂ°":11595,"Ġalphabet":11596,"Ġinterpreted":11597,"iolet":11598,"Ġbiomass":11599,"obs":11600,"Ġbor":11601,"Ġparticipated":11602,"ĠArthur":11603,"formance":11604,"Ġexplaining":11605,"Ġhearts":11606,"ĠGrant":11607,"natural":11608,"ructive":11609,"olecular":11610,"Ġaccessed":11611,"viously":11612,"ĠFranklin":11613,"egu":11614,"Ġarbit":11615,"Ġwra":11616,"Ġsoap":11617,"ordan":11618,"aki":11619,"Ġcoins":11620,"Ġcaffe":11621,"opt":11622,"acular":11623,"Ġpride":11624,"imedia":11625,"ĠUrban":11626,"ancial":11627,"Ġconservative":11628,"ifferent":11629,"aug":11630,"ausea":11631,"Ġgalaxy":11632,"Ġcatast":11633,"Ġà¤":11634,"Ġdisposal":11635,"Ġaquatic":11636,"Ġfestival":11637,"Ġrises":11638,"Ġafternoon":11639,"Ġsyll":11640,"ochemical":11641,"Ġdecent":11642,"Ġpaths":11643,"Ġpulled":11644,"eland":11645,"ĠâĢĿ":11646,"2016":11647,"Make":11648,"Ġprogrammes":11649,"Ġmagnet":11650,"anna":11651,"Ġpathway":11652,"Ġcurious":11653,"warf":11654,"Ġpoems":11655,"Ġoxide":11656,"Ġfled":11657,"Ġdimension":11658,"ĠFram":11659,"Ġapple":11660,"Ġtimber":11661,"Ġkin":11662,"Ġdesigners":11663,"Ġsket":11664,"Ġbattles":11665,"ĠMarx":11666,"Ġbeds":11667,"thening":11668,"ttes":11669,"stead":11670,"Ġodd":11671,"Ġmainstream":11672,"Ġindicator":11673,"Ġprostate":11674,"Ġsubstitute":11675,"Ġbelonging":11676,"Ġpredominant":11677,"ni":11678,"ĠChap":11679,"Ġviewing":11680,"ĠPhilippines":11681,"Ġfleet":11682,"Ġguides":11683,"Ġdecomp":11684,"ĠLarge":11685,"arding":11686,"ĠRoosevelt":11687,"Ġmutual":11688,"Ġdescriptions":11689,"Ġtang":11690,"Ġskilled":11691,"Ġmanufactured":11692,"ĠMuh":11693,"Ġfurniture":11694,"orse":11695,"ĠNi":11696,"ĠJane":11697,"ĠSearch":11698,"Ġphysiological":11699,"feeding":11700,"ilty":11701,"ĠMission":11702,"Ġgastro":11703,"eld":11704,"ocaust":11705,"ulous":11706,"Ġsatellites":11707,"Ġmutation":11708,"Ġ52":11709,"Ġstuck":11710,"Ġattempting":11711,"oen":11712,"Ġgraphic":11713,"ĠFOR":11714,"Ġ51":11715,"MD":11716,"ĠWrite":11717,"Ġsurveillance":11718,"eous":11719,"Ġtunnel":11720,"ÙĨ":11721,"ĠPolish":11722,"Ġconclude":11723,"Ġshortly":11724,"pm":11725,"Ġcolleges":11726,"ĠJupiter":11727,"osex":11728,"ĠFive":11729,"Aug":11730,"ĠStone":11731,"ĠCensus":11732,"sl":11733,"Ġsau":11734,"Ġunity":11735,"Ġmetres":11736,"Ġunnecessary":11737,"ĠLower":11738,"Ġdisput":11739,"ĠEnter":11740,"ĠContact":11741,"Ġyoga":11742,"Ġspecialists":11743,"restrial":11744,"Ġsorts":11745,"Ġgland":11746,"Ġthrone":11747,"Ġappetite":11748,"Ġque":11749,"agine":11750,"ĠEducational":11751,"ERS":11752,"Ġcataly":11753,"Ġrecovered":11754,"Ġcostly":11755,"Ġabsent":11756,"reating":11757,"Ġoutdoors":11758,"Ġ@":11759,"etry":11760,"ĠRus":11761,"ĠEle":11762,"Ġnineteenth":11763,"Ġlapt":11764,"ĠRepresent":11765,"Ġtelescope":11766,"Ġflowing":11767,"ĠCreative":11768,"Ġdispar":11769,"gon":11770,"ĠBor":11771,"Ġ1983":11772,"Ġprosec":11773,"Ġreligions":11774,"FL":11775,"irs":11776,"letter":11777,"Ġarchaeological":11778,"Ġplaque":11779,"otyp":11780,"Ġarchitectural":11781,"Ġrescue":11782,"ĠBow":11783,"Ġaids":11784,"Ġfarmer":11785,"white":11786,"ĠFord":11787,"keys":11788,"Ġtraveled":11789,"Ġric":11790,"when":11791,"cm":11792,"ĠLind":11793,"Ġsmallest":11794,"Ġsinging":11795,"Ġempir":11796,"âĦ¢":11797,"Ġpec":11798,"Ġpropos":11799,"rage":11800,"Ġresidence":11801,"ĠDougl":11802,"Next":11803,"ART":11804,"rets":11805,"Ġdiscusses":11806,"Ġglobally":11807,"Ġunemployment":11808,"abetic":11809,"Ġpossession":11810,"Ġenters":11811,"Ġrespective":11812,"Ġepidem":11813,"Ġceremony":11814,"Ġphilosophical":11815,"ĠEs":11816,"iplinary":11817,"Ġdefeated":11818,"post":11819,"Ġclusters":11820,"held":11821,"Ob":11822,"Ġtransparent":11823,"Ġfeas":11824,"Intern":11825,"Ġinduced":11826,"Ġignor":11827,"Ġobsc":11828,"ĠBulgar":11829,"Ġpursu":11830,"lessly":11831,"orie":11832,"ĠIniti":11833,"ewater":11834,"ESS":11835,"Ġensures":11836,"Oct":11837,"Ġdeals":11838,"2001":11839,"Ġpersonally":11840,"laration":11841,"ĠBah":11842,"instein":11843,"Ġherbs":11844,"Ġsnake":11845,"Ġfulfill":11846,"Ġdishes":11847,"Ġslide":11848,"ĠSens":11849,"Ġcompensation":11850,"olas":11851,"Ġchecking":11852,"ĠIndustrial":11853,"Those":11854,"appy":11855,"ĠBuddhism":11856,"Ġgaining":11857,"arma":11858,"isphere":11859,"Ġstack":11860,"ĠGer":11861,"Ġemperor":11862,"imeter":11863,"Ġchecked":11864,"Ġpalm":11865,"Ġsurvivors":11866,"Ġdisasters":11867,"ĠDiego":11868,"Ġvolunteer":11869,"Ġingredient":11870,"Ġconjunction":11871,"Ġshopping":11872,"two":11873,"Ġaggreg":11874,"Ġalb":11875,"ĠGreg":11876,"ĠSoft":11877,"Ġspell":11878,"Ġpromoted":11879,"will":11880,"Ġexamining":11881,"Ġgrants":11882,"Ġ1982":11883,"Ġneighbors":11884,"aund":11885,"othy":11886,"Ġcomparable":11887,"ographer":11888,"Ġcrossing":11889,"Ġcampaigns":11890,"roleum":11891,"ĠVers":11892,"ĠEdition":11893,"Char":11894,"inflammatory":11895,"Ġbelt":11896,"Ġ1975":11897,"Ġextends":11898,"Ġwarmer":11899,"Ġdocumentation":11900,"ĠTurkish":11901,"Orig":11902,"uming":11903,"ĠFall":11904,"Ġuter":11905,"Ġarrested":11906,"Ġprolonged":11907,"educ":11908,"Ġprophe":11909,"ĠFreder":11910,"Ġautomatic":11911,"ĠOpt":11912,"Ġfraud":11913,"FS":11914,"giving":11915,"away":11916,"ĠMaking":11917,"ogene":11918,"Ġfollowers":11919,"ĠDefense":11920,"Ġpractitioners":11921,"asting":11922,"iley":11923,"ailing":11924,"Ġbasics":11925,"Ġfails":11926,"bral":11927,"ĠIb":11928,"Ġdevastating":11929,"Ġflies":11930,"Ġcheaper":11931,"ĠPeriod":11932,"osynt":11933,"ĠCra":11934,"Ġcollaborative":11935,"Ġshadow":11936,"Ġangry":11937,"lastname":11938,"Ġinitiated":11939,"ECT":11940,"inton":11941,"Ġdictionary":11942,"ruce":11943,"Ġconsp":11944,"Ġgrey":11945,"Ġinterviews":11946,"ÙĲ":11947,"iotics":11948,"Ġconce":11949,"Ġvapor":11950,"Pres":11951,"ilton":11952,"ĠCro":11953,"Ġhind":11954,"Ġannounce":11955,"activity":11956,"Ġvolcanic":11957,"ĠParents":11958,"Ġmurd":11959,"rass":11960,"Ġresur":11961,"Ġdenied":11962,"Ġcommander":11963,"ĠKnowledge":11964,"Ġbeta":11965,"Ġgrave":11966,"Ġvoices":11967,"Ġbelongs":11968,"Ġpharmac":11969,"ĠFA":11970,"Ġgalaxies":11971,"FA":11972,"oub":11973,"Ġfee":11974,"Ġ56":11975,"Ġepisode":11976,"essee":11977,"ĠArk":11978,"Ġangles":11979,"erves":11980,"Ġhistorically":11981,"Ġprecipitation":11982,"Ġren":11983,"Ġadul":11984,"olescent":11985,"inced":11986,"Ġobese":11987,"itored":11988,"ĠPa":11989,"Ġgifts":11990,"ĠNap":11991,"Ġcolours":11992,"ĠRod":11993,"Ġaccused":11994,"Ġmovies":11995,"ophag":11996,"ĠCaptain":11997,"ĠBody":11998,"Ġendeav":11999,"Inc":12000,"ĠCe":12001,"Ġdigestion":12002,"Ġnurses":12003,"Ġarteries":12004,"Ġheaded":12005,"spe":12006,"vasive":12007,"ilateral":12008,"Ġcoin":12009,"ĠAges":12010,"weet":12011,"ĠArist":12012,"link":12013,"appropriate":12014,"Ġbrick":12015,"ĠBapt":12016,"Ġmotivated":12017,"Ġefficacy":12018,"ĠMiller":12019,"etheless":12020,"Av":12021,"Ġdign":12022,"ĠMu":12023,"risk":12024,"Ġbasket":12025,"ĠKenya":12026,"2002":12027,"Ġmethodology":12028,"ĠPas":12029,"ĠOR":12030,"Ġelectrom":12031,"alin":12032,"Ġmenu":12033,"Ġassignments":12034,"Ġregulated":12035,"ĠBad":12036,"gram":12037,"Ġstrengths":12038,"VD":12039,"po":12040,"Ġblockchain":12041,"fol":12042,"uct":12043,"ĠOpp":12044,"Ġpollutants":12045,"Ġsacrific":12046,"Ġtremendous":12047,"Ġbold":12048,"ationally":12049,"Ġadmit":12050,"Ġmim":12051,"ĠSite":12052,"Ġservers":12053,"bestos":12054,"Ġguided":12055,"Ġenterprise":12056,"ĠCut":12057,"Copyright":12058,"access":12059,"ierce":12060,"sun":12061,"Ġterminal":12062,"Ġmeanings":12063,"ĠHTML":12064,"Ġforty":12065,"abs":12066,"ĠKong":12067,"iser":12068,"Ġimposed":12069,"Ġconstraints":12070,"Ġthrown":12071,"Ġovert":12072,"ĠArchives":12073,"Second":12074,"ĠCultural":12075,"igs":12076,"Ġsearc":12077,"Ġ72":12078,"Ġoperators":12079,"WS":12080,"ĠMit":12081,"Ġbreakfast":12082,"monary":12083,"Ġexplos":12084,"Ġaffil":12085,"ĠMong":12086,"Ġverbal":12087,"Ġintens":12088,"Ġ54":12089,"ĠMemorial":12090,"Ġmachinery":12091,"ĠObserv":12092,"OU":12093,"Ġintu":12094,"Ġneedle":12095,"Ġimmense":12096,"ĠZe":12097,"ĠArchitect":12098,"amily":12099,"ĠKat":12100,"ĠMarg":12101,"Ġanniversary":12102,"Ġtalked":12103,"Ġadvised":12104,"Ġpatch":12105,"Ġentity":12106,"elson":12107,"ĠEvolution":12108,"Ġconvention":12109,"ĠConstant":12110,"Ġbes":12111,"Ġnucleus":12112,"rade":12113,"Ġpromised":12114,"ĠElectric":12115,"five":12116,"Ġactors":12117,"Ġcannab":12118,"grad":12119,"ĠDub":12120,"ĠCorporation":12121,"Did":12122,"Ġpix":12123,"Ġpushing":12124,"abama":12125,"Ġmembership":12126,"Current":12127,"antine":12128,"ĠAfghanistan":12129,"ĠHong":12130,"ĠChile":12131,"Ġpracticed":12132,"Ġpoisoning":12133,"ĠHunt":12134,"wall":12135,"Ġrailroad":12136,"ĠDur":12137,"ltry":12138,"roach":12139,"Ġequity":12140,"Ġconsisted":12141,"ulses":12142,"ĠRand":12143,"athic":12144,"ropolitan":12145,"Supp":12146,"orb":12147,"Ġsymmet":12148,"empl":12149,"arse":12150,"urred":12151,"ĠPoll":12152,"ĠTeacher":12153,"Ġmagic":12154,"ĠÏ":12155,"ĠCommand":12156,"History":12157,"Ġdreams":12158,"ĠAccount":12159,"ĠTri":12160,"Ġresponded":12161,"Ġpolymer":12162,"Ġveterin":12163,"Ġicon":12164,"embered":12165,"shore":12166,"Ġregistration":12167,"mouth":12168,"Ġions":12169,"Mus":12170,"Ġartery":12171,"Ġimbal":12172,"Ġbeef":12173,"forming":12174,"ĠCreate":12175,"ME":12176,"Ġomega":12177,"Ġlegislative":12178,"Ġaspir":12179,"Ġabdominal":12180,"ĠGolden":12181,"heres":12182,"ĠRaj":12183,"Ġneighbour":12184,"Disc":12185,"Ġabd":12186,"Ġboats":12187,"ĠEnc":12188,"600":12189,"Ġbom":12190,"Ġnode":12191,"Ġrefriger":12192,"Ġbottles":12193,"Ġblame":12194,"icut":12195,"ulative":12196,"ĠPrize":12197,"Europe":12198,"Ġlig":12199,"ibli":12200,"Ġprofits":12201,"Ġconstitu":12202,"Ġscheduled":12203,"Em":12204,"Ġhate":12205,"Ġfears":12206,"Ġinfl":12207,"AV":12208,"incial":12209,"sens":12210,"ĠPresent":12211,"ĠCarbon":12212,"ĠTax":12213,"ĠBit":12214,"Ġastronaut":12215,"cr":12216,"Ġvocal":12217,"Ġartic":12218,"Ġheadache":12219,"PP":12220,"Ġtomb":12221,"ĠTuesday":12222,"Ġanalyzing":12223,"Ġgross":12224,"Ġhosts":12225,"Ġacquisition":12226,"Ġgovernance":12227,"Ġspeaks":12228,"assment":12229,"Ġconvinced":12230,"Public":12231,"Ġchips":12232,"Ġpassengers":12233,"Ġquantitative":12234,"Ġlawn":12235,"Ġbases":12236,"ĠTy":12237,"Ġstatic":12238,"Ġpersec":12239,"fu":12240,"Ġbay":12241,"ilib":12242,"ĠPersian":12243,"ĠNat":12244,"Ġdirt":12245,"ĠLic":12246,"ĠOm":12247,"Thus":12248,"Ġcyt":12249,"swer":12250,"Ġ1968":12251,"ĠSeries":12252,"áĥ":12253,"ĠBan":12254,"Ġkidneys":12255,"Ġinterrupt":12256,"ĠHawaii":12257,"acre":12258,"Ġpublicly":12259,"ikh":12260,"Ġsteep":12261,"Ġwinning":12262,"ĠRout":12263,"Ġtech":12264,"ĠTerrit":12265,"Ġsubstantially":12266,"ĠPhilip":12267,"ĠWin":12268,"ĠConfederate":12269,"Ġcombinations":12270,"Ġbeer":12271,"Ġheated":12272,"ĠNort":12273,"angular":12274,"Ġintervals":12275,"Ġclosest":12276,"EV":12277,"Mon":12278,"Ġmankind":12279,"ĠLove":12280,"yers":12281,"Ġgeographical":12282,"ĠCommunication":12283,"ĠSex":12284,"Ġalleged":12285,"ĠClark":12286,"have":12287,"arb":12288,"Ġreads":12289,"Ġdrawings":12290,"organisms":12291,"Ġcarp":12292,"Ġraises":12293,"Ġcounting":12294,"Ġbars":12295,"ĠThursday":12296,"Ġintroducing":12297,"Ġdual":12298,"Ġdeple":12299,"Ġmonitored":12300,"asis":12301,"Ġdiamond":12302,"Ġcod":12303,"Ġincidents":12304,"Ġphotography":12305,"Ġfungi":12306,"ĠTeam":12307,"Ġcorporations":12308,"Ġprojected":12309,"ĠExecutive":12310,"Ġindication":12311,"Ġconceptual":12312,"aments":12313,"forward":12314,"ĠGro":12315,"Ġsecular":12316,"Ġpressures":12317,"Ġupdates":12318,"Ġinsulation":12319,"otechnology":12320,"Pat":12321,"Ġwhites":12322,"angers":12323,"Ġdistress":12324,"ĠFreedom":12325,"ĠTai":12326,"Ġcertified":12327,"Ġlocate":12328,"Ġconsiderations":12329,"ĠPatients":12330,"jamin":12331,"ĠArgent":12332,"Ġdozen":12333,"Ġ53":12334,"ĠDeclaration":12335,"Ġ1981":12336,"ĠLG":12337,"Ġcustoms":12338,"ĠLouisiana":12339,"Image":12340,"ĠPR":12341,"Ġtrips":12342,"Ġentities":12343,"Ġreplacing":12344,"Ġsoldier":12345,"ĠAffairs":12346,"Ġdatabases":12347,"ĠDal":12348,"okes":12349,"Ġfounding":12350,"ushes":12351,"ĠDat":12352,"Ġgang":12353,"Ġcaffeine":12354,"opter":12355,"Ġdefining":12356,"Ġstructured":12357,"Ġsurviving":12358,"inence":12359,"keley":12360,"Ġbike":12361,"Ġ1973":12362,"py":12363,"ĠHad":12364,"Ġweren":12365,"Ġtitles":12366,"ĠUC":12367,"Instit":12368,"ĠIC":12369,"matic":12370,"ÑĤ":12371,"ĠOd":12372,"ĠFisher":12373,"ĠTrump":12374,"Ġdatas":12375,"apore":12376,"Ġlandf":12377,"ĠTennessee":12378,"Ġcontracts":12379,"Ġ57":12380,"vance":12381,"Ġhypertension":12382,"Ġtempt":12383,"ports":12384,"Ġinherit":12385,"Ġplug":12386,"comfort":12387,"Ġtender":12388,"Ġseemingly":12389,"Ġpurple":12390,"Ġdarkness":12391,"Ġpharmaceutical":12392,"Ġgeometry":12393,"ĠAlbert":12394,"Ġpollen":12395,"ĠPolitical":12396,"estinal":12397,"plus":12398,"Ġfoundations":12399,"Ġ1972":12400,"Ġsatisfaction":12401,"child":12402,"Ġcher":12403,"ĠPil":12404,"ĠPlants":12405,"kay":12406,"Ġ1944":12407,"Ġreceptor":12408,"dam":12409,"Ġcounts":12410,"igion":12411,"ĠKentucky":12412,"Ġcorruption":12413,"Ġchallenged":12414,"ĠCham":12415,"Ġintegrate":12416,"Ġrelates":12417,"imb":12418,"THE":12419,"his":12420,"Ġcircuits":12421,"ĠGP":12422,"Ġlacking":12423,"Ġmissed":12424,"backs":12425,"ĠPay":12426,"ĠFem":12427,"Ġchim":12428,"ĠMonitor":12429,"ĠAustria":12430,"ĠNich":12431,"ĠHealthy":12432,"aved":12433,"Ġrou":12434,"heel":12435,"Ġsore":12436,"urally":12437,"ĠAdvanced":12438,"Dec":12439,"nut":12440,"uese":12441,"graduate":12442,"ĠPow":12443,"ĠVo":12444,"ĠIndependence":12445,"Ġbore":12446,"ĠCass":12447,"exts":12448,"Ġsword":12449,"Ġstaying":12450,"Ġconstitute":12451,"ĠComb":12452,"ĠGreeks":12453,"olia":12454,"Ġoffspring":12455,"Ġpurchasing":12456,"ĠEM":12457,"Ġfeat":12458,"names":12459,"Ġimported":12460,"Ġretire":12461,"enaissance":12462,"Ġspite":12463,"ĠVill":12464,"Ġsocially":12465,"Ġdisin":12466,"Ġcrowd":12467,"Ġchamp":12468,"Ġradar":12469,"Ġfootprint":12470,"Ġeligible":12471,"lades":12472,"rint":12473,"ths":12474,"Ġaccumulation":12475,"Ġsaturated":12476,"ORD":12477,"Ġcavity":12478,"mill":12479,"Ä«":12480,"Ġink":12481,"Ġemergence":12482,"Ġlean":12483,"Ġchemotherapy":12484,"Ġinquiry":12485,"riends":12486,"Ġagenda":12487,"Åį":12488,"ĠMaterials":12489,"Ġbrilliant":12490,"vity":12491,"ĠRa":12492,"Ġdirectory":12493,"test":12494,"Ġbuilds":12495,"iasis":12496,"Ġcareers":12497,"vo":12498,"Ġtherapist":12499,"fat":12500,"ĠShow":12501,"Ġcompete":12502,"induced":12503,"Ġhighlighted":12504,"Ġpromotion":12505,"Ġlabeled":12506,"ĠPublishing":12507,"TC":12508,"tein":12509,"ĠTok":12510,"ĠMilitary":12511,"Ġproclaim":12512,"iens":12513,"Ġneurological":12514,"Ġinadequate":12515,"isa":12516,"iencies":12517,"Ġpresidential":12518,"lict":12519,"Ġcarcin":12520,"ĠWednesday":12521,"venue":12522,"klah":12523,"ĠBoy":12524,"ibration":12525,"Ġmargin":12526,"Ġlenses":12527,"Ġintact":12528,"Ġaltogether":12529,"forestation":12530,"ĠRequ":12531,"Ġ1941":12532,"Ġteachings":12533,"ĠEval":12534,"Black":12535,"Ġwounded":12536,"Ġtear":12537,"Ġcombining":12538,"wind":12539,"arp":12540,"odge":12541,"ĠBasic":12542,"Ġpremature":12543,"Ġinterval":12544,"Ġedited":12545,"Ġlesser":12546,"ĠMarket":12547,"Ġcommemor":12548,"OV":12549,"ĠBird":12550,"esy":12551,"Ġterrible":12552,"Which":12553,"Ġautomated":12554,"ÑĢ":12555,"ĠPit":12556,"Ġbreathe":12557,"Ġfloating":12558,"Ġworried":12559,"ĠIndiana":12560,"Ġcompression":12561,"Ġpredictions":12562,"Ġpeaceful":12563,"Ġcompleting":12564,"system":12565,"Ġpreference":12566,"ĠProphet":12567,"Ġsphere":12568,"scill":12569,"ococc":12570,"lux":12571,"ĠBob":12572,"Ġcorros":12573,"Ġcertification":12574,"gic":12575,"ĠAra":12576,"Ġtries":12577,"weed":12578,"Ġreleases":12579,"ĠDor":12580,"Ġfluctu":12581,"Ġsymbolic":12582,"plane":12583,"orical":12584,"Ġworlds":12585,"Ġmicrobes":12586,"Ġtraged":12587,"Ġvirtue":12588,"Ġcer":12589,"Ġrailway":12590,"Ġbutt":12591,"edge":12592,"Ġbriefly":12593,"wealth":12594,"Ġresilience":12595,"ĠAboriginal":12596,"Par":12597,"Ġextending":12598,"Photo":12599,"ĠPV":12600,"ĠGil":12601,"cat":12602,"Ġdrew":12603,"velation":12604,"iously":12605,"Ġobserving":12606,"Ġradioactive":12607,"ĠSelect":12608,"ĠEarl":12609,"ĠUsually":12610,"orship":12611,"Ġmelan":12612,"Ġasset":12613,"ĠPH":12614,"ĠNig":12615,"Ġunhealthy":12616,"Ġrequests":12617,"Ġ1969":12618,"ĠProtocol":12619,"Ġpriests":12620,"Ġreliability":12621,"Ġdisciplines":12622,"Ġevac":12623,"Ġstimulation":12624,"Ġantioxidants":12625,"Ġvotes":12626,"Ġunclear":12627,"Ġdemonstration":12628,"ĠStanford":12629,"ĠLady":12630,"Ġillustrations":12631,"Ġnavigation":12632,"Dis":12633,"Ġpracticing":12634,"olis":12635,"has":12636,"ugar":12637,"ĠNobel":12638,"itzerland":12639,"Ð½":12640,"Ġcaution":12641,"Ġtriggers":12642,"ĠCook":12643,"fficiency":12644,"Ġbapt":12645,"onduct":12646,"Ġfragments":12647,"uana":12648,"osures":12649,"ĠAlabama":12650,"Ġpanic":12651,"Ġcontroversy":12652,"Ġtestim":12653,"Ġundertaken":12654,"Ġexert":12655,"Ġdecreasing":12656,"Ġjournals":12657,"Ġwast":12658,"Ġ1971":12659,"Ġcrossed":12660,"ĠHell":12661,"Ġcompress":12662,"ietal":12663,"ĠSche":12664,"Ġpound":12665,"Ġraces":12666,"ĠImperial":12667,"ĠSD":12668,"Ġdeclar":12669,"eman":12670,"Ġtwentieth":12671,"Ġsugars":12672,"June":12673,"istence":12674,"Ġcaring":12675,"Ġrows":12676,"Ġmosquito":12677,"uma":12678,"Ġupset":12679,"roups":12680,"Ġmines":12681,"ĠBall":12682,"Ġglory":12683,"Ġconsultation":12684,"Ġartifacts":12685,"Ġbasin":12686,"Ġslower":12687,"Ġenthusi":12688,"ĠSaturday":12689,"aughters":12690,"Ġvoluntary":12691,"()":12692,"asia":12693,"Ġlegitimate":12694,"adian":12695,"ĠVeter":12696,"Ġpigs":12697,"ĠResource":12698,"heat":12699,"Ġcoding":12700,"Ġsho":12701,"Ġ1978":12702,"English":12703,"Ġ1942":12704,"ĠLawrence":12705,"Ġchat":12706,"Ġprovinces":12707,"Ġdated":12708,"Ġmonaster":12709,"Ġ66":12710,"uate":12711,"onge":12712,"uncture":12713,"iffs":12714,"odynam":12715,"Ġtribal":12716,"pers":12717,"ĠIsraeli":12718,"iciency":12719,"atherine":12720,"Ġcontexts":12721,"Ġbitter":12722,"Ġeliminated":12723,"olith":12724,"ĠFacts":12725,"izational":12726,"Ġgraphics":12727,"Ġmul":12728,"Ġslope":12729,"Ġoperator":12730,"Data":12731,"zens":12732,"Ġsuited":12733,"Ġforgotten":12734,"ĠLiterature":12735,"four":12736,"htm":12737,"ovenant":12738,"ĠCastle":12739,"Ġglands":12740,"Ġlunar":12741,"Ġimprison":12742,"Ġagreements":12743,"person":12744,"Ġinvestigations":12745,"Ġinterfere":12746,"Ġfees":12747,"Ġassessing":12748,"klahoma":12749,"ĠLu":12750,"Ġexams":12751,"Ġenvironmentally":12752,"Ġconcentrate":12753,"hend":12754,"Ġextracted":12755,"Ġnorms":12756,"ĠSC":12757,"Ġnumb":12758,"Ġreadings":12759,"zech":12760,"Ġexclusive":12761,"âĢ¦.":12762,"Cent":12763,"mus":12764,"ĠBot":12765,"ĠMuhammad":12766,"Ġimagery":12767,"Ġexplanations":12768,"Ġmodify":12769,"Ġ1948":12770,"ĠForeign":12771,"Ġrhet":12772,"Ġdependence":12773,"ĠMagn":12774,"ĠBrook":12775,"Ġly":12776,"Ġcontra":12777,"arms":12778,"Ġloads":12779,"Ġsegments":12780,"Ġmaternal":12781,"Ġsurely":12782,"ĠSustainable":12783,"Ġgeography":12784,"ĠCredit":12785,"Ġcastle":12786,"Ġdeemed":12787,"Inf":12788,"Ġsimilarly":12789,"ĠBesides":12790,"ĠChen":12791,"amous":12792,"Ġ1976":12793,"oz":12794,"ĠCertain":12795,"Ġresident":12796,"Ġ1967":12797,"Ġnoble":12798,"Ġdwell":12799,"Ġties":12800,"ollo":12801,"illery":12802,"Ġsymp":12803,"Ġstrikes":12804,"Work":12805,"ben":12806,"Ġwells":12807,"MM":12808,"olutions":12809,"Ġaffirm":12810,"Ġvoters":12811,"Ġdesirable":12812,"hot":12813,"Ġtale":12814,"Ġinputs":12815,"Sometimes":12816,"Ġcomprehension":12817,"Ġrehabilitation":12818,"FC":12819,"urb":12820,"Di":12821,"Ġplastics":12822,"Ġlighter":12823,"asted":12824,"ĠHistoric":12825,"cription":12826,"version":12827,"writing":12828,"ĠToronto":12829,"Ġextinct":12830,"ĠSci":12831,"pton":12832,"Her":12833,"March":12834,"ĠSant":12835,"Ġinformal":12836,"Ġpermits":12837,"Ġfirstname":12838,"Ġaltitude":12839,"Ġhepatitis":12840,"ĠKings":12841,"Ġdysfunction":12842,"Ġrebell":12843,"Among":12844,"cedented":12845,"Ġpencil":12846,"Ġwithdrawal":12847,"Ġlact":12848,"Ġtrap":12849,"ova":12850,"Ġ700":12851,"iscal":12852,"Ġclosing":12853,"Ġworkshops":12854,"ĠSyndrome":12855,"eton":12856,"Ġinsufficient":12857,"Ġexplosion":12858,"ĠHolocaust":12859,"ĠTorah":12860,"adic":12861,"letal":12862,"adays":12863,"Ġrelies":12864,"ĠCollection":12865,"ĠRelations":12866,"ĠGive":12867,"Ġelevation":12868,"Ġfart":12869,"Ġmedian":12870,"Science":12871,"Ġindivid":12872,"Ġdescendants":12873,"Ġpiano":12874,"ĠCert":12875,"Ġintestinal":12876,"Ġthumb":12877,"ĠGames":12878,"Ġreforms":12879,"Ġcoating":12880,"ĠEffects":12881,"Ġtackle":12882,"Ġdepicted":12883,"Ġpresenting":12884,"ighters":12885,"Ġfundament":12886,"Ġbicy":12887,"Ġlateral":12888,"Ġreinforce":12889,"Ġentertainment":12890,"Ġattending":12891,"Ġstatue":12892,"ĠConserv":12893,"Ġintermediate":12894,"oping":12895,"Ġshifts":12896,"ashing":12897,"Ġsensation":12898,"Cor":12899,"Ñģ":12900,"Ġstayed":12901,"Ġadmin":12902,"Inter":12903,"amma":12904,"Ġvariability":12905,"Ġdialect":12906,"ĠVisual":12907,"Feb":12908,"ĠLie":12909,"Ġconfined":12910,"Ġfreshwater":12911,"ĠRenaissance":12912,"Ġfreed":12913,"Ġjurisdiction":12914,"Ġinability":12915,"Ġdivisions":12916,"AND":12917,"Ġnausea":12918,"Ġmenstru":12919,"Ġcro":12920,"uly":12921,"Ġpulse":12922,"tr":12923,"ui":12924,"ector":12925,"Ġseparately":12926,"fil":12927,"Ġretained":12928,"Ġcalculation":12929,"BL":12930,"Ġlesions":12931,"oard":12932,"owed":12933,"Ġediting":12934,"Ġadvocates":12935,"ĠDeep":12936,"Ġate":12937,"Ġremembered":12938,"Ġtravels":12939,"Ġloaded":12940,"annel":12941,"Ġharmony":12942,"ĠCountry":12943,"Ġdivor":12944,"imity":12945,"Ġmast":12946,"Ġsystemic":12947,"Ġadvocate":12948,"ĠInitiative":12949,"Ġimpacted":12950,"Ġcurrents":12951,"Ġwetlands":12952,"ĠJordan":12953,"ĠStaff":12954,"othel":12955,"ultural":12956,"Ġbanking":12957,"ĠCopyright":12958,"vas":12959,"ĠHind":12960,"Ġtrains":12961,"ĠIntelligence":12962,"Ġweeds":12963,"TO":12964,"Ġguilty":12965,"Ġscattered":12966,"aline":12967,"Ġbanned":12968,"Ġobstacles":12969,"Ġmelting":12970,"ĠBox":12971,"Ġruler":12972,"Sur":12973,"Ġger":12974,"Ġcarrier":12975,"ĠHal":12976,"Ġseats":12977,"Ġnotably":12978,"EX":12979,"eded":12980,"ĠAqu":12981,"uy":12982,"Ġcontinually":12983,"UD":12984,"Ġbinary":12985,"Ġ1918":12986,"immune":12987,"ĠBroad":12988,"Ġwarrant":12989,"ĠArchae":12990,"rasound":12991,"Early":12992,"Mat":12993,"ĠDemocr":12994,"Ġstrip":12995,"Learning":12996,"Sch":12997,"lementary":12998,"Ġolive":12999,"km":13000,"rained":13001,"Ġsor":13002,"Chapter":13003,"Ġautumn":13004,"Ġlining":13005,"Ġdelight":13006,"Ġevaluating":13007,"jan":13008,"arming":13009,"Ġillum":13010,"ĠRadio":13011,"Ġoccasions":13012,"ĠSi":13013,"ĠTal":13014,"ĠSri":13015,"Ġtruck":13016,"Ġunpre":13017,"Ġmodules":13018,"Ġsnakes":13019,"Ġtet":13020,"Ġlets":13021,"engu":13022,"energy":13023,"Ġcrystal":13024,"Ġmodest":13025,"Ġcomprised":13026,"ĠPalestine":13027,"ĠRap":13028,"Ġdispute":13029,"bird":13030,"ĠBBC":13031,"Ġrecru":13032,"arency":13033,"ĠBrad":13034,"Key":13035,"Ġnegatively":13036,"Sign":13037,"Ġcultivation":13038,"ĠImage":13039,"Ġbowl":13040,"Ġneglect":13041,"Ġcruel":13042,"mind":13043,"IO":13044,"Ġwounds":13045,"Ġmelt":13046,"third":13047,"hematic":13048,"tics":13049,"Ġcreature":13050,"Ġlandscapes":13051,"ilibrium":13052,"Ġmixing":13053,"Ġinterference":13054,"ĠAdams":13055,"Ġalleg":13056,"Ġspont":13057,"Ġstandardized":13058,"Know":13059,"agu":13060,"Ġpeas":13061,"Ġoperates":13062,"Ġbreakdown":13063,"Ġpronounced":13064,"Ġconsec":13065,"ods":13066,"Ġbillions":13067,"pres":13068,"inus":13069,"Ġrating":13070,"ĠGame":13071,"Ġgenerator":13072,"Ġscrew":13073,"Ġinspire":13074,"Ġuncons":13075,"mir":13076,"Ġwires":13077,"tically":13078,"Ġbats":13079,"Ġ2030":13080,"ĠVery":13081,"Ġgrat":13082,"Ġstrictly":13083,"GA":13084,"Ġimpaired":13085,"Ġfunctionality":13086,"arity":13087,"ĠUSDA":13088,"ĠParticip":13089,"rish":13090,"Ġtriggered":13091,"bone":13092,"Ġpointing":13093,"Ġcritics":13094,"Ġluck":13095,"Ġexplores":13096,"Several":13097,"Ġpraise":13098,"Ġcups":13099,"ĠUpper":13100,"Ġ1965":13101,"Ġexplicitly":13102,"Fe":13103,"Good":13104,"count":13105,"ĠAlf":13106,"Ġcement":13107,"Ġdiesel":13108,"ucks":13109,"Ġdestructive":13110,"process":13111,"Ġbridges":13112,"Ġtuber":13113,"proof":13114,"ĠDog":13115,"Ġpreferences":13116,"Ġrealm":13117,"Ġsurroundings":13118,"ĠVirt":13119,"ĠIowa":13120,"ĠGPS":13121,"Ġ130":13122,"ĠNC":13123,"intestinal":13124,"Ġunders":13125,"Bet":13126,"ĠSwitzerland":13127,"ĠCru":13128,"Ġgenerates":13129,"ĠMalays":13130,"Ġcin":13131,"erenn":13132,"Ġfungus":13133,"ĠAnaly":13134,"ĠMaria":13135,"ĠWy":13136,"ĠEaster":13137,"Ġnewborn":13138,"Ġwool":13139,"Ġsmok":13140,"NT":13141,"regn":13142,"ĠConnecticut":13143,"Ġozone":13144,"Ġ1974":13145,"ometric":13146,"Ġquot":13147,"Ġoutstanding":13148,"Net":13149,"ĠPy":13150,"Ġeliminating":13151,"Ġaccommodate":13152,"Ġcertificate":13153,"Ġblocked":13154,"Ġsilent":13155,"ĠProtestant":13156,"Ġgallons":13157,"ĠPra":13158,"Ġ110":13159,"Ġseas":13160,"Ġtoilet":13161,"ĠFle":13162,"Ġoffset":13163,"Ġburial":13164,"ĠStrateg":13165,"ĠJoh":13166,"ĠOrthodox":13167,"ĠPediatric":13168,"Ġsynthes":13169,"Ġecology":13170,"ĠÂ»":13171,"Ġsink":13172,"Ġtoll":13173,"ulent":13174,"Ġscreens":13175,"ĠSummer":13176,"ĠPhilosophy":13177,"Ġnegotiations":13178,"Ġtransported":13179,"ĠAnton":13180,"ĠBanglades":13181,"Ġidentifies":13182,"Ġwatershed":13183,"otive":13184,"rubs":13185,"Ġframes":13186,"ĠSM":13187,"ĠMaine":13188,"ĠWas":13189,"Ġpositively":13190,"dem":13191,"Ġfits":13192,"aron":13193,"Ġsafegu":13194,"))":13195,"ogenesis":13196,"Ġsimilarities":13197,"Ġdelayed":13198,"Ġgrocer":13199,"Food":13200,"hal":13201,"alling":13202,"Ġrecur":13203,"Ġlasted":13204,"ĠGenesis":13205,"imination":13206,"Des":13207,"Ġdesper":13208,"Ġchecks":13209,"Ġunprecedented":13210,"Ġdisse":13211,"ĠYouth":13212,"ĠOklahoma":13213,"Ġactivists":13214,"Ġmechanics":13215,"Ġinspection":13216,"unes":13217,"ĠSwedish":13218,"Ġscarce":13219,"Ġ||":13220,"Ġcows":13221,"ĠMIT":13222,"Ġlongest":13223,"Ġmodes":13224,"ennis":13225,"Ġextensively":13226,"Ġunderm":13227,"ĠNewton":13228,"unciation":13229,"ixed":13230,"Ġmarker":13231,"Ġsomehow":13232,"Ġindo":13233,"ocking":13234,"ĠCommer":13235,"aran":13236,"ambo":13237,"Hel":13238,"isl":13239,"Ġplacement":13240,"ĠPortuguese":13241,"itives":13242,"Ġtodd":13243,"Ġmacro":13244,"ĠParkinson":13245,"Down":13246,"Ġcous":13247,"ĠByz":13248,"Ġjudges":13249,"ĠAgricultural":13250,"ĠSingapore":13251,"ĠAlb":13252,"ĠNorway":13253,"OUR":13254,"Ġgel":13255,"Ġstrings":13256,"Ġlegally":13257,"Ġtitled":13258,"Ġmitochond":13259,"ĠMathematics":13260,"ellar":13261,"Ġinclusive":13262,"Ġattachment":13263,"marks":13264,"PE":13265,"Ġcollaps":13266,"Ġimpairment":13267,"Ġstir":13268,"erto":13269,"Ġsends":13270,"Ġfired":13271,"Check":13272,"Yet":13273,"threat":13274,"Ġantioxidant":13275,"Ġsake":13276,"pin":13277,"ĠThings":13278,"Ġ58":13279,"ĠVenus":13280,"oglob":13281,"Green":13282,"idth":13283,"coma":13284,"Ġdisappeared":13285,".(":13286,"esteem":13287,"ĠHou":13288,"Ġactivation":13289,"arettes":13290,"Ġconsolid":13291,"ĠArmen":13292,"resistant":13293,"Ġlikes":13294,"bes":13295,"adi":13296,"ĠPersonal":13297,"reas":13298,"Ġthou":13299,"Ġcombustion":13300,"chi":13301,"Ġrefined":13302,"Ġ1964":13303,"Ġrabb":13304,"PC":13305,"irk":13306,"Ġachievements":13307,"Ġfossils":13308,"Ġlux":13309,"ĠRain":13310,"Ġqueen":13311,"ysics":13312,"ĠBenjamin":13313,"ocene":13314,"Ġshells":13315,"Ġcervical":13316,"PM":13317,"ĠIL":13318,"wich":13319,"ĠPast":13320,"ĠDak":13321,"lies":13322,"Ġjet":13323,"aga":13324,"Vis":13325,"Ġnaval":13326,"dec":13327,"ĠHans":13328,"ĠAlliance":13329,"sim":13330,"Ġvoy":13331,"Ġtoxicity":13332,"Ġthreatening":13333,"April":13334,"opor":13335,"Ġpatches":13336,"bled":13337,"Ġpassages":13338,"Ġintestine":13339,"Ġprosperity":13340,"Ġjoining":13341,"Ben":13342,"Tube":13343,"Ġworkforce":13344,"Ġactivated":13345,"Ġ1977":13346,"Ġjuven":13347,"lude":13348,"Ġconsiders":13349,"ĠGi":13350,"novation":13351,"Ġorth":13352,"ĠBeach":13353,"Ġuncomm":13354,"Ġimplant":13355,"ethyl":13356,"ĠPMID":13357,"Following":13358,"Ġplanes":13359,"Ġinserted":13360,"Ġcoupled":13361,"stable":13362,"ĠRegional":13363,"Ġconception":13364,"Act":13365,"rosis":13366,"ocytes":13367,"Ġrecipe":13368,"Ġacknowledged":13369,"Ġbip":13370,"Ġmant":13371,"Start":13372,"Ġscrap":13373,"prot":13374,"ĠCapital":13375,"hesia":13376,"Ġdamages":13377,"eu":13378,"mother":13379,"ĠChemistry":13380,"Ġ1939":13381,"ĠSimon":13382,"ÙĴ":13383,"amel":13384,"Ġvic":13385,"Ġcock":13386,"ĠSound":13387,"ĠGas":13388,"aza":13389,"ĠAlways":13390,"Ġ97":13391,"Ġmyths":13392,"ĠBishop":13393,"ĠEat":13394,"otional":13395,"ĠCamb":13396,"estab":13397,"Ġparasites":13398,"Ġwatched":13399,"Ġpoultry":13400,"Ġpacked":13401,"Ġbrut":13402,"Ġranks":13403,"Ġinfo":13404,"Ġpurely":13405,"ĠDepending":13406,"Ġcrafts":13407,"Ġpyram":13408,"Ġunsu":13409,"Ġcharging":13410,"Common":13411,"Ġhungry":13412,"Ġbehave":13413,"Ġwarned":13414,"itational":13415,"Ġfool":13416,"Ġrevised":13417,"Ġhoped":13418,"ĠPerson":13419,"ĠBegin":13420,"ĠPlanning":13421,"articles":13422,"building":13423,"kg":13424,"Ġmunicipal":13425,"SE":13426,"Ġcitizenship":13427,"Ġbon":13428,"Ġexploitation":13429,"Ġinstinct":13430,"roximately":13431,"Ġindividually":13432,"utri":13433,"ĠSel":13434,"Ġinvisible":13435,"pub":13436,"ierra":13437,"ĠCollect":13438,"ĠSaturn":13439,"ĠWolf":13440,"Ġcoh":13441,"Sept":13442,"ĠPrimary":13443,"Ġmaintains":13444,"Ġglasses":13445,"ĠDiseases":13446,"ĠED":13447,"Ġsilicon":13448,"cellular":13449,"Ġgrab":13450,"ĠSkills":13451,"lied":13452,"esar":13453,"ĠGospel":13454,"Ġcompeting":13455,"Sym":13456,"Ġsubjected":13457,"ĠNev":13458,"ĠBerkeley":13459,"Ġinval":13460,"Ġperceive":13461,"Ġbaseline":13462,"uru":13463,"ĠPict":13464,"ĠAnti":13465,"Ġdissolved":13466,"ĠSmart":13467,"Ġrival":13468,"Ġattribute":13469,"ocate":13470,"Ġcentres":13471,"Ġeconomically":13472,"Ġsufficiently":13473,"ulatory":13474,"second":13475,"Fl":13476,"ĠStock":13477,"avy":13478,"Ġrecognised":13479,"dig":13480,"inging":13481,"rock":13482,"idel":13483,"Ġwre":13484,"plicit":13485,"rative":13486,"ryption":13487,"Ġfriction":13488,"Ġalgebra":13489,"Ġformerly":13490,"Ġdedu":13491,"Ġprobe":13492,"Ġdece":13493,"ĠHun":13494,"Ġcharts":13495,"Ġcel":13496,"ĠMas":13497,"Ġmillenn":13498,"aus":13499,"Ġcompiled":13500,"Ġparish":13501,"Add":13502,"Ġselecting":13503,"itime":13504,"Ġank":13505,"Ġtransit":13506,"Ġbreeds":13507,"ioned":13508,"Ġtraces":13509,"Ġappliances":13510,"site":13511,"Ġdwarf":13512,"Ġconform":13513,"Ġrum":13514,"1999":13515,"Ġbulbs":13516,"ĠSoutheast":13517,"ership":13518,"Ġsilk":13519,"Ġarrangements":13520,"ĠFat":13521,"Ġregards":13522,"ĠRac":13523,"stan":13524,"ĠAuthority":13525,"ĠCL":13526,"Ġinstructor":13527,"Ġnavigate":13528,"Ġoutbreaks":13529,"Ġdeployed":13530,"Ġwheels":13531,"Ġbod":13532,"Ġearthquakes":13533,"Ġriding":13534,"Ġtrapped":13535,"Ġtranscript":13536,"Ġmobil":13537,"Ġintrig":13538,"Ġperipheral":13539,"nest":13540,"ĠAllen":13541,"Ġstretching":13542,"ĠPRO":13543,"Ġfathers":13544,"Ġwhale":13545,"ĠKash":13546,"Ġtric":13547,"Ġliber":13548,"ifiers":13549,"ĠMaybe":13550,"mates":13551,"ĠTB":13552,"log":13553,"ĠTrib":13554,"bot":13555,"ĠSE":13556,"Ġuncomfort":13557,"tech":13558,"Ġautonomous":13559,"ĠImpact":13560,"ĠTogether":13561,"than":13562,"ĠRoss":13563,"ĠGenerally":13564,"ingham":13565,"ĠAstr":13566,"Ġposture":13567,"Ġpalace":13568,"Î½":13569,"Ġseaf":13570,"Ġvalued":13571,"Ġfusion":13572,"ĠResults":13573,"ĠVideo":13574,"oriented":13575,"ardo":13576,"Ġcompromise":13577,"Ġpour":13578,"Ġsixth":13579,"uliar":13580,"Ġprototype":13581,"Ġcultivated":13582,"ĠMachine":13583,"sight":13584,"Ġkeyboard":13585,"Ġvulnerability":13586,"Ġunconscious":13587,"âĪĴ":13588,"odd":13589,"Unfortunately":13590,"Ġpaste":13591,"Ġrequested":13592,"len":13593,"alry":13594,"Ġdisabled":13595,"Ġrolling":13596,"Ġappreciation":13597,"bial":13598,"Ġveins":13599,"Ġbesides":13600,"Ġyog":13601,"Ġevolve":13602,"ĠRegion":13603,"Ġelectroly":13604,"Ġwastewater":13605,"Mr":13606,"Ġfailing":13607,"bound":13608,"food":13609,"Ġsettlements":13610,"ania":13611,"Ùı":13612,"Ġeternal":13613,"ĠImmun":13614,"Ret":13615,"ĠBuild":13616,"Ġmedicinal":13617,"rehend":13618,"Ġisot":13619,"Ġresolved":13620,"Ġoak":13621,"Ġtomatoes":13622,"Ġtemples":13623,"Ġwalked":13624,"Ġoutlined":13625,"ĠEC":13626,"ĠTele":13627,"Ġturtles":13628,"Ġdozens":13629,"Ġprejud":13630,"Ġvariants":13631,"ignt":13632,"Ġinevitable":13633,"Ġgasoline":13634,"Ġgently":13635,"thy":13636,"Ġ63":13637,"mi":13638,"Ġworksheet":13639,"home":13640,"ĠAB":13641,"uters":13642,"lihood":13643,"igo":13644,"Ġports":13645,"itar":13646,"Ġgay":13647,"oscow":13648,"Ġsuppress":13649,"Ġinnovations":13650,"rophy":13651,"ĠRE":13652,"Ġadjusted":13653,"Ġpneumonia":13654,"Ġclot":13655,"Ġwarfare":13656,"ĠLes":13657,"ĠEuropeans":13658,"ĠCuba":13659,"pose":13660,"Ġdump":13661,"Ġprimitive":13662,"Ġinvestigating":13663,"Ġdamp":13664,"Ġbench":13665,"Ġfloods":13666,"Does":13667,"fram":13668,"uated":13669,"Ġproc":13670,"ĠFried":13671,"perature":13672,"Ġquoted":13673,"Ġretrie":13674,"ĠMagazine":13675,"retion":13676,"Ġdraws":13677,"Ġsanct":13678,"Ġplural":13679,"Ġdisplace":13680,"ĠPopulation":13681,"sets":13682,"ĠCzech":13683,"Ġbloom":13684,"Ġfans":13685,"Ġafterwards":13686,"Ġlayout":13687,"ĠHamilton":13688,"iolence":13689,"Ġmonetary":13690,"Ġcortex":13691,"Ġgrasp":13692,"lan":13693,"ĠKal":13694,"ðŁ":13695,"ĠBud":13696,"Thanks":13697,"ĠCommunist":13698,"Ġmosquitoes":13699,"ĠCab":13700,"izoph":13701,"Ġpromises":13702,"Ġenroll":13703,"source":13704,"ĠAccessed":13705,"Ġsurgeon":13706,"PT":13707,"Ġexamines":13708,"Af":13709,"Ġarom":13710,"ĠMeanwhile":13711,"rones":13712,"Ġgoddess":13713,"Ġarsen":13714,"nee":13715,"Ġremedy":13716,"driven":13717,"ĠWinter":13718,"ĠMcG":13719,"Ġtraff":13720,"erk":13721,"interest":13722,"Ġdot":13723,"Ġdisciples":13724,"ĠPeru":13725,"Ġhasn":13726,"Ġodds":13727,"oT":13728,"heum":13729,"Ġcram":13730,"Ġworms":13731,"Ġ1917":13732,"Ġmicroscope":13733,"urities":13734,"Ġfactories":13735,"Ġsolved":13736,"Ġjewel":13737,"Free":13738,"Ġ1914":13739,"note":13740,"rea":13741,"ĠPrior":13742,"axis":13743,"Ġsubstrate":13744,"Ġjack":13745,"ppers":13746,"redict":13747,"Ġ1963":13748,"arbon":13749,"otle":13750,"week":13751,"ĠUniverse":13752,"ĠDate":13753,"group":13754,"cerpt":13755,"ante":13756,"Ġtutorial":13757,"ĠConn":13758,"Ġharvesting":13759,"Ġweed":13760,"DC":13761,"Ġbiblical":13762,"leans":13763,"ĠBrig":13764,"Ġtemporal":13765,"Ġsucc":13766,"Ġsecured":13767,"izophren":13768,"LC":13769,"onics":13770,"Ġtrillion":13771,"Ġ59":13772,"Ġpublish":13773,"Ġlinguistic":13774,"Dav":13775,"ĠRoc":13776,"Ġabortion":13777,"Ġretired":13778,"ĠAward":13779,"Ġspirits":13780,"Ġabdomen":13781,"Ġtablets":13782,"Ġuncommon":13783,"pack":13784,"Ġhandful":13785,"Ġobtaining":13786,"powered":13787,"anic":13788,"ĠHait":13789,"ussian":13790,"ressions":13791,"rost":13792,"Ġenerg":13793,"Ġassass":13794,"Ġproblematic":13795,"tw":13796,"vised":13797,"ĠLanc":13798,"ĠDeb":13799,"Ġpassenger":13800,"Ġmodification":13801,"esthet":13802,"ĠVI":13803,"Ġcounseling":13804,"ĠFun":13805,"Ġ68":13806,"ĠWhit":13807,"Ġmicrobial":13808,"Ġdos":13809,"odus":13810,"Ġq":13811,"Ġants":13812,"Ġathe":13813,"Ġunited":13814,"Ġmodifications":13815,"Ġlectures":13816,"Ġsits":13817,"ĠDick":13818,"lip":13819,"ARS":13820,"Ġastronomers":13821,"reach":13822,"Ġlin":13823,"Ġdrum":13824,"Ġemphasize":13825,"ĠTour":13826,"Ġ62":13827,"Ġpresentations":13828,"Ġheading":13829,"Time":13830,"inar":13831,"Ġcountless":13832,"Ġ67":13833,"culosis":13834,"erce":13835,"Ġcritically":13836,"Ġchromosome":13837,"ĠEconomics":13838,"ĠGand":13839,"Ġillustrates":13840,"Ġsuspended":13841,"Ġrip":13842,"ĠKit":13843,"ĠLink":13844,"ĠAlong":13845,"FP":13846,"Ġwitnessed":13847,"Ġsulfur":13848,"Ġstopping":13849,"abase":13850,"Ġhorizon":13851,"ĠEinstein":13852,"eps":13853,"Ġproposals":13854,"ige":13855,"ĠSong":13856,"Ġprelim":13857,"emen":13858,"Out":13859,"via":13860,"race":13861,"Ġsmile":13862,"Ġdownt":13863,"Ġenrich":13864,"Ġdesigner":13865,"ĠSyd":13866,"ivic":13867,"tha":13868,"Ġinstructional":13869,"depth":13870,"Ġlion":13871,"Ġasbestos":13872,"Social":13873,"rots":13874,"ĠPatrick":13875,"Ġpole":13876,"ĠAnth":13877,"Ġtears":13878,"Ġoct":13879,"ĠStress":13880,"Ġdynasty":13881,"ijuana":13882,"%),":13883,"ĠHaz":13884,"ccessful":13885,"Ġuntreated":13886,"Ġtourists":13887,"Ġnasal":13888,"sels":13889,"ĠFox":13890,"Ġincentives":13891,"ĠMechan":13892,"Ġamph":13893,"Ġcounterparts":13894,"imated":13895,"Ġasym":13896,"Ġpotato":13897,"ignty":13898,"ricular":13899,"Ġmonarch":13900,"Ġstrat":13901,"Ġsharks":13902,"ĠKy":13903,"Ġpumps":13904,"ĠRos":13905,"ĠTravel":13906,"ĠAy":13907,"Ġpublishing":13908,"adows":13909,"phen":13910,"usions":13911,"Ġsupportive":13912,"rator":13913,"Ġportable":13914,"Ġpreliminary":13915,"Ġaccordingly":13916,"Ġtraumatic":13917,"Ġrestaurants":13918,"ĠHart":13919,"Ġcrystals":13920,"Ġoun":13921,"ĠMoore":13922,"Ġshooting":13923,"Ġapproaching":13924,"Life":13925,"Ġlanded":13926,"Ġderiv":13927,"obacter":13928,"Ġtranslate":13929,"Ġmysterious":13930,"raul":13931,"ĠLakes":13932,"Ġretention":13933,"Ġdrilling":13934,"pler":13935,"Ġclinic":13936,"Ġdrying":13937,"ĠBangladesh":13938,"ĠDraw":13939,"unct":13940,"Ġtransaction":13941,"Three":13942,"ancies":13943,"hol":13944,"ĠDenmark":13945,"ĠCust":13946,"Ġdemanding":13947,"ĠLoss":13948,"ĠCoal":13949,"Ġsilence":13950,"ĠDouglas":13951,"Ġelectromagnetic":13952,"Ġcoordinate":13953,"Ġuncomfortable":13954,"ĠTs":13955,"ĠConsequently":13956,"Ġty":13957,"ceedings":13958,"Ġdescent":13959,"Ġformats":13960,"Ġmatching":13961,"Ġdeny":13962,"Ġsatisfied":13963,"Whether":13964,"Ġcater":13965,"Ġrigid":13966,"Ġpuzzle":13967,"Ġdisagree":13968,"Ġana":13969,"comput":13970,"Ġelite":13971,"oporosis":13972,"Ġresting":13973,"ĠAgreement":13974,"Ġshame":13975,"Ġterrain":13976,"Ġventilation":13977,"ĠFollow":13978,"Ġhighway":13979,"Ġsemic":13980,"ĠMun":13981,"Ġprocessor":13982,"ĠYe":13983,"Ġobligations":13984,"ĠBasin":13985,"150":13986,"pop":13987,"Ġretreat":13988,"Ġorch":13989,"Ġdelicate":13990,"Ġanxious":13991,"Ġ1850":13992,"Ġmicrobi":13993,"acity":13994,"control":13995,"ĠLtd":13996,"ĠAntarctic":13997,"Ġmush":13998,"ĠNigeria":13999,"ĠHug":14000,"Ġurgent":14001,"month":14002,"Ġinfinite":14003,"Ġstro":14004,"direct":14005,"pher":14006,"Ġtent":14007,"Ġsoda":14008,"imental":14009,"ĠNurs":14010,"Ġedit":14011,"Ġpriorities":14012,"oin":14013,"upuncture":14014,"Ġurinary":14015,"style":14016,"Ġwashed":14017,"assing":14018,"Ġflowering":14019,"Ġambit":14020,"imore":14021,"Ġ1943":14022,"ĠOw":14023,"Î¿":14024,"Ġintercon":14025,"Ġembrace":14026,"FT":14027,"Ġsour":14028,"inge":14029,"ĠOak":14030,"ĠCompar":14031,"Mc":14032,"Ġformally":14033,"Ġrecommendation":14034,"Ġinventory":14035,"Ġconnects":14036,"orrh":14037,"Ġtourist":14038,"Ġunwanted":14039,"Ġutter":14040,"auses":14041,"ograms":14042,"Ġremedies":14043,"Red":14044,"ilies":14045,"Ġelaborate":14046,"may":14047,"pit":14048,"Ġcargo":14049,"Ġstrengthening":14050,"illes":14051,"onder":14052,"ĠCurrently":14053,"Ġpotent":14054,"orescent":14055,"Having":14056,"Ġquestionna":14057,"ipt":14058,"ophers":14059,"Ġwishes":14060,"Ġhub":14061,"Ġrash":14062,"Ġintoler":14063,"Ġpermanently":14064,"Ġcivilian":14065,"ĠDisorder":14066,"Ġstruggles":14067,"Ġrust":14068,"eft":14069,"Ġillustration":14070,"Ġburns":14071,"Ġpeculiar":14072,"July":14073,"ĠLuke":14074,"Ġrituals":14075,"Non":14076,"ili":14077,"acerb":14078,
[...]
